<pad>	0
<unk>	0
<s>	0
</s>	0
ER	-0
▁=	-1
▁A	-2
CT	-3
RO	-4
SE	-5
▁F	-6
LE	-7
LECT	-8
SELECT	-9
ta	-10
ROM	-11
▁FROM	-12
▁"	-13
ti	-14
▁W	-15
▁WH	-16
me	-17
ERE	-18
▁WHERE	-19
▁SELECT	-20
nt	-21
le	-22
id	-23
▁'	-24
on	-25
te	-26
ND	-27
ic	-28
▁AND	-29
re	-30
de	-31
ble	-32
▁ta	-33
▁table	-34
▁p	-35
IN	-36
co	-37
er	-38
ati	-39
ent	-40
ame	-41
ar	-42
▁C	-43
ra	-44
in	-45
se	-46
ad	-47
name	-48
is	-49
▁O	-50
▁AS	-51
adm	-52
it	-53
or	-54
atient	-55
st	-56
mo	-57
sta	-58
▁d	-59
NT	-60
ia	-61
▁T	-62
▁(	-63
▁D	-64
la	-65
gra	-66
▁B	-67
ph	-68
al	-69
▁de	-70
OU	-71
ro	-72
▁t	-73
graph	-74
graphic	-75
mographic	-76
▁COU	-77
▁demographic	-78
▁BY	-79
1.	-80
ons	-81
IM	-82
▁COUNT	-83
▁patient	-84
ur	-85
time	-86
ct	-87
no	-88
un	-89
ate	-90
▁1	-91
si	-92
ity	-93
ch	-94
▁IN	-95
res	-96
ST	-97
code	-98
▁J	-99
ce	-100
▁JO	-101
hadm	-102
IT	-103
iag	-104
iagno	-105
stay	-106
IME	-107
▁JOIN	-108
TIME	-109
_2	-110
_1	-111
▁ON	-112
ation	-113
ig	-114
ir	-115
city	-116
urse	-117
an	-118
course	-119
00	-120
▁OR	-121
Id	-122
▁f	-123
lab	-124
ort	-125
issi	-126
igh	-127
')	-128
DER	-129
admissi	-130
ye	-131
su	-132
▁<	-133
Po	-134
of	-135
AT	-136
2.	-137
ri	-138
ight	-139
tem	-140
OR	-141
air	-142
admissions	-143
icd	-144
▁admissions	-145
th	-146
▁ORDER	-147
ay	-148
▁>	-149
ATE	-150
ue	-151
patient	-152
▁L	-153
je	-154
light	-155
port	-156
IR	-157
stayid	-158
art	-159
ject	-160
ser	-161
sub	-162
ment	-163
subject	-164
airport	-165
▁M	-166
▁DE	-167
ag	-168
IC	-169
ses	-170
▁G	-171
▁diagno	-172
Post	-173
▁2	-174
▁DATE	-175
IST	-176
year	-177
du	-178
INCT	-179
ISTINCT	-180
pe	-181
ITY	-182
ORT	-183
at	-184
lo	-185
SER	-186
PORT	-187
▁AIR	-188
ICE	-189
▁AIRPORT	-190
VICE	-191
SERVICE	-192
ing	-193
ou	-194
_0	-195
UP	-196
vent	-197
▁course	-198
ROUP	-199
▁GROUP	-200
▁CITY	-201
SC	-202
ru	-203
am	-204
en	-205
sis	-206
tion	-207
▁S	-208
rt	-209
um	-210
▁flight	-211
▁pro	-212
▁DATETIME	-213
vents	-214
▁DESC	-215
start	-216
pu	-217
")	-218
▁N	-219
("	-220
tions	-221
rip	-222
▁lab	-223
crip	-224
ter	-225
▁c	-226
he	-227
NER	-228
▁INNER	-229
▁diagnoses	-230
ias	-231
▁of	-232
alias	-233
rescrip	-234
rescriptions	-235
ber	-236
Date	-237
cedu	-238
_3	-239
cedures	-240
item	-241
▁Post	-242
',	-243
unit	-244
▁s	-245
▁prescriptions	-246
ID	-247
*)	-248
(*)	-249
▁year	-250
tal	-251
_4	-252
es	-253
unitstayid	-254
day	-255
ype	-256
diagno	-257
_5	-258
uni	-259
ke	-260
que	-261
DISTINCT	-262
_0.	-263
_6	-264
core	-265
_1.	-266
_7	-267
01	-268
▁in	-269
▁'2	-270
chart	-271
▁a	-272
charttime	-273
ENT	-274
il	-275
▁'1	-276
ice	-277
ys	-278
fer	-279
IMIT	-280
▁LIMIT	-281
▁b	-282
pid	-283
▁m	-284
dic	-285
()	-286
num	-287
▁date	-288
Re	-289
▁procedures	-290
are	-291
rug	-292
drug	-293
unique	-294
uniquepid	-295
reat	-296
as	-297
ystem	-298
UM	-299
per	-300
reatment	-301
out	-302
system	-303
ul	-304
Name	-305
ge	-306
tit	-307
alth	-308
health	-309
healthsystem	-310
tevents	-311
team	-312
mes	-313
ol	-314
serv	-315
▁v	-316
semes	-317
semester	-318
char	-319
STR	-320
icu	-321
_20	-322
fering	-323
icustay	-324
User	-325
title	-326
el	-327
▁me	-328
▁P	-329
UR	-330
▁SUM	-331
▁city	-332
ome	-333
AR	-334
EN	-335
▁Posts	-336
number	-337
▁co	-338
▁MA	-339
diagnosis	-340
items	-341
outpu	-342
('	-343
service	-344
VG	-345
IS	-346
▁AVG	-347
('%	-348
▁w	-349
10	-350
▁MIN	-351
ran	-352
STRF	-353
STRFTIME	-354
3.	-355
ver	-356
KE	-357
to	-358
▁airport	-359
▁'%	-360
lay	-361
99	-362
IKE	-363
▁LIKE	-364
ital	-365
RENT	-366
▁MAX	-367
URRENT	-368
offering	-369
date	-370
▁"2	-371
ure	-372
int	-373
9_	-374
nd	-375
▁STRFTIME	-376
cation	-377
▁DISTINCT	-378
▁e	-379
ctor	-380
nth	-381
UL	-382
wn	-383
part	-384
▁3	-385
▁g	-386
dication	-387
lin	-388
io	-389
Type	-390
▁'-	-391
output	-392
▁0	-393
__	-394
take	-395
)"	-396
CURRENT	-397
Tag	-398
%'	-399
(),	-400
ry	-401
sh	-402
reation	-403
month	-404
▁E	-405
po	-406
ult	-407
reationDate	-408
ULL	-409
▁h	-410
takeoutput	-411
▁NULL	-412
op	-413
▁<=	-414
▁IS	-415
▁medication	-416
age	-417
pro	-418
AN	-419
mp	-420
'))	-421
▁H	-422
tes	-423
us	-424
_8	-425
_0,	-426
flight	-427
icustays	-428
▁icustays	-429
OT	-430
▁diagnosis	-431
stru	-432
_1,	-433
ount	-434
layer	-435
▁-	-436
od	-437
▁team	-438
itemid	-439
chartevents	-440
ear	-441
ie	-442
structor	-443
▁re	-444
▁NOT	-445
ted	-446
▁>=	-447
ist	-448
▁5	-449
unt	-450
▁"1	-451
▁4	-452
ne	-453
Score	-454
ll	-455
os	-456
treatment	-457
ac	-458
type	-459
))	-460
Co	-461
▁semester	-462
UserId	-463
ints	-464
partment	-465
▁treatment	-466
98	-467
wer	-468
und	-469
der	-470
ory	-471
0'	-472
CreationDate	-473
▁month	-474
pon	-475
▁po	-476
▁200	-477
▁score	-478
▁day	-479
events	-480
",	-481
ap	-482
cor	-483
Count	-484
ponent	-485
diagnoses	-486
dis	-487
ve	-488
enue	-489
fa	-490
rom	-491
gram	-492
_204	-493
97	-494
link	-495
TypeId	-496
12	-497
RSE	-498
▁chartevents	-499
lu	-500
short	-501
96	-502
▁Tag	-503
diagnosistime	-504
cu	-505
fare	-506
Year	-507
▁*	-508
ine	-509
sition	-510
02	-511
ng	-512
ns	-513
▁labevents	-514
95	-515
▁intakeoutput	-516
##	-517
ance	-518
ss	-519
AY	-520
our	-521
▁program	-522
icro	-523
label	-524
cord	-525
days	-526
AL	-527
duct	-528
▁name	-529
34	-530
om	-531
aper	-532
5'	-533
result	-534
▁u	-535
ET	-536
VER	-537
3'	-538
anu	-539
14	-540
ong	-541
Users	-542
▁6	-543
ard	-544
16	-545
Vo	-546
ion	-547
15	-548
0.	-549
0"	-550
wner	-551
▁sta	-552
ocation	-553
val	-554
ire	-555
94	-556
▁micro	-557
location	-558
eam	-559
procedures	-560
all	-561
otal	-562
32	-563
▁'210	-564
from	-565
17	-566
18	-567
way	-568
1'	-569
WE	-570
ip	-571
ittime	-572
ric	-573
92	-574
GH	-575
▁Users	-576
▁R	-577
log	-578
tation	-579
startdate	-580
▁COURSE	-581
36	-582
drugstart	-583
drugstarttime	-584
▁q	-585
4'	-586
_203	-587
ob	-588
mplo	-589
ner	-590
mploye	-591
ON	-592
▁FL	-593
inal	-594
35	-595
38	-596
tend	-597
ETWE	-598
ETWEEN	-599
▁BETWEEN	-600
perio	-601
cture	-602
tendance	-603
▁Re	-604
AM	-605
and	-606
06	-607
periodic	-608
italperiodic	-609
hos	-610
37	-611
ee	-612
wnerUserId	-613
Tags	-614
ary	-615
charge	-616
ART	-617
pital	-618
08	-619
hospital	-620
ude	-621
ason	-622
▁7	-623
PostId	-624
▁201	-625
▁100	-626
Home	-627
PART	-628
anufa	-629
anufacture	-630
putation	-631
RAN	-632
IGH	-633
56	-634
▁fare	-635
instructor	-636
anufacturer	-637
▁Tags	-638
▁days	-639
IGHT	-640
omer	-641
treatmenttime	-642
stomer	-643
MENT	-644
department	-645
▁employe	-646
ed	-647
uth	-648
qu	-649
▁vitalperiodic	-650
07	-651
rans	-652
▁OVER	-653
ank	-654
orm	-655
-2	-656
SERVICEalias	-657
ill	-658
cho	-659
ORDER	-660
discharge	-661
PARTMENT	-662
▁employees	-663
YE	-664
57	-665
▁8	-666
uthor	-667
ction	-668
im	-669
ba	-670
DATE	-671
Code	-672
04	-673
round	-674
9'	-675
▁CITYalias	-676
LA	-677
▁st	-678
▁FLIGHT	-679
58	-680
udent	-681
▁player	-682
▁o	-683
ff	-684
▁1)	-685
Location	-686
di	-687
labitems	-688
admittime	-689
)'	-690
-%	-691
up	-692
lub	-693
▁j	-694
ex	-695
1"	-696
ick	-697
▁se	-698
2'	-699
ts	-700
DE	-701
77	-702
eek	-703
rank	-704
cv	-705
ck	-706
44	-707
6'	-708
28	-709
▁n	-710
admission	-711
chool	-712
drugname	-713
ath	-714
▁199	-715
Player	-716
putevents	-717
ING	-718
03	-719
▁'-1	-720
Ro	-721
68	-722
MP	-723
opponent	-724
ins	-725
05	-726
nswer	-727
OwnerUserId	-728
Op	-729
ain	-730
▁count	-731
ational	-732
DAY	-733
▁cost	-734
Votes	-735
22	-736
48	-737
ateg	-738
lace	-739
13	-740
7'	-741
river	-742
oal	-743
ron	-744
ze	-745
key	-746
mber	-747
itle	-748
ategory	-749
ma	-750
lass	-751
▁Pro	-752
Opponent	-753
▁DEPARTMENT	-754
ast	-755
rid	-756
atch	-757
▁paper	-758
IRE	-759
ies	-760
93	-761
LO	-762
8'	-763
cell	-764
▁TH	-765
Team	-766
RANK	-767
red	-768
ARE	-769
long	-770
count	-771
one	-772
irst	-773
▁opponent	-774
tra	-775
intakeoutput	-776
46	-777
les	-778
ft	-779
dischargetime	-780
▁ch	-781
▁PostTags	-782
ler	-783
Se	-784
NSE	-785
▁DENSE	-786
ian	-787
old	-788
ork	-789
Rank	-790
tus	-791
),	-792
3"	-793
47	-794
FF	-795
bio	-796
Points	-797
9"	-798
▁12	-799
▁+	-800
▁no	-801
Position	-802
▁la	-803
biolog	-804
yevents	-805
biologyevents	-806
_17	-807
_26	-808
▁Name	-809
▁THEN	-810
▁WHEN	-811
mar	-812
lt	-813
▁ra	-814
52	-815
ning	-816
post	-817
▁Reputation	-818
value	-819
▁U	-820
▁'-0	-821
Total	-822
_18	-823
▁instructor	-824
000	-825
ket	-826
nce	-827
TagName	-828
cted	-829
▁HIRE	-830
gen	-831
▁microlab	-832
42	-833
AME	-834
▁home	-835
NAME	-836
diagnosisname	-837
oals	-838
ers	-839
▁Product	-840
labresult	-841
In	-842
des	-843
arty	-844
tic	-845
▁Id	-846
_16	-847
5"	-848
iew	-849
▁location	-850
ationality	-851
▁/	-852
▁or	-853
ody	-854
CA	-855
AG	-856
_28	-857
▁points	-858
11	-859
▁inputevents	-860
sed	-861
istory	-862
▁offering	-863
Away	-864
user	-865
YEE	-866
MPLO	-867
MPLOYEE	-868
▁k	-869
ial	-870
▁venue	-871
rase	-872
phrase	-873
Game	-874
cost	-875
keyphrase	-876
ish	-877
PostTypeId	-878
ustomer	-879
At	-880
_27	-881
nament	-882
outputevents	-883
paper	-884
ata	-885
attendance	-886
lation	-887
basis	-888
ions	-889
Venue	-890
▁le	-891
ION	-892
90	-893
66	-894
sult	-895
▁record	-896
▁country	-897
Country	-898
ulture	-899
bo	-900
91	-901
▁lo	-902
_12	-903
ite	-904
_22	-905
treatmentname	-906
rea	-907
▁pt	-908
▁'00	-909
ournament	-910
▁result	-911
lege	-912
CITY	-913
paperid	-914
45	-915
ime	-916
cy	-917
ARY	-918
▁trans	-919
fe	-920
Title	-921
line	-922
4"	-923
ps	-924
inner	-925
culture	-926
▁JOB	-927
sto	-928
▁department	-929
eight	-930
▁'200	-931
▁Q	-932
▁FLIGHTalias	-933
65	-934
▁position	-935
istric	-936
▁Products	-937
rice	-938
Answer	-939
Record	-940
Result	-941
▁r	-942
arter	-943
2"	-944
by	-945
istrict	-946
Ch	-947
▁'##	-948
lic	-949
land	-950
33	-951
av	-952
5-	-953
▁air	-954
4.	-955
ans	-956
Manufacturer	-957
▁V	-958
De	-959
own	-960
ute	-961
_25	-962
arent	-963
88	-964
for	-965
pre	-966
AGER	-967
ly	-968
▁Team	-969
ase	-970
ments	-971
wers	-972
cce	-973
site	-974
▁END	-975
67	-976
ther	-977
amp	-978
disch	-979
dischtime	-980
▁10	-981
▁DAY	-982
▁CreationDate	-983
ues	-984
▁title	-985
Sta	-986
6"	-987
2-	-988
ronze	-989
▁<>	-990
▁DAYS	-991
▁rank	-992
parture	-993
ub	-994
pulation	-995
cra	-996
peti	-997
mi	-998
▁he	-999
30	-1000
est	-1001
mer	-1002
ci	-1003
▁mo	-1004
ALARY	-1005
ainst	-1006
petition	-1007
row	-1008
▁"200	-1009
Pro	-1010
."	-1011
CO	-1012
ok	-1013
oun	-1014
category	-1015
▁time	-1016
eth	-1017
1,	-1018
gy	-1019
27	-1020
55	-1021
labresulttime	-1022
▁total	-1023
iginal	-1024
work	-1025
intakeoutputtime	-1026
linksto	-1027
▁'1'	-1028
Attendance	-1029
▁((	-1030
AS	-1031
AREalias	-1032
valuenum	-1033
arentId	-1034
7"	-1035
ral	-1036
▁EL	-1037
3,	-1038
▁ELSE	-1039
end	-1040
li	-1041
eng	-1042
ocu	-1043
inning	-1044
CS	-1045
##'	-1046
play	-1047
ut	-1048
nic	-1049
ode	-1050
departure	-1051
▁ro	-1052
8"	-1053
Vote	-1054
▁Score	-1055
ken	-1056
ten	-1057
uil	-1058
ball	-1059
50	-1060
status	-1061
TagId	-1062
▁by	-1063
▁student	-1064
No	-1065
ab	-1066
AV	-1067
author	-1068
▁game	-1069
nta	-1070
▁par	-1071
History	-1072
▁author	-1073
▁All	-1074
pen	-1075
man	-1076
62	-1077
customer	-1078
IRST	-1079
▁'01	-1080
ils	-1081
Round	-1082
pt	-1083
_15	-1084
▁Com	-1085
score	-1086
mpetition	-1087
▁1991	-1088
▁'0'	-1089
cription	-1090
_14	-1091
▁to	-1092
ward	-1093
▁HAV	-1094
▁HAVING	-1095
COU	-1096
match	-1097
▁'4	-1098
▁St	-1099
▁outputevents	-1100
▁Manufacturer	-1101
total	-1102
vis	-1103
▁EMPLOYEE	-1104
labname	-1105
AST	-1106
ud	-1107
▁id	-1108
▁'3	-1109
lergy	-1110
_24	-1111
points	-1112
▁ph	-1113
OM	-1114
▁wri	-1115
87	-1116
▁'7	-1117
IV	-1118
gender	-1119
▁Votes	-1120
tist	-1121
NUM	-1122
CASE	-1123
form	-1124
2,	-1125
au	-1126
ith	-1127
min	-1128
umb	-1129
yed	-1130
con	-1131
▁transfer	-1132
())	-1133
spe	-1134
hip	-1135
▁Manufacturers	-1136
ParentId	-1137
▁away	-1138
6-	-1139
▁'02	-1140
▁and	-1141
_67	-1142
▁number	-1143
TO	-1144
craft	-1145
Time	-1146
▁FIRST	-1147
rant	-1148
lag	-1149
ach	-1150
tails	-1151
Per	-1152
ague	-1153
▁writes	-1154
▁ne	-1155
CC	-1156
ead	-1157
Week	-1158
ost	-1159
_37	-1160
▁"5	-1161
▁bas	-1162
_77	-1163
dium	-1164
venue	-1165
admity	-1166
admityear	-1167
WER	-1168
_47	-1169
▁round	-1170
fic	-1171
vo	-1172
▁#	-1173
PH	-1174
▁PostTypeId	-1175
▁18	-1176
ress	-1177
layed	-1178
las	-1179
isplay	-1180
▁customer	-1181
31	-1182
ketball	-1183
▁Count	-1184
route	-1185
isplayName	-1186
cent	-1187
▁basketball	-1188
oc	-1189
_57	-1190
▁LO	-1191
ating	-1192
▁transfers	-1193
Reputation	-1194
et	-1195
par	-1196
_38	-1197
▁RO	-1198
Posts	-1199
ED	-1200
▁'201	-1201
requ	-1202
▁'2'	-1203
gion	-1204
▁col	-1205
verage	-1206
pis	-1207
▁patients	-1208
_78	-1209
09	-1210
0-	-1211
▁'6	-1212
_58	-1213
▁"4	-1214
▁ar	-1215
sa	-1216
na	-1217
▁LE	-1218
▁the	-1219
:00	-1220
%')	-1221
rit	-1222
_68	-1223
_48	-1224
ilm	-1225
25	-1226
losed	-1227
taken	-1228
PT	-1229
cumb	-1230
▁product	-1231
▁school	-1232
▁ACC	-1233
km	-1234
cumbent	-1235
mm	-1236
VoteTypeId	-1237
▁'+	-1238
%"	-1239
club	-1240
▁COURSEalias	-1241
GR	-1242
Or	-1243
ques	-1244
26	-1245
▁Location	-1246
19	-1247
▁('	-1248
TH	-1249
▁l	-1250
dob	-1251
ha	-1252
sion	-1253
against	-1254
train	-1255
observ	-1256
EST	-1257
39	-1258
dod	-1259
▁'5	-1260
ationtime	-1261
observationtime	-1262
itor	-1263
Season	-1264
1)	-1265
YEAR	-1266
quarter	-1267
▁TagName	-1268
vie	-1269
_2.	-1270
ting	-1271
▁2016	-1272
tad	-1273
Body	-1274
tor	-1275
201	-1276
IA	-1277
its	-1278
24	-1279
▁MAN	-1280
▁MANAGER	-1281
ethnic	-1282
▁LOWER	-1283
ocument	-1284
luid	-1285
_10	-1286
___	-1287
come	-1288
rance	-1289
pted	-1290
▁Student	-1291
DAYalias	-1292
▁CURRENT	-1293
FT	-1294
ethnicity	-1295
raw	-1296
series	-1297
demographic	-1298
)")	-1299
unner	-1300
ak	-1301
▁"3	-1302
EM	-1303
lb	-1304
test	-1305
7-	-1306
ton	-1307
path	-1308
COURSE	-1309
1-	-1310
tadm	-1311
unitadm	-1312
unitadmittime	-1313
del	-1314
cto	-1315
takentime	-1316
culturetakentime	-1317
ood	-1318
ople	-1319
gu	-1320
▁al	-1321
64	-1322
BO	-1323
_11	-1324
product	-1325
rowd	-1326
▁si	-1327
▁con	-1328
ide	-1329
load	-1330
▁per	-1331
atalog	-1332
▁driver	-1333
flag	-1334
54	-1335
airline	-1336
prescriptions	-1337
ale	-1338
▁"7	-1339
mill	-1340
irector	-1341
united	-1342
gan	-1343
the	-1344
▁24	-1345
aps	-1346
▁9	-1347
▁PostHistory	-1348
STON	-1349
umber	-1350
eb	-1351
iewCount	-1352
olic	-1353
_9	-1354
ow	-1355
rate	-1356
stop	-1357
ele	-1358
ccepted	-1359
ONT	-1360
irected	-1361
▁state	-1362
▁tournament	-1363
trans	-1364
_32	-1365
▁CAST	-1366
▁season	-1367
▁ele	-1368
ni	-1369
pisode	-1370
mon	-1371
cellpath	-1372
▁20	-1373
To	-1374
rence	-1375
ack	-1376
centa	-1377
tt	-1378
medication	-1379
assis	-1380
centage	-1381
oh	-1382
BER	-1383
▁OwnerUserId	-1384
season	-1385
workload	-1386
mount	-1387
Col	-1388
ges	-1389
CI	-1390
_42	-1391
son	-1392
ual	-1393
any	-1394
▁'3'	-1395
_52	-1396
details	-1397
▁week	-1398
CODE	-1399
ding	-1400
tain	-1401
nal	-1402
▁for	-1403
_62	-1404
School	-1405
eadquarter	-1406
ncy	-1407
_13	-1408
GRAM	-1409
ROGRAM	-1410
NUMBER	-1411
ld	-1412
ril	-1413
▁OFF	-1414
▁Ques	-1415
BOSTON	-1416
▁Answer	-1417
▁'2104	-1418
_72	-1419
_56	-1420
▁'8	-1421
Pick	-1422
Club	-1423
face	-1424
▁Date	-1425
▁area	-1426
▁ST	-1427
_34	-1428
Mar	-1429
_46	-1430
LAS	-1431
com	-1432
vision	-1433
FAREalias	-1434
▁i	-1435
_35	-1436
celllabel	-1437
vember	-1438
_54	-1439
marital	-1440
description	-1441
▁"8	-1442
ext	-1443
▁pe	-1444
▁high	-1445
DI	-1446
ITE	-1447
_36	-1448
insu	-1449
inter	-1450
COURSEalias	-1451
High	-1452
lver	-1453
arri	-1454
▁as	-1455
state	-1456
cd	-1457
_44	-1458
_76	-1459
spec	-1460
_66	-1461
▁'4'	-1462
duction	-1463
▁departments	-1464
ded	-1465
wim	-1466
gn	-1467
▁YEAR	-1468
▁college	-1469
ESTER	-1470
_74	-1471
_45	-1472
ampions	-1473
_65	-1474
AD	-1475
verall	-1476
ONTH	-1477
▁gen	-1478
▁15	-1479
urface	-1480
Los	-1481
Tournament	-1482
add	-1483
▁198	-1484
_200	-1485
Party	-1486
3-	-1487
SEM	-1488
100	-1489
SEMESTER	-1490
▁TIME	-1491
_23	-1492
Price	-1493
ritten	-1494
ctober	-1495
game	-1496
▁'+2	-1497
_75	-1498
Wins	-1499
200	-1500
_64	-1501
OS	-1502
tin	-1503
mpany	-1504
▁SALARY	-1505
▁party	-1506
▁attendance	-1507
rs	-1508
action	-1509
Road	-1510
▁mar	-1511
▁I	-1512
fication	-1513
_55	-1514
Games	-1515
▁40	-1516
ind	-1517
final	-1518
▁'03	-1519
▁ground	-1520
rol	-1521
▁"201	-1522
authorid	-1523
cceptedAnswer	-1524
▁place	-1525
lish	-1526
ane	-1527
ren	-1528
9.	-1529
Laps	-1530
▁"#	-1531
place	-1532
insurance	-1533
▁meter	-1534
EE	-1535
▁club	-1536
losedDate	-1537
▁ma	-1538
DisplayName	-1539
_21	-1540
SAN	-1541
Le	-1542
ess	-1543
▁ROW	-1544
▁job	-1545
ITH	-1546
first	-1547
den	-1548
Population	-1549
irth	-1550
outh	-1551
intime	-1552
▁200)	-1553
▁"6	-1554
Ser	-1555
ace	-1556
culturesite	-1557
SEMESTERalias	-1558
position	-1559
desc	-1560
record	-1561
iel	-1562
vers	-1563
ors	-1564
DEN	-1565
ayment	-1566
_19	-1567
▁'5'	-1568
Types	-1569
Original	-1570
lication	-1571
DENVER	-1572
Me	-1573
SION	-1574
▁COM	-1575
ant	-1576
▁COMM	-1577
ang	-1578
Event	-1579
oking	-1580
▁class	-1581
oo	-1582
cceptedAnswerId	-1583
▁y	-1584
▁14	-1585
RE	-1586
ord	-1587
inputevents	-1588
▁Sta	-1589
SET	-1590
▁WITH	-1591
▁first	-1592
▁OFFSET	-1593
District	-1594
▁race	-1595
Place	-1596
tired	-1597
01'	-1598
orth	-1599
urant	-1600
DEPARTMENT	-1601
iz	-1602
ince	-1603
Bronze	-1604
stolic	-1605
PCT	-1606
lood	-1607
ries	-1608
cember	-1609
staurant	-1610
TER	-1611
ilver	-1612
_134	-1613
▁SEMESTERalias	-1614
andid	-1615
▁Comments	-1616
Goals	-1617
▁PostId	-1618
SALARY	-1619
view	-1620
isite	-1621
prerequ	-1622
ampionship	-1623
prerequisite	-1624
CE	-1625
▁type	-1626
tid	-1627
ISSION	-1628
▁COMMISSION	-1629
Silver	-1630
rawn	-1631
Gold	-1632
▁Rank	-1633
RS	-1634
_43	-1635
▁LEFT	-1636
0,	-1637
▁th	-1638
▁tra	-1639
tive	-1640
ations	-1641
City	-1642
College	-1643
76	-1644
▁rate	-1645
isitor	-1646
cc	-1647
apa	-1648
▁Sex	-1649
andidate	-1650
NG	-1651
EECS	-1652
town	-1653
Driver	-1654
SCO	-1655
ADD	-1656
lassi	-1657
anuary	-1658
▁)"	-1659
72	-1660
apacity	-1661
NE	-1662
▁series	-1663
LANT	-1664
lease	-1665
ircu	-1666
aw	-1667
lor	-1668
_29	-1669
_33	-1670
iewers	-1671
ull	-1672
First	-1673
86	-1674
une	-1675
▁district	-1676
off	-1677
fluid	-1678
be	-1679
▁stadium	-1680
6,	-1681
ular	-1682
ven	-1683
ounder	-1684
▁DAYSalias	-1685
▁1))	-1686
address	-1687
▁FLO	-1688
CISCO	-1689
▁FRAN	-1690
▁FRANCISCO	-1691
reque	-1692
PIT	-1693
9-	-1694
ffe	-1695
ated	-1696
Ma	-1697
ann	-1698
exp	-1699
Percent	-1700
Grid	-1701
▁19	-1702
requency	-1703
▁Co	-1704
ris	-1705
▁Title	-1706
▁paperkeyphrase	-1707
cer	-1708
ley	-1709
▁#"	-1710
▁K	-1711
_53	-1712
▁17	-1713
▁PROGRAM	-1714
ASE	-1715
driver	-1716
_31	-1717
ina	-1718
84	-1719
▁di	-1720
20	-1721
CY	-1722
▁ex	-1723
Nationality	-1724
DIFF	-1725
ERING	-1726
ircuit	-1727
tember	-1728
85	-1729
▁'6'	-1730
▁Customer	-1731
▁eng	-1732
▁states	-1733
▁final	-1734
EX	-1735
▁swim	-1736
ourne	-1737
sp	-1738
ring	-1739
LANTA	-1740
ATLANTA	-1741
((	-1742
▁competition	-1743
uilding	-1744
lassification	-1745
▁'199	-1746
ruary	-1747
▁keyphrase	-1748
cis	-1749
▁FLOAT	-1750
▁Headquarter	-1751
▁ans	-1752
percentage	-1753
Con	-1754
▁pub	-1755
ptember	-1756
_63	-1757
ENCY	-1758
Number	-1759
millions	-1760
Eng	-1761
▁ques	-1762
▁Mo	-1763
Class	-1764
ution	-1765
▁25	-1766
Winner	-1767
Al	-1768
MAN	-1769
country	-1770
ik	-1771
▁sh	-1772
▁1"	-1773
ume	-1774
21	-1775
Ar	-1776
Crowd	-1777
expire	-1778
CH	-1779
BUR	-1780
▁_	-1781
_201	-1782
Ne	-1783
Winning	-1784
get	-1785
▁ap	-1786
▁original	-1787
FA	-1788
EMPLOYEE	-1789
23	-1790
_73	-1791
▁UserId	-1792
cal	-1793
_41	-1794
roup	-1795
ulary	-1796
▁people	-1797
formulary	-1798
ium	-1799
ngu	-1800
week	-1801
MANAGER	-1802
ms	-1803
player	-1804
74	-1805
ug	-1806
_51	-1807
▁2"	-1808
▁Nationality	-1809
weight	-1810
_61	-1811
do	-1812
_39	-1813
▁1000	-1814
yes	-1815
▁STU	-1816
_59	-1817
roll	-1818
▁50	-1819
▁FAREalias	-1820
▁goals	-1821
OFF	-1822
aid	-1823
ger	-1824
ange	-1825
US	-1826
set	-1827
▁with	-1828
ERG	-1829
gin	-1830
Last	-1831
inish	-1832
we	-1833
da	-1834
car	-1835
75	-1836
▁su	-1837
_)	-1838
_79	-1839
ical	-1840
_49	-1841
▁te	-1842
▁winner	-1843
▁DATEDIFF	-1844
St	-1845
event	-1846
area	-1847
sk	-1848
_40	-1849
reg	-1850
bound	-1851
▁'2105-	-1852
_71	-1853
order	-1854
AcceptedAnswerId	-1855
SBUR	-1856
pVotes	-1857
heart	-1858
IAN	-1859
▁16	-1860
sign	-1861
ied	-1862
nes	-1863
▁'0	-1864
▁'006-	-1865
ohn	-1866
▁FARE	-1867
▁swimmer	-1868
40	-1869
_98	-1870
▁pre	-1871
ib	-1872
ViewCount	-1873
53	-1874
iv	-1875
_96	-1876
▁wins	-1877
ield	-1878
▁against	-1879
Ed	-1880
▁'2104')	-1881
WN	-1882
IVE	-1883
Text	-1884
ards	-1885
bounds	-1886
AB	-1887
_95	-1888
ell	-1889
lbourne	-1890
class	-1891
▁"199	-1892
▁197	-1893
▁'7'	-1894
erson	-1895
ALT	-1896
_100	-1897
▁event	-1898
ned	-1899
▁Country	-1900
▁Year	-1901
▁nationality	-1902
5')	-1903
adges	-1904
▁out	-1905
_60	-1906
lan	-1907
ormat	-1908
▁winning	-1909
▁gra	-1910
versity	-1911
▁artist	-1912
9)	-1913
EMERG	-1914
EMERGENCY	-1915
Incumbent	-1916
▁ti	-1917
▁11	-1918
_30	-1919
_70	-1920
71	-1921
ass	-1922
▁restaurant	-1923
5.	-1924
last	-1925
student	-1926
82	-1927
ita	-1928
▁30	-1929
uid	-1930
dd	-1931
▁park	-1932
sy	-1933
EXT	-1934
goals	-1935
_204_8	-1936
▁pick	-1937
ource	-1938
▁gold	-1939
_50	-1940
_69	-1941
tag	-1942
ship	-1943
sing	-1944
▁196	-1945
DAL	-1946
ree	-1947
▁MONTH	-1948
NGTH	-1949
▁incumbent	-1950
outtime	-1951
PITT	-1952
raws	-1953
SBURGH	-1954
PITTSBURGH	-1955
43	-1956
▁oval	-1957
▁DATEADD	-1958
▁'8'	-1959
iness	-1960
▁laps	-1961
▁'21	-1962
MA	-1963
Com	-1964
_97	-1965
▁Questions	-1966
▁dis	-1967
_92	-1968
_99	-1969
che	-1970
Played	-1971
hy	-1972
▁film	-1973
pres	-1974
▁'-2	-1975
arrival	-1976
41	-1977
usiness	-1978
▁School	-1979
enter	-1980
FL	-1981
ore	-1982
▁ac	-1983
▁Body	-1984
▁27	-1985
▁aircraft	-1986
▁publication	-1987
BAS	-1988
esti	-1989
BASIS	-1990
PER	-1991
▁gender	-1992
DALLAS	-1993
_94	-1994
Other	-1995
▁$	-1996
-21'	-1997
ference	-1998
pub	-1999
▁silver	-2000
RI	-2001
▁code	-2002
▁bronze	-2003
ks	-2004
▁station	-2005
new	-2006
april	-2007
ission	-2008
go	-2009
▁county	-2010
_2,	-2011
aircraft	-2012
va	-2013
resp	-2014
59	-2015
▁director	-2016
Competition	-2017
null	-2018
uly	-2019
andidates	-2020
69	-2021
lete	-2022
49	-2023
63	-2024
8-	-2025
▁airline	-2026
gust	-2027
ccess	-2028
history	-2029
OFFERING	-2030
ix	-2031
4-	-2032
▁fa	-2033
orld	-2034
60	-2035
uro	-2036
oney	-2037
rollment	-2038
ORY	-2039
▁'%<	-2040
vince	-2041
01-	-2042
ORE	-2043
▁us	-2044
vg	-2045
The	-2046
▁bo	-2047
Ap	-2048
ouse	-2049
led	-2050
ca	-2051
▁12000	-2052
Area	-2053
▁'2105')	-2054
ters	-2055
micro	-2056
▁VoteTypeId	-2057
DENT	-2058
intake	-2059
titution	-2060
▁EX	-2061
▁23	-2062
4,	-2063
mia	-2064
▁0)	-2065
2-06	-2066
▁category	-2067
OL	-2068
Lost	-2069
En	-2070
nation	-2071
Ag	-2072
ty	-2073
ATEG	-2074
▁'-3	-2075
votes	-2076
Age	-2077
▁cap	-2078
Mo	-2079
az	-2080
tis	-2081
ULCS	-2082
organ	-2083
labevents	-2084
29	-2085
▁viewers	-2086
▁Ch	-2087
▁en	-2088
▁num	-2089
Race	-2090
ATEGORY	-2091
▁"10	-2092
ot	-2093
61	-2094
▁Type	-2095
▁years	-2096
rent	-2097
League	-2098
▁8000	-2099
ClosedDate	-2100
▁"21	-2101
0)	-2102
83	-2103
BALT	-2104
IMORE	-2105
▁match	-2106
▁catalog	-2107
BALTIMORE	-2108
pa	-2109
ager	-2110
vice	-2111
▁un	-2112
nguage	-2113
▁STUDENT	-2114
▁grid	-2115
artner	-2116
ens	-2117
gold	-2118
Ex	-2119
PR	-2120
_87	-2121
male	-2122
▁nation	-2123
ich	-2124
orn	-2125
amount	-2126
▁Class	-2127
cup	-2128
ous	-2129
tory	-2130
Nation	-2131
▁Ro	-2132
vi	-2133
▁In	-2134
2-06-21'	-2135
ournal	-2136
▁Founder	-2137
▁'2002-06-21'	-2138
Pre	-2139
over	-2140
▁allergy	-2141
november	-2142
sease	-2143
▁'10'	-2144
▁member	-2145
▁age	-2146
vest	-2147
keyphraseid	-2148
70	-2149
_88	-2150
_93	-2151
jor	-2152
october	-2153
sure	-2154
quence	-2155
▁De	-2156
istr	-2157
UPPER	-2158
south	-2159
Series	-2160
51	-2161
br	-2162
cre	-2163
ham	-2164
cl	-2165
_86	-2166
fied	-2167
▁365	-2168
Th	-2169
0000	-2170
ash	-2171
staff	-2172
SS	-2173
len	-2174
▁at	-2175
Ques	-2176
Height	-2177
acter	-2178
mple	-2179
IL	-2180
▁Y	-2181
73	-2182
ats	-2183
vil	-2184
80	-2185
Out	-2186
Episode	-2187
▁league	-2188
rix	-2189
ices	-2190
.0	-2191
_83	-2192
▁Badges	-2193
_80	-2194
He	-2195
arterial	-2196
bur	-2197
Directed	-2198
transaction	-2199
Years	-2200
price	-2201
EMP	-2202
thod	-2203
▁'198	-2204
cision	-2205
▁other	-2206
sequence	-2207
▁man	-2208
ounded	-2209
▁DEPT	-2210
lot	-2211
▁RE	-2212
▁'-4	-2213
78	-2214
winner	-2215
ings	-2216
irection	-2217
Written	-2218
Gen	-2219
_84	-2220
cond	-2221
▁Se	-2222
rand	-2223
Top	-2224
atin	-2225
rd	-2226
tiv	-2227
▁'9'	-2228
▁ent	-2229
▁Customers	-2230
▁6–	-2231
redits	-2232
▁championship	-2233
sen	-2234
▁vo	-2235
CAST	-2236
laps	-2237
Ac	-2238
require	-2239
_89	-2240
▁"1"	-2241
AnswerCount	-2242
bles	-2243
FER	-2244
may	-2245
ICAN	-2246
79	-2247
▁"0"	-2248
Int	-2249
gh	-2250
DEL	-2251
ILA	-2252
81	-2253
low	-2254
▁dept	-2255
population	-2256
_90	-2257
won	-2258
PHIA	-2259
PHILA	-2260
DELPHIA	-2261
PHILADELPHIA	-2262
Sh	-2263
▁,	-2264
tro	-2265
▁1.	-2266
▁bp	-2267
sses	-2268
annel	-2269
00)	-2270
▁0.	-2271
uest	-2272
Revenue	-2273
ative	-2274
_91	-2275
CK	-2276
atic	-2277
Region	-2278
_81	-2279
▁Cup	-2280
▁GET	-2281
▁directed	-2282
_85	-2283
▁sy	-2284
point	-2285
room	-2286
▁Al	-2287
ties	-2288
ocuments	-2289
bum	-2290
IVED	-2291
_82	-2292
elected	-2293
Sp	-2294
data	-2295
▁UPPER	-2296
▁customers	-2297
ved	-2298
▁"#",	-2299
▁card	-2300
ust	-2301
Overall	-2302
udget	-2303
County	-2304
89	-2305
▁'12'	-2306
▁open	-2307
Average	-2308
▁GETDATE	-2309
QU	-2310
Pri	-2311
▁2010	-2312
▁UpVotes	-2313
▁ViewCount	-2314
Production	-2315
AA	-2316
▁2)	-2317
Runner	-2318
▁DisplayName	-2319
eral	-2320
▁'12	-2321
▁runner	-2322
▁surface	-2323
vestor	-2324
▁LENGTH	-2325
Air	-2326
mat	-2327
▁13	-2328
rolment	-2329
12'	-2330
Reg	-2331
▁'11'	-2332
▁song	-2333
tern	-2334
bin	-2335
leg	-2336
ney	-2337
pick	-2338
wins	-2339
ko	-2340
direction	-2341
▁population	-2342
lat	-2343
ali	-2344
vel	-2345
▁TEXT	-2346
SD	-2347
ident	-2348
▁spe	-2349
unity	-2350
resses	-2351
Surface	-2352
ural	-2353
ASH	-2354
tivity	-2355
▁Total	-2356
december	-2357
odium	-2358
unior	-2359
Engine	-2360
▁region	-2361
▁melbourne	-2362
lock	-2363
OFFERINGalias	-2364
ka	-2365
retired	-2366
▁'2105'	-2367
escription	-2368
NEW	-2369
cle	-2370
▁order	-2371
ili	-2372
▁500	-2373
lar	-2374
sao	-2375
CATEGORY	-2376
▁'2104'	-2377
''	-2378
ird	-2379
por	-2380
▁status	-2381
ABLE	-2382
▁Document	-2383
▁PostTypes	-2384
dition	-2385
ston	-2386
men	-2387
▁played	-2388
▁ID	-2389
▁ad	-2390
ined	-2391
my	-2392
public	-2393
▁engine	-2394
ila	-2395
▁"%	-2396
dept	-2397
As	-2398
Pe	-2399
Ele	-2400
vic	-2401
artic	-2402
september	-2403
mb	-2404
ence	-2405
laim	-2406
_204_6	-2407
ebruary	-2408
lig	-2409
▁mg	-2410
▁res	-2411
ownVotes	-2412
jo	-2413
tance	-2414
national	-2415
▁lost	-2416
ada	-2417
road	-2418
TABLE	-2419
TABLEalias	-2420
ature	-2421
umeric	-2422
dia	-2423
riend	-2424
▁Question	-2425
LAND	-2426
ngth	-2427
sists	-2428
oubles	-2429
isation	-2430
ickname	-2431
station	-2432
▁company	-2433
rider	-2434
//	-2435
ulty	-2436
party	-2437
Against	-2438
▁an	-2439
uilt	-2440
▁Apartment	-2441
fl	-2442
▁2011	-2443
▁games	-2444
admissionweight	-2445
RA	-2446
_277	-2447
▁Answers	-2448
▁outcome	-2449
rating	-2450
valuen	-2451
cellvaluen	-2452
PostHistory	-2453
cellvaluenumeric	-2454
can	-2455
ipal	-2456
stuid	-2457
▁'197	-2458
▁written	-2459
ama	-2460
ier	-2461
bert	-2462
▁elected	-2463
▁car	-2464
blood	-2465
ROF	-2466
Visitor	-2467
Ph	-2468
▁3)	-2469
Film	-2470
▁award	-2471
viewers	-2472
logy	-2473
▁visitor	-2474
chargetime	-2475
ml	-2476
urrent	-2477
OA	-2478
aculty	-2479
illion	-2480
▁'027-	-2481
▁question	-2482
BLA	-2483
Losses	-2484
iration	-2485
CRS	-2486
cot	-2487
NDAY	-2488
admin	-2489
north	-2490
▁3"	-2491
▁WR	-2492
ITES	-2493
ense	-2494
▁min	-2495
COUNT	-2496
▁WRITES	-2497
://	-2498
Trans	-2499
uilder	-2500
▁INTER	-2501
>%'	-2502
mph	-2503
▁'18	-2504
▁payment	-2505
py	-2506
uns	-2507
bronze	-2508
▁Age	-2509
▁HOS	-2510
_203_5	-2511
▁Position	-2512
-1	-2513
Retired	-2514
fference	-2515
mination	-2516
fo	-2517
als	-2518
Loss	-2519
2')	-2520
word	-2521
State	-2522
authorname	-2523
vitalperiodic	-2524
dex	-2525
▁average	-2526
▁production	-2527
org	-2528
▁sp	-2529
_232	-2530
▁Last	-2531
silver	-2532
▁building	-2533
Ur	-2534
▁nec	-2535
▁qual	-2536
_204_5	-2537
rich	-2538
▁inter	-2539
000'	-2540
:00'	-2541
Meth	-2542
'),	-2543
don	-2544
lim	-2545
mID	-2546
entry	-2547
▁Party	-2548
alary	-2549
ormal	-2550
og	-2551
▁li	-2552
nte	-2553
cast	-2554
▁195	-2555
bp	-2556
ira	-2557
▁28	-2558
▁constructor	-2559
10"	-2560
▁UN	-2561
CEPT	-2562
amil	-2563
▁CASE	-2564
▁EXCEPT	-2565
THOR	-2566
▁'0.	-2567
▁mus	-2568
ather	-2569
▁last	-2570
▁height	-2571
▁22	-2572
tity	-2573
▁model	-2574
heartrate	-2575
respiration	-2576
win	-2577
SECT	-2578
▁actor	-2579
ile	-2580
▁circuit	-2581
pos	-2582
FNAME	-2583
RAL	-2584
col	-2585
▁be	-2586
dust	-2587
ross	-2588
Chassis	-2589
Drawn	-2590
dorm	-2591
▁cath	-2592
istration	-2593
bu	-2594
Min	-2595
san	-2596
▁AU	-2597
URG	-2598
mployee	-2599
van	-2600
_203_3	-2601
00'	-2602
2)"	-2603
BLACK	-2604
astest	-2605
▁INTERSECT	-2606
disease	-2607
lap	-2608
avid	-2609
trip	-2610
▁sub	-2611
artist	-2612
▁Fluid	-2613
▁ClosedDate	-2614
TON	-2615
ste	-2616
▁#")	-2617
Artist	-2618
▁movie	-2619
uration	-2620
Director	-2621
▁we	-2622
admit	-2623
▁loss	-2624
▁user	-2625
URGENT	-2626
ampion	-2627
5,	-2628
cr	-2629
mic	-2630
▁26	-2631
▁"217	-2632
Frequency	-2633
▁2009	-2634
▁'030-	-2635
▁chassis	-2636
▁21	-2637
ater	-2638
ford	-2639
▁ship	-2640
▁Allergy	-2641
10'	-2642
Tra	-2643
WASH	-2644
ator	-2645
▁2008	-2646
INGTON	-2647
Method	-2648
▁Number	-2649
WASHINGTON	-2650
▁No	-2651
▁is	-2652
ELECT	-2653
▁'14'	-2654
ELECTIVE	-2655
▁journal	-2656
ny	-2657
card	-2658
mid	-2659
venueid	-2660
9,	-2661
top	-2662
▁'2104-	-2663
▁AUTHOR	-2664
bs	-2665
glo	-2666
Comm	-2667
down	-2668
unch	-2669
unic	-2670
3_1	-2671
sus	-2672
▁LAST	-2673
Jo	-2674
▁At	-2675
_204_3	-2676
▁Po	-2677
urch	-2678
▁sing	-2679
Details	-2680
▁format	-2681
▁Or	-2682
▁AnswerCount	-2683
Di	-2684
uan	-2685
▁(((	-2686
▁"+	-2687
Description	-2688
▁uni	-2689
MONTH	-2690
million	-2691
ider	-2692
march	-2693
_116	-2694
cing	-2695
thlete	-2696
atio	-2697
▁cup	-2698
Dalias	-2699
CAT	-2700
▁UNION	-2701
Comment	-2702
.5	-2703
▁from	-2704
Weight	-2705
classification	-2706
ho	-2707
omy	-2708
wardid	-2709
actions	-2710
▁election	-2711
sue	-2712
ames	-2713
wned	-2714
ourist	-2715
Allergy	-2716
Loc	-2717
▁'1.	-2718
ago	-2719
mond	-2720
counts	-2721
▁answers	-2722
▁episode	-2723
nts	-2724
ville	-2725
New	-2726
odel	-2727
▁leg	-2728
_204_1	-2729
EC	-2730
PA	-2731
igin	-2732
wood	-2733
▁end	-2734
average	-2735
REC	-2736
song	-2737
mission	-2738
kg	-2739
uk	-2740
–6,	-2741
▁Ap	-2742
▁"18	-2743
▁'13'	-2744
▁2000	-2745
9_1	-2746
onus	-2747
udio	-2748
▁business	-2749
▁0,	-2750
cified	-2751
Opponents	-2752
▁60	-2753
john	-2754
feb	-2755
esse	-2756
FLIGHT	-2757
_203_7	-2758
capacity	-2759
_256	-2760
▁"198	-2761
▁post	-2762
junior	-2763
▁won	-2764
Owned	-2765
apt	-2766
▁(1	-2767
▁ml	-2768
▁body	-2769
ization	-2770
Document	-2771
SDA	-2772
_204_7	-2773
language	-2774
bra	-2775
_228	-2776
▁Num	-2777
dustry	-2778
region	-2779
wa	-2780
▁equ	-2781
FERRAL	-2782
▁REFERRAL	-2783
▁Ac	-2784
inee	-2785
Circuit	-2786
character	-2787
▁des	-2788
gment	-2789
illia	-2790
Status	-2791
▁captain	-2792
erry	-2793
sium	-2794
ister	-2795
_203_4	-2796
▁Price	-2797
inc	-2798
▁release	-2799
organisation	-2800
▁2012	-2801
program	-2802
▁z	-2803
pressure	-2804
▁assists	-2805
OwnedDate	-2806
unityOwnedDate	-2807
inema	-2808
▁frequency	-2809
1_	-2810
▁194	-2811
chnic	-2812
3')	-2813
overn	-2814
▁grand	-2815
▁'$	-2816
Match	-2817
pened	-2818
▁1200	-2819
▁on	-2820
RECOR	-2821
ports	-2822
▁"215	-2823
▁overall	-2824
june	-2825
WH	-2826
nit	-2827
ony	-2828
##')	-2829
ington	-2830
▁Month	-2831
booking	-2832
Ent	-2833
base	-2834
reet	-2835
▁Col	-2836
▁'15'	-2837
rental	-2838
▁heart	-2839
Question	-2840
unicipal	-2841
let	-2842
oms	-2843
▁70	-2844
race	-2845
rest	-2846
ffili	-2847
Access	-2848
allergy	-2849
perature	-2850
ffiliation	-2851
net	-2852
tour	-2853
FLIGHTalias	-2854
ULIA	-2855
▁top	-2856
ebsite	-2857
ULIANDAY	-2858
07'	-2859
att	-2860
▁'16'	-2861
Bo	-2862
00,	-2863
▁au	-2864
▁NEC	-2865
▁products	-2866
08'	-2867
▁'002-	-2868
AccessDate	-2869
cen	-2870
Final	-2871
ranch	-2872
Add	-2873
itz	-2874
ona	-2875
back	-2876
▁int	-2877
Model	-2878
▁mean	-2879
▁'2100	-2880
▁State	-2881
ga	-2882
▁start	-2883
▁united	-2884
february	-2885
if	-2886
mor	-2887
▁AR	-2888
▁ge	-2889
Draws	-2890
crowd	-2891
▁2007	-2892
_203_6	-2893
_204_4	-2894
SP	-2895
temperature	-2896
▁'17	-2897
ink	-2898
cial	-2899
▁'196	-2900
▁questions	-2901
birth	-2902
january	-2903
▁rebounds	-2904
Tie	-2905
ari	-2906
_197	-2907
WHITE	-2908
▁comp	-2909
Events	-2910
▁organ	-2911
Outcome	-2912
assists	-2913
RECORDalias	-2914
▁Attendance	-2915
6.	-2916
abel	-2917
normal	-2918
Headquarter	-2919
vate	-2920
▁(201	-2921
_203_8	-2922
friend	-2923
ipment	-2924
▁County	-2925
PE	-2926
Ste	-2927
tas	-2928
comple	-2929
hael	-2930
reen	-2931
dev	-2932
▁Text	-2933
▁Time	-2934
placed	-2935
urs	-2936
▁max	-2937
Start	-2938
ipant	-2939
CL	-2940
fc	-2941
oly	-2942
(*),	-2943
HIRE	-2944
Inter	-2945
/1	-2946
▁'9	-2947
lost	-2948
estival	-2949
license	-2950
niversity	-2951
requirement	-2952
ava	-2953
rio	-2954
▁ag	-2955
▁'%##	-2956
Regular	-2957
ara	-2958
QUIS	-2959
▁'9.	-2960
Notes	-2961
PRERE	-2962
ralia	-2963
league	-2964
▁'031-	-2965
QUISITE	-2966
▁opponents	-2967
PREREQUISITE	-2968
ask	-2969
ancy	-2970
aust	-2971
late	-2972
▁manufacturer	-2973
lis	-2974
▁1,	-2975
LASS	-2976
▁track	-2977
Enrollment	-2978
▁el	-2979
▁com	-2980
rican	-2981
▁(200	-2982
Answers	-2983
2_	-2984
▁2017	-2985
untain	-2986
▁CLASS	-2987
▁Person	-2988
TRAN	-2989
lack	-2990
meal	-2991
sive	-2992
▁'10	-2993
arance	-2994
–1	-2995
▁5)	-2996
arch	-2997
height	-2998
tination	-2999
▁4)	-3000
ffic	-3001
▁DER	-3002
ligion	-3003
▁equipment	-3004
YS	-3005
02'	-3006
06'	-3007
roy	-3008
ury	-3009
▁sa	-3010
rica	-3011
▁71	-3012
▁NOS	-3013
▁stage	-3014
rebounds	-3015
▁DERIVED	-3016
▁Documents	-3017
Activity	-3018
)))	-3019
MAR	-3020
played	-3021
▁Rating	-3022
chnician	-3023
/'	-3024
▁Ma	-3025
mocr	-3026
latform	-3027
▁finish	-3028
mocratic	-3029
systolic	-3030
HIS	-3031
ker	-3032
ube	-3033
model	-3034
stars	-3035
▁group	-3036
keyword	-3037
formance	-3038
unicipality	-3039
▁Le	-3040
▁hy	-3041
RIED	-3042
account	-3043
▁'2103')	-3044
NO	-3045
pp	-3046
▁\	-3047
ung	-3048
▁PT	-3049
▁town	-3050
string	-3051
Catalog	-3052
MARRIED	-3053
PROGRAM	-3054
company	-3055
2)	-3056
iver	-3057
ures	-3058
west	-3059
method	-3060
answers	-3061
▁answer	-3062
nstitution	-3063
▁%	-3064
med	-3065
2013	-3066
▁tie	-3067
field	-3068
▁cons	-3069
rena	-3070
ength	-3071
Format	-3072
august	-3073
▁booking	-3074
cap	-3075
nto	-3076
reb	-3077
▁wine	-3078
▁drawn	-3079
4_1	-3080
▁"256	-3081
▁site	-3082
Category	-3083
Ad	-3084
PLA	-3085
rew	-3086
▁ste	-3087
PLACE	-3088
Tries	-3089
▁person	-3090
SU	-3091
ji	-3092
▁nos	-3093
lated	-3094
▁head	-3095
school	-3096
Private	-3097
atinine	-3098
tom	-3099
hard	-3100
nings	-3101
▁HOSP	-3102
▁"2560"	-3103
ActivityDate	-3104
Pos	-3105
uel	-3106
▁"$	-3107
▁4"	-3108
▁new	-3109
Blood	-3110
arrier	-3111
▁rider	-3112
competition	-3113
ern	-3114
house	-3115
dormid	-3116
llation	-3117
▁'2102')	-3118
Constructor	-3119
▁x	-3120
UCT	-3121
ota	-3122
tial	-3123
▁300	-3124
OB	-3125
hz	-3126
End	-3127
iss	-3128
phy	-3129
TERY	-3130
asse	-3131
▁2008"	-3132
▁ARTERY	-3133
clo	-3134
cus	-3135
▁sk	-3136
▁val	-3137
urine	-3138
▁food	-3139
Product	-3140
URE	-3141
term	-3142
Medic	-3143
range	-3144
▁play	-3145
Author	-3146
English	-3147
STU	-3148
▁DI	-3149
Birth	-3150
traction	-3151
▁partner	-3152
ya	-3153
rib	-3154
Call	-3155
▁Per	-3156
▁Raw	-3157
icago	-3158
▁weather	-3159
Candidates	-3160
dom	-3161
_199	-3162
mont	-3163
1_1	-3164
34'	-3165
kes	-3166
ole	-3167
ased	-3168
lbum	-3169
▁lead	-3170
questions	-3171
▁document	-3172
▁classification	-3173
hed	-3174
ign	-3175
luco	-3176
ysic	-3177
▁Ref	-3178
▁bed	-3179
ition	-3180
riday	-3181
Course	-3182
yn	-3183
12"	-3184
▁'195	-3185
▁call	-3186
▁label	-3187
▁notes	-3188
publican	-3189
pointment	-3190
so	-3191
From	-3192
Lane	-3193
ampu	-3194
mith	-3195
▁mas	-3196
services	-3197
Spe	-3198
july	-3199
▁"218	-3200
6-2	-3201
oot	-3202
▁Ser	-3203
Finish	-3204
yle	-3205
▁68	-3206
▁role	-3207
loride	-3208
BASISalias	-3209
▁Me	-3210
roid	-3211
album	-3212
Amount	-3213
okings	-3214
▁2008'	-3215
Char	-3216
Song	-3217
▁off	-3218
amily	-3219
STRUCT	-3220
Partner	-3221
comment	-3222
Hometown	-3223
▁Faculty	-3224
ja	-3225
Dis	-3226
RON	-3227
SCH	-3228
▁'005-	-3229
transport	-3230
ike	-3231
oll	-3232
ves	-3233
▁"9	-3234
▁'15	-3235
jects	-3236
_203_1	-3237
▁phone	-3238
Car	-3239
▁fail	-3240
▁room	-3241
uts	-3242
▁dia	-3243
▁candidates	-3244
')))	-3245
mary	-3246
▁'2.	-3247
▁"216	-3248
▁cite	-3249
32'	-3250
acce	-3251
ones	-3252
ving	-3253
globin	-3254
loors	-3255
nsity	-3256
illions	-3257
business	-3258
3)	-3259
Ce	-3260
14'	-3261
16'	-3262
OME	-3263
pan	-3264
uck	-3265
bout	-3266
▁"20	-3267
▁Open	-3268
office	-3269
enrolment	-3270
Num	-3271
htt	-3272
▁Ph	-3273
##%'	-3274
John	-3275
care	-3276
▁Comment	-3277
ox	-3278
5_1	-3279
UND	-3280
tan	-3281
gers	-3282
grid	-3283
Label	-3284
county	-3285
roadcast	-3286
articipant	-3287
▁PH	-3288
ticket	-3289
sw	-3290
.")	-3291
CAR	-3292
tics	-3293
▁'17'	-3294
▁rating	-3295
moglobin	-3296
2_1	-3297
ages	-3298
urope	-3299
▁Season	-3300
▁origin	-3301
yl	-3302
hib	-3303
kets	-3304
▁'8.	-3305
Major	-3306
games	-3307
▁"212	-3308
RONARY	-3309
▁staff	-3310
January	-3311
▁'2103'	-3312
▁'2103-	-3313
VE	-3314
36'	-3315
38'	-3316
▁69	-3317
atur	-3318
iews	-3319
olume	-3320
viewT	-3321
▁2006	-3322
Entrant	-3323
unction	-3324
haw	-3325
ders	-3326
▁'-6	-3327
▁'19	-3328
redit	-3329
ERICAN	-3330
amen	-3331
film	-3332
many	-3333
with	-3334
▁'18'	-3335
▁'022-	-3336
Release	-3337
Service	-3338
▁losses	-3339
▁manager	-3340
Sa	-3341
0_1	-3342
bar	-3343
high	-3344
hite	-3345
ination	-3346
▁Course	-3347
ida	-3348
ITION	-3349
Money	-3350
religion	-3351
hl	-3352
▁iv	-3353
ches	-3354
Stadium	-3355
microlab	-3356
8.	-3357
SING	-3358
sq	-3359
iod	-3360
Long	-3361
posts	-3362
▁york	-3363
▁racing	-3364
▁entrant	-3365
▁Category	-3366
▁)")	-3367
▁Pay	-3368
billion	-3369
uantity	-3370
Rep	-3371
mark	-3372
shop	-3373
SINGLE	-3374
change	-3375
▁Rooms	-3376
▁transaction	-3377
)-	-3378
LL	-3379
act	-3380
sey	-3381
▁pri	-3382
Month	-3383
__201	-3384
lucose	-3385
▁street	-3386
completion	-3387
ents	-3388
▁Vote	-3389
abnormal	-3390
▁doubles	-3391
:00"	-3392
cont	-3393
made	-3394
▁inf	-3395
▁decor	-3396
▁tries	-3397
▁conference	-3398
500	-3399
Avg	-3400
Url	-3401
▁km	-3402
best	-3403
Rider	-3404
level	-3405
notes	-3406
district	-3407
pri	-3408
sig	-3409
▁CRS	-3410
▁not	-3411
▁sol	-3412
Owner	-3413
olina	-3414
▁Home	-3415
▁birth	-3416
Project	-3417
war	-3418
▁72	-3419
▁INT	-3420
other	-3421
engine	-3422
▁Movie	-3423
Edit	-3424
▁ver	-3425
orite	-3426
Winter	-3427
LI	-3428
1-2	-3429
bal	-3430
offs	-3431
utra	-3432
▁"2"	-3433
lling	-3434
prese	-3435
dan	-3436
uID	-3437
▁AD	-3438
01')	-3439
▁(10	-3440
going	-3441
Length	-3442
ysician	-3443
▁wt	-3444
iana	-3445
tein	-3446
▁ins	-3447
▁City	-3448
leural	-3449
▁english	-3450
▁university	-3451
TV	-3452
ii	-3453
Man	-3454
vin	-3455
wind	-3456
former	-3457
runner	-3458
▁ROUND	-3459
presenta	-3460
Ta	-3461
hel	-3462
▁op	-3463
ilot	-3464
▁"1.	-3465
answer	-3466
dicine	-3467
estern	-3468
ominee	-3469
:00:00'	-3470
Net	-3471
▁As	-3472
ours	-3473
▁set	-3474
▁host	-3475
friday	-3476
nationality	-3477
05'	-3478
Cont	-3479
ills	-3480
▁'14	-3481
▁prix	-3482
asseng	-3483
province	-3484
▁–	-3485
▁2.	-3486
Wome	-3487
_114	-3488
raft	-3489
usion	-3490
▁tube	-3491
Viewers	-3492
▁division	-3493
▁DownVotes	-3494
OAK	-3495
_3.	-3496
bel	-3497
ise	-3498
ock	-3499
sco	-3500
ATIN	-3501
Draw	-3502
ctions	-3503
▁'015-	-3504
Payment	-3505
▁length	-3506
December	-3507
STRUCTOR	-3508
ism	-3509
lton	-3510
▁Mar	-3511
Govern	-3512
_203_2	-3513
onto	-3514
▁"1:	-3515
▁made	-3516
▁'016-	-3517
Capacity	-3518
Lead	-3519
▁Day	-3520
▁2005	-3521
▁results	-3522
La	-3523
SCE	-3524
ray	-3525
uis	-3526
Work	-3527
ility	-3528
▁november	-3529
▁OU	-3530
▁PROF	-3531
01-01'	-3532
▁world	-3533
ala	-3534
ked	-3535
los	-3536
Part	-3537
▁Car	-3538
▁may	-3539
ATINO	-3540
Group	-3541
▁part	-3542
female	-3543
presentative	-3544
tr	-3545
gar	-3546
pla	-3547
riz	-3548
ula	-3549
▁'1,	-3550
▁'1:	-3551
▁inj	-3552
ridge	-3553
utral	-3554
▁'20'	-3555
ashington	-3556
–2	-3557
MAIN	-3558
_257	-3559
cons	-3560
itte	-3561
phen	-3562
CORONARY	-3563
▁credits	-3564
▁ParentId	-3565
bc	-3566
ced	-3567
osco	-3568
ouch	-3569
Founder	-3570
OAKLAND	-3571
avorite	-3572
▁bedType	-3573
▁february	-3574
.'	-3575
7_1	-3576
JOB	-3577
Set	-3578
ica	-3579
▁1'	-3580
minated	-3581
▁monthly	-3582
keyphrasename	-3583
ki	-3584
▁fin	-3585
Album	-3586
NDIAN	-3587
▁'22'	-3588
building	-3589
PAN	-3590
ics	-3591
cile	-3592
ling	-3593
delta	-3594
▁data	-3595
boutMe	-3596
.7	-3597
.8	-3598
fen	-3599
iac	-3600
▁'-5	-3601
November	-3602
Vis	-3603
▁2'	-3604
BASE	-3605
vote	-3606
PANIC	-3607
HISPANIC	-3608
ds	-3609
Goal	-3610
apan	-3611
eter	-3612
home	-3613
ndon	-3614
▁'11	-3615
▁bar	-3616
▁method	-3617
dischargestatus	-3618
oft	-3619
hold	-3620
ists	-3621
real	-3622
▁EMP	-3623
▁net	-3624
_204_2	-3625
gested	-3626
▁STATE	-3627
sun	-3628
iles	-3629
lers	-3630
▁'16	-3631
▁365)	-3632
UpVotes	-3633
MIT	-3634
▁32	-3635
▁pl	-3636
Rate	-3637
▁singles	-3638
.6	-3639
5)	-3640
BS	-3641
af	-3642
ORN	-3643
oma	-3644
▁99	-3645
uency	-3646
▁'2102'	-3647
PreMajor	-3648
pearance	-3649
Addresses	-3650
em	-3651
17'	-3652
Par	-3653
▁29	-3654
aster	-3655
tassium	-3656
▁College	-3657
OP	-3658
ls	-3659
▁Fname	-3660
▁train	-3661
richmond	-3662
▁january	-3663
za	-3664
dro	-3665
nia	-3666
HOME	-3667
LEFT	-3668
Open	-3669
dose	-3670
▁ven	-3671
anese	-3672
Margin	-3673
Matches	-3674
▁language	-3675
Institution	-3676
AC	-3677
Lo	-3678
ounty	-3679
inated	-3680
melbourne	-3681
ade	-3682
_300	-3683
elong	-3684
▁Comm	-3685
▁races	-3686
chicago	-3687
-3	-3688
ail	-3689
ound	-3690
▁reg	-3691
▁"197	-3692
▁'19'	-3693
▁service	-3694
_156	-3695
angu	-3696
piso	-3697
ware	-3698
chris	-3699
world	-3700
▁1800	-3701
apanese	-3702
EG	-3703
Su	-3704
pr	-3705
acc	-3706
fee	-3707
_112	-3708
_214	-3709
Stage	-3710
inese	-3711
▁2004	-3712
▁power	-3713
▁office	-3714
October	-3715
WED	-3716
ura	-3717
▁Sh	-3718
_202	-3719
▁'007-	-3720
▁votes	-3721
▁"2011"	-3722
tituency	-3723
characteris	-3724
Championship	-3725
▁"0	-3726
▁5"	-3727
Made	-3728
_158	-3729
LESCE	-3730
ban	-3731
loss	-3732
▁Gra	-3733
cited	-3734
fname	-3735
ebsiteUrl	-3736
Sk	-3737
gs	-3738
iki	-3739
EMAT	-3740
rick	-3741
rancis	-3742
▁advis	-3743
dataset	-3744
▁channel	-3745
DownVotes	-3746
Enrolment	-3747
did	-3748
▁ce	-3749
▁ed	-3750
chan	-3751
Spring	-3752
Neutral	-3753
tension	-3754
CITYalias	-3755
specified	-3756
nomination	-3757
avoriteCount	-3758
▁institution	-3759
-2'	-3760
00"	-3761
CED	-3762
Res	-3763
bor	-3764
ild	-3765
▁(2	-3766
▁ob	-3767
omas	-3768
rain	-3769
Track	-3770
asons	-3771
ology	-3772
vation	-3773
▁Trans	-3774
pisodes	-3775
▁failure	-3776
Questions	-3777
▁Accounts	-3778
js	-3779
6_1	-3780
ana	-3781
▁An	-3782
-01'	-3783
▁"3"	-3784
▁avg	-3785
canada	-3786
▁price	-3787
credits	-3788
hibition	-3789
mc	-3790
▁up	-3791
utes	-3792
▁"4"	-3793
▁vic	-3794
March	-3795
opened	-3796
▁salary	-3797
ew	-3798
PHYS	-3799
_215	-3800
_236	-3801
people	-3802
Tourist	-3803
▁"2010"	-3804
Bookings	-3805
▁unspecified	-3806
SUM	-3807
ery	-3808
_136	-3809
_196	-3810
ssue	-3811
▁'30'	-3812
General	-3813
▁weight	-3814
citedpaperid	-3815
.4	-3816
AP	-3817
Lin	-3818
Sub	-3819
ino	-3820
_198	-3821
clay	-3822
downs	-3823
meter	-3824
eh	-3825
index	-3826
moved	-3827
rench	-3828
thorn	-3829
▁dorm	-3830
▁'017-	-3831
▁album	-3832
▁hometown	-3833
▁destination	-3834
ai	-3835
11'	-3836
Day	-3837
aul	-3838
flow	-3839
prof	-3840
▁Con	-3841
ednes	-3842
▁hill	-3843
▁june	-3844
▁march	-3845
▁"2009"	-3846
▁margin	-3847
division	-3848
ednesday	-3849
▁5,	-3850
BORN	-3851
comm	-3852
even	-3853
NEWBORN	-3854
release	-3855
February	-3856
▁capacity	-3857
ES	-3858
3-2	-3859
▁67	-3860
Town	-3861
ittee	-3862
▁Rate	-3863
ameter	-3864
suit	-3865
▁rep	-3866
Award	-3867
▁Goals	-3868
▁renal	-3869
careunit	-3870
LastActivityDate	-3871
Ter	-3872
▁Di	-3873
▁mountain	-3874
TE	-3875
mhz	-3876
PROF	-3877
aths	-3878
Claim	-3879
ansas	-3880
inary	-3881
length	-3882
▁draws	-3883
geelong	-3884
winning	-3885
registration	-3886
▁Competition	-3887
BY	-3888
FR	-3889
hi	-3890
8_1	-3891
Mic	-3892
emp	-3893
▁49	-3894
_135	-3895
▁long	-3896
▁pres	-3897
▁'025-	-3898
Founded	-3899
required	-3900
zy	-3901
Best	-3902
DESC	-3903
head	-3904
▁goal	-3905
struction	-3906
:3	-3907
HL	-3908
▁31	-3909
rine	-3910
salary	-3911
ursday	-3912
anguage	-3913
aturday	-3914
▁'2101'	-3915
essendon	-3916
▁october	-3917
Up	-3918
ep	-3919
37'	-3920
572	-3921
AIN	-3922
GPA	-3923
ien	-3924
put	-3925
Cons	-3926
Moun	-3927
_234	-3928
anti	-3929
tude	-3930
▁"12	-3931
david	-3932
ronic	-3933
▁((((	-3934
▁ROOM	-3935
▁sign	-3936
▁ADMIT	-3937
▁employee	-3938
SA	-3939
cm	-3940
cte	-3941
jim	-3942
lam	-3943
▁am	-3944
draw	-3945
▁apt	-3946
ersey	-3947
atitude	-3948
ffected	-3949
outcome	-3950
overall	-3951
systemic	-3952
-2"	-3953
ORM	-3954
▁ab	-3955
http	-3956
▁'13	-3957
ampus	-3958
drawn	-3959
▁User	-3960
Rating	-3961
illiam	-3962
lisher	-3963
DERIVED	-3964
episode	-3965
assengers	-3966
7,	-3967
01"	-3968
fac	-3969
_244	-3970
_258	-3971
rial	-3972
velo	-3973
▁Air	-3974
delph	-3975
grade	-3976
People	-3977
▁'021-	-3978
respira	-3979
ouchdowns	-3980
Government	-3981
.9	-3982
MI	-3983
ym	-3984
ive	-3985
rep	-3986
role	-3987
▁'%'	-3988
▁ABS	-3989
▁try	-3990
vious	-3991
market	-3992
Attraction	-3993
nis	-3994
▁fe	-3995
_137	-3996
_195	-3997
nson	-3998
▁400	-3999
##%')	-4000
olymp	-4001
▁2016)	-4002
Fastest	-4003
▁Carrier	-4004
:2	-4005
Che	-4006
▁af	-4007
▁tv	-4008
Pole	-4009
RIPT	-4010
mony	-4011
oots	-4012
▁Eng	-4013
Market	-4014
▁music	-4015
RIPTION	-4016
Industry	-4017
document	-4018
DESCRIPTION	-4019
▁Headquarters	-4020
sc	-4021
ONE	-4022
lon	-4023
▁Mc	-4024
Qual	-4025
_295	-4026
aton	-4027
▁"#"	-4028
itude	-4029
▁'21'	-4030
Athlete	-4031
catalog	-4032
▁services	-4033
creatinine	-4034
▁University	-4035
Sto	-4036
WID	-4037
mag	-4038
ria	-4039
_117	-4040
mass	-4041
▁60)	-4042
▁best	-4043
▁july	-4044
▁stro	-4045
▁tele	-4046
fornia	-4047
athlete	-4048
hawthorn	-4049
placement	-4050
restaurant	-4051
7)	-4052
lf	-4053
7-2	-4054
▁my	-4055
member	-4056
▁distance	-4057
max	-4058
dney	-4059
uesday	-4060
▁money	-4061
▁share	-4062
uggested	-4063
14"	-4064
TAG	-4065
ben	-4066
unk	-4067
_107	-4068
cess	-4069
Order	-4070
▁'24'	-4071
project	-4072
transfer	-4073
▁LastAccessDate	-4074
DIV	-4075
May	-4076
not	-4077
psy	-4078
▁(%	-4079
_194	-4080
_268	-4081
DIVOR	-4082
tered	-4083
ootball	-4084
▁'2102-	-4085
DIVORCED	-4086
▁current	-4087
▁Apartments	-4088
355	-4089
lex	-4090
▁38	-4091
_101	-4092
orge	-4093
▁comm	-4094
losses	-4095
restler	-4096
▁athlete	-4097
▁musical	-4098
▁OFFERING	-4099
mie	-4100
_128	-4101
tags	-4102
▁ser	-4103
▁'10.	-4104
▁cast	-4105
colling	-4106
delphia	-4107
Platform	-4108
iladelphia	-4109
collingwood	-4110
09'	-4111
Mus	-4112
Win	-4113
alo	-4114
apps	-4115
burg	-4116
ired	-4117
Theme	-4118
lname	-4119
ockey	-4120
troit	-4121
▁lane	-4122
PO	-4123
ah	-4124
367	-4125
DIA	-4126
MDE	-4127
bob	-4128
ico	-4129
nor	-4130
▁90	-4131
▁FA	-4132
▁je	-4133
CLIN	-4134
_115	-4135
ming	-4136
▁"2.	-4137
▁'3.	-4138
▁fee	-4139
TRANS	-4140
arden	-4141
▁USER	-4142
jection	-4143
▁"2008"	-4144
authority	-4145
▁september	-4146
13"	-4147
▁73	-4148
MAIL	-4149
igan	-4150
illa	-4151
cards	-4152
▁EMAIL	-4153
dal	-4154
▁mc	-4155
▁vt	-4156
NORM	-4157
_146	-4158
cray	-4159
ttle	-4160
▁For	-4161
acute	-4162
guest	-4163
▁DELI	-4164
▁pole	-4165
CARDIA	-4166
NORMAL	-4167
▁sport	-4168
ootscray	-4169
australia	-4170
respiratory	-4171
Hz	-4172
Sum	-4173
hol	-4174
hon	-4175
tex	-4176
▁%"	-4177
berg	-4178
came	-4179
cher	-4180
rown	-4181
▁"5"	-4182
▁COA	-4183
▁Min	-4184
stant	-4185
▁prof	-4186
illing	-4187
viewTask	-4188
▁COALESCE	-4189
▁chloride	-4190
▁Participant	-4191
32"	-4192
Del	-4193
mil	-4194
ora	-4195
OWED	-4196
_157	-4197
_222	-4198
lake	-4199
▁can	-4200
▁has	-4201
▁pos	-4202
▁ref	-4203
monday	-4204
WIDOWED	-4205
▁cinema	-4206
Employee	-4207
Province	-4208
Ge	-4209
kw	-4210
ark	-4211
use	-4212
_148	-4213
▁"19	-4214
▁kid	-4215
ATION	-4216
color	-4217
▁Prix	-4218
▁down	-4219
ancial	-4220
itzroy	-4221
Division	-4222
Language	-4223
diastolic	-4224
footscray	-4225
▁paperdataset	-4226
pm	-4227
wo	-4228
18'	-4229
▁Ar	-4230
▁Ed	-4231
▁Has	-4232
April	-4233
Links	-4234
phone	-4235
riter	-4236
Editor	-4237
Second	-4238
signed	-4239
▁OUTER	-4240
rh	-4241
-0'	-4242
RAM	-4243
_147	-4244
mail	-4245
tish	-4246
▁kil	-4247
stops	-4248
remony	-4249
▁third	-4250
.2	-4251
RY	-4252
125	-4253
vas	-4254
_192	-4255
food	-4256
▁120	-4257
FIRST	-4258
estim	-4259
toria	-4260
lorida	-4261
vening	-4262
▁admin	-4263
western	-4264
▁championships	-4265
An	-4266
▁ru	-4267
ison	-4268
oper	-4269
▁Gas	-4270
▁cor	-4271
__200	-4272
cerpt	-4273
tains	-4274
▁'23'	-4275
▁2001	-4276
custid	-4277
▁Owner	-4278
Company	-4279
ccessor	-4280
english	-4281
▁JULIANDAY	-4282
ify	-4283
Core	-4284
jack	-4285
▁"6"	-4286
ONCAT	-4287
speed	-4288
CLINIC	-4289
PREMAT	-4290
▁'004-	-4291
section	-4292
▁second	-4293
PREMATURE	-4294
venuename	-4295
▁AllergyType	-4296
Au	-4297
375	-4298
6_2	-4299
927	-4300
San	-4301
cel	-4302
hba	-4303
▁95	-4304
▁Pe	-4305
_210	-4306
_301	-4307
▁'11.	-4308
▁2002	-4309
france	-4310
▁bonus	-4311
eventid	-4312
▁WITHIN	-4313
▁'2101')	-4314
▁fastest	-4315
eventtype	-4316
03'	-4317
04'	-4318
199	-4319
Cap	-4320
bit	-4321
but	-4322
fin	-4323
ple	-4324
ush	-4325
▁ca	-4326
_238	-4327
heel	-4328
LOWER	-4329
lands	-4330
▁cont	-4331
▁king	-4332
▁oper	-4333
LENGTH	-4334
acancy	-4335
glucose	-4336
INSTRUCTOR	-4337
▁Transactions	-4338
AU	-4339
dp	-4340
▁:	-4341
)),	-4342
-1'	-4343
NHL	-4344
har	-4345
lac	-4346
▁2,	-4347
▁Th	-4348
Play	-4349
_207	-4350
band	-4351
comp	-4352
▁"15	-4353
▁STR	-4354
years	-4355
songid	-4356
Segment	-4357
arnings	-4358
▁Height	-4359
potassium	-4360
UA	-4361
aa	-4362
95'	-4363
mean	-4364
▁mon	-4365
group	-4366
menta	-4367
voice	-4368
▁medicine	-4369
-7	-4370
1)"	-4371
1_2	-4372
ois	-4373
rey	-4374
▁'<	-4375
▁3'	-4376
▁acc	-4377
_2668	-4378
ohnson	-4379
▁built	-4380
carlton	-4381
chester	-4382
fitzroy	-4383
Aircraft	-4384
▁nickname	-4385
▁province	-4386
HY	-4387
dy	-4388
57'	-4389
cip	-4390
stu	-4391
sul	-4392
▁34	-4393
▁41	-4394
▁Bo	-4395
▁er	-4396
▁ly	-4397
_168	-4398
_248	-4399
▁'24	-4400
▁run	-4401
Cards	-4402
achine	-4403
▁april	-4404
▁"2007"	-4405
▁"2012"	-4406
▁percentage	-4407
964	-4408
USS	-4409
cin	-4410
raz	-4411
_118	-4412
lose	-4413
ough	-4414
grand	-4415
hyper	-4416
▁2009"	-4417
▁Venue	-4418
▁premi	-4419
▁disease	-4420
▁PostLinks	-4421
03"	-4422
req	-4423
_216	-4424
_217	-4425
greg	-4426
nown	-4427
tage	-4428
Third	-4429
ceded	-4430
ocial	-4431
right	-4432
CATION	-4433
census	-4434
nesota	-4435
randing	-4436
158	-4437
ano	-4438
pts	-4439
CAPE	-4440
_144	-4441
▁"8"	-4442
▁cho	-4443
natch	-4444
▁left	-4445
boston	-4446
▁2007"	-4447
▁change	-4448
friendly	-4449
▁victory	-4450
▁systolic	-4451
▁organization	-4452
DP	-4453
pl	-4454
122	-4455
ESS	-4456
ORK	-4457
__)	-4458
▁ho	-4459
▁'25	-4460
▁dom	-4461
Power	-4462
South	-4463
berry	-4464
lower	-4465
▁"213	-4466
▁2003	-4467
▁5000	-4468
Budget	-4469
lished	-4470
▁Result	-4471
▁license	-4472
HA	-4473
eg	-4474
202	-4475
56"	-4476
AMP	-4477
NOT	-4478
▁3,	-4479
Fall	-4480
more	-4481
nage	-4482
onsor	-4483
rator	-4484
ralian	-4485
american	-4486
rancisco	-4487
▁matches	-4488
JULIANDAY	-4489
▁champion	-4490
routeadmin	-4491
yy	-4492
154	-4493
997	-4494
▁35	-4495
Host	-4496
blem	-4497
SEASE	-4498
fault	-4499
share	-4500
EXTRAM	-4501
▁10000	-4502
▁2007'	-4503
manager	-4504
toronto	-4505
▁review	-4506
TRANSFER	-4507
driverid	-4508
▁DISEASE	-4509
▁departure	-4510
HS	-4511
OD	-4512
MIL	-4513
Ver	-4514
bmi	-4515
sbp	-4516
▁HE	-4517
_235	-4518
_294	-4519
neur	-4520
open	-4521
rome	-4522
▁tor	-4523
▁field	-4524
▁local	-4525
mifinal	-4526
▁sodium	-4527
▁segment	-4528
Hy	-4529
Mas	-4530
mit	-4531
ose	-4532
pat	-4533
_122	-4534
_297	-4535
ixed	-4536
▁'68	-4537
▁'6–	-4538
▁men	-4539
iting	-4540
▁test	-4541
▁'010-	-4542
Current	-4543
Nickname	-4544
nominated	-4545
▁december	-4546
▁documents	-4547
182	-4548
elf	-4549
oth	-4550
rie	-4551
_104	-4552
nast	-4553
▁Fin	-4554
Jerry	-4555
stack	-4556
▁'12.	-4557
▁soln	-4558
▁house	-4559
amenity	-4560
CIL	-4561
Gra	-4562
ald	-4563
iro	-4564
▁96	-4565
▁Ag	-4566
▁pm	-4567
_108	-4568
_177	-4569
lane	-4570
Hemat	-4571
STAMP	-4572
cular	-4573
wered	-4574
credit	-4575
ficial	-4576
▁FACIL	-4577
▁genre	-4578
▁international	-4579
178	-4580
Uni	-4581
Tele	-4582
_186	-4583
▁"50	-4584
▁"6–	-4585
alive	-4586
ample	-4587
repre	-4588
skill	-4589
▁road	-4590
▁guest	-4591
▁hyper	-4592
▁owner	-4593
android	-4594
▁network	-4595
difference	-4596
56'	-4597
ATA	-4598
CER	-4599
RSF	-4600
arn	-4601
sea	-4602
tim	-4603
▁65	-4604
TRSF	-4605
_237	-4606
ates	-4607
orse	-4608
▁2013	-4609
▁CARE	-4610
▁THIS	-4611
▁list	-4612
fficial	-4613
nguages	-4614
▁august	-4615
▁center	-4616
TIMESTAMP	-4617
repreneur	-4618
▁FACILITY	-4619
KA	-4620
-0"	-4621
197	-4622
bon	-4623
▁44	-4624
FARE	-4625
_292	-4626
ndar	-4627
paul	-4628
▁"0.	-4629
▁nhl	-4630
sults	-4631
▁PHONE	-4632
▁Payment	-4633
enrollment	-4634
▁technician	-4635
.3	-4636
127	-4637
▁74	-4638
_142	-4639
rill	-4640
▁"25	-4641
▁'28	-4642
lance	-4643
pende	-4644
▁YORK	-4645
▁York	-4646
▁work	-4647
branch	-4648
spinal	-4649
▁2009'	-4650
illiams	-4651
▁'2008'	-4652
▁amount	-4653
ntestant	-4654
overflow	-4655
question	-4656
▁address	-4657
▁airdate	-4658
▁catheter	-4659
LD	-4660
–6	-4661
108	-4662
135	-4663
9_2	-4664
Med	-4665
▁36	-4666
▁94	-4667
▁pa	-4668
000"	-4669
Test	-4670
rama	-4671
size	-4672
▁'25'	-4673
▁arte	-4674
▁CONCAT	-4675
Quantity	-4676
▁diastolic	-4677
Men	-4678
irt	-4679
pit	-4680
pul	-4681
▁66	-4682
▁80	-4683
RAFT	-4684
_138	-4685
_167	-4686
cust	-4687
reak	-4688
thon	-4689
tine	-4690
well	-4691
▁che	-4692
▁geo	-4693
David	-4694
bonus	-4695
istry	-4696
urnit	-4697
▁"214	-4698
▁events	-4699
urniture	-4700
▁dataset	-4701
▁Investor	-4702
▁hemoglobin	-4703
CommentCount	-4704
98'	-4705
All	-4706
lue	-4707
_252	-4708
mike	-4709
▁'4.	-4710
▁188	-4711
▁vis	-4712
CTION	-4713
irgin	-4714
▁'035	-4715
▁ange	-4716
posing	-4717
ribute	-4718
alendar	-4719
Election	-4720
ditional	-4721
▁REPLACE	-4722
▁VoteTypes	-4723
195	-4724
AMI	-4725
sur	-4726
▁76	-4727
▁Ex	-4728
▁all	-4729
_100)	-4730
chedu	-4731
miere	-4732
orgia	-4733
▁'27'	-4734
▁Comp	-4735
_204_9	-4736
admits	-4737
channel	-4738
michael	-4739
▁Winner	-4740
director	-4741
addresses	-4742
15"	-4743
930	-4744
Max	-4745
ape	-4746
pic	-4747
cien	-4748
ping	-4749
▁"36	-4750
▁'35	-4751
▁art	-4752
▁Main	-4753
▁draw	-4754
▁spec	-4755
OSITION	-4756
ichigan	-4757
employee	-4758
▁Creation	-4759
KEE	-4760
hal	-4761
rer	-4762
▁pf	-4763
_132	-4764
java	-4765
▁Vis	-4766
▁tag	-4767
ORTIC	-4768
illin	-4769
▁LName	-4770
victory	-4771
▁Catalog	-4772
Be	-4773
1.0	-4774
3_2	-4775
ANK	-4776
WAU	-4777
han	-4778
1'))	-4779
Comp	-4780
Paul	-4781
_247	-4782
ccup	-4783
zyme	-4784
▁1.0	-4785
▁Add	-4786
rebro	-4787
▁cent	-4788
MILWAU	-4789
▁liver	-4790
Transfer	-4791
original	-4792
tionDate	-4793
MILWAUKEE	-4794
▁Suggested	-4795
admitsource	-4796
151	-4797
48'	-4798
bed	-4799
cid	-4800
_106	-4801
_246	-4802
alex	-4803
host	-4804
ilip	-4805
▁"11	-4806
▁'22	-4807
▁10,	-4808
▁"195	-4809
▁"210	-4810
▁cell	-4811
Results	-4812
germany	-4813
pearances	-4814
technician	-4815
LastAccessDate	-4816
ky	-4817
107	-4818
Ind	-4819
bre	-4820
▁(7	-4821
▁97	-4822
rival	-4823
users	-4824
▁"196	-4825
▁"211	-4826
Launch	-4827
lapsed	-4828
▁kilda	-4829
▁storm	-4830
wednesday	-4831
stackoverflow	-4832
Fe	-4833
34"	-4834
368	-4835
987	-4836
Pub	-4837
vid	-4838
Pres	-4839
_287	-4840
gary	-4841
russ	-4842
▁'27	-4843
ADDIT	-4844
duced	-4845
stand	-4846
Member	-4847
userid	-4848
▁arena	-4849
▁'2010'	-4850
ADDITIVE	-4851
Medicaid	-4852
thursday	-4853
Un	-4854
98"	-4855
ATH	-4856
CSF	-4857
rel	-4858
tur	-4859
ugh	-4860
▁PU	-4861
ISTS	-4862
_296	-4863
▁"7"	-4864
areer	-4865
spain	-4866
upper	-4867
search	-4868
Locaton	-4869
▁"2006"	-4870
▁launch	-4871
Percentage	-4872
▁nomination	-4873
▁performance	-4874
#"	-4875
12-	-4876
aug	-4877
mal	-4878
▁6"	-4879
OLIS	-4880
ader	-4881
oung	-4882
▁bay	-4883
▁mal	-4884
ESSOR	-4885
Taken	-4886
cites	-4887
iopsy	-4888
▁EXISTS	-4889
EditDate	-4890
Workshop	-4891
▁advisory	-4892
▁PROFESSOR	-4893
▁WebsiteUrl	-4894
tv	-4895
uz	-4896
-1"	-4897
ani	-4898
▁'/	-4899
0'))	-4900
Cuts	-4901
ardo	-4902
cute	-4903
stab	-4904
▁VAL	-4905
▁lap	-4906
('%##	-4907
Phone	-4908
StuID	-4909
Reason	-4910
cations	-4911
fection	-4912
▁billing	-4913
▁founded	-4914
:5	-4915
Ke	-4916
(10	-4917
17"	-4918
OOL	-4919
▁5'	-4920
▁'30	-4921
Edits	-4922
Share	-4923
burgh	-4924
italy	-4925
SCHOOL	-4926
▁100.0	-4927
balance	-4928
doubles	-4929
Investor	-4930
▁qualify	-4931
▁millions	-4932
▁entrepreneur	-4933
rx	-4934
175	-4935
Swim	-4936
_278	-4937
lora	-4938
▁Man	-4939
ASIAN	-4940
acing	-4941
cores	-4942
▁main	-4943
REPLACE	-4944
tuesday	-4945
Decision	-4946
▁television	-4947
▁tournaments	-4948
327	-4949
2000	-4950
Aust	-4951
_102	-4952
emer	-4953
rari	-4954
Women	-4955
oplas	-4956
thers	-4957
▁Club	-4958
▁anti	-4959
APOLIS	-4960
closed	-4961
▁VALVE	-4962
▁'2009'	-4963
hospitalid	-4964
-10	-4965
oto	-4966
ski	-4967
▁4'	-4968
fore	-4969
imen	-4970
list	-4971
▁20,	-4972
▁sur	-4973
Fname	-4974
North	-4975
Tests	-4976
actor	-4977
▁bron	-4978
USSIAN	-4979
pelation	-4980
philadelphia	-4981
▁CommentCount	-4982
.1	-4983
58'	-4984
azz	-4985
▁7"	-4986
▁75	-4987
▁AM	-4988
imum	-4989
nous	-4990
nter	-4991
sqmi	-4992
star	-4993
uman	-4994
▁"22	-4995
▁(1,	-4996
▁Tra	-4997
table	-4998
ttled	-4999
▁Apps	-5000
Summer	-5001
python	-5002
▁Grape	-5003
▁south	-5004
Builder	-5005
festival	-5006
victoria	-5007
▁Deberry	-5008
▁project	-5009
cs	-5010
ERM	-5011
Fac	-5012
Pen	-5013
ces	-5014
dle	-5015
▁39	-5016
▁6,	-5017
Heat	-5018
Self	-5019
itis	-5020
▁12"	-5021
▁Down	-5022
active	-5023
DL	-5024
054	-5025
328	-5026
ars	-5027
bul	-5028
pol	-5029
rad	-5030
▁(8	-5031
CHAR	-5032
DEAN	-5033
Left	-5034
_255	-5035
_298	-5036
▁VER	-5037
▁ger	-5038
▁sal	-5039
ATIVE	-5040
MIAMI	-5041
ducer	-5042
ivery	-5043
tical	-5044
Cinema	-5045
mistry	-5046
voices	-5047
▁'2007'	-5048
▁'2100'	-5049
Medicare	-5050
▁VERDEAN	-5051
▁faculty	-5052
Hematology	-5053
constructor	-5054
123	-5055
16"	-5056
And	-5057
die	-5058
hen	-5059
sem	-5060
▁57	-5061
_288	-5062
▁"35	-5063
▁19,	-5064
_200,	-5065
cover	-5066
▁'26'	-5067
▁(%)"	-5068
▁pilot	-5069
▁theme	-5070
Michael	-5071
Distance	-5072
ccupation	-5073
ountyAmount	-5074
pi	-5075
02"	-5076
086	-5077
105	-5078
ANT	-5079
CIN	-5080
ONG	-5081
rig	-5082
vol	-5083
–6'	-5084
▁Up	-5085
bate	-5086
stro	-5087
▁144	-5088
▁cre	-5089
Source	-5090
density	-5091
Champion	-5092
lastname	-5093
OF	-5094
ief	-5095
inn	-5096
ior	-5097
see	-5098
–6"	-5099
▁4,	-5100
▁du	-5101
Room	-5102
Ship	-5103
_212	-5104
adge	-5105
iber	-5106
Poles	-5107
arget	-5108
attle	-5109
diums	-5110
▁"10"	-5111
▁base	-5112
▁unit	-5113
Mascot	-5114
Writer	-5115
ritish	-5116
ymnast	-5117
▁store	-5118
lerator	-5119
▁family	-5120
▁density	-5121
Locations	-5122
basePrice	-5123
tractions	-5124
▁broadcast	-5125
characteristic	-5126
142	-5127
148	-5128
sse	-5129
unc	-5130
▁3.	-5131
_187	-5132
ache	-5133
mous	-5134
▁"14	-5135
▁10"	-5136
▁COL	-5137
chest	-5138
gency	-5139
ilable	-5140
▁'009-	-5141
▁2010"	-5142
latelet	-5143
▁'2101-	-5144
▁biopsy	-5145
▁ticket	-5146
rebrospinal	-5147
102	-5148
129	-5149
147	-5150
ANG	-5151
has	-5152
tle	-5153
urt	-5154
Mark	-5155
_275	-5156
ault	-5157
hypo	-5158
mory	-5159
nant	-5160
nick	-5161
tors	-5162
ysis	-5163
▁$__	-5164
▁'38	-5165
▁bow	-5166
▁sep	-5167
▁win	-5168
built	-5169
peter	-5170
anemia	-5171
sodium	-5172
▁Views	-5173
▁speed	-5174
detroit	-5175
▁mascot	-5176
▁Nominee	-5177
▁appointment	-5178
Cy	-5179
286	-5180
342	-5181
For	-5182
yre	-5183
ALAS	-5184
PITAL	-5185
coach	-5186
▁Code	-5187
▁TERM	-5188
ALASKA	-5189
Station	-5190
▁INDIAN	-5191
▁NATIVE	-5192
AMERICAN	-5193
mployees	-5194
▁RUSSIAN	-5195
▁HOSPITAL	-5196
▁enrollment	-5197
Cerebrospinal	-5198
ju	-5199
120	-5200
304	-5201
386	-5202
ANS	-5203
_3,	-5204
▁im	-5205
alue	-5206
tian	-5207
ulti	-5208
▁14,	-5209
▁18,	-5210
▁Spe	-5211
money	-5212
Report	-5213
campus	-5214
source	-5215
▁'012-	-5216
▁blood	-5217
AboutMe	-5218
▁'2011'	-5219
investor	-5220
CP	-5221
07"	-5222
196	-5223
348	-5224
776	-5225
AFR	-5226
rag	-5227
▁00	-5228
▁Lo	-5229
▁es	-5230
HAIT	-5231
_218	-5232
_242	-5233
rook	-5234
udge	-5235
▁sch	-5236
Sport	-5237
throm	-5238
track	-5239
▁'28'	-5240
▁star	-5241
LATINO	-5242
asting	-5243
▁"2008	-5244
▁First	-5245
▁coach	-5246
AFRICAN	-5247
founded	-5248
tourist	-5249
▁'006-2	-5250
POSITION	-5251
articles	-5252
▁AMERICAN	-5253
tournament	-5254
▁journalist	-5255
IO	-5256
SN	-5257
014	-5258
017	-5259
300	-5260
INT	-5261
avg	-5262
tre	-5263
▁"17	-5264
▁Pre	-5265
eding	-5266
laide	-5267
▁'14.	-5268
▁born	-5269
▁cust	-5270
ritory	-5271
▁'013-	-5272
▁Ratio	-5273
irginia	-5274
monthly	-5275
▁active	-5276
945	-5277
Run	-5278
arm	-5279
cur	-5280
–0'	-5281
▁59	-5282
▁8,	-5283
▁92	-5284
▁Du	-5285
▁Su	-5286
▁qu	-5287
icle	-5288
sets	-5289
▁Sto	-5290
award	-5291
japan	-5292
▁vote	-5293
clubid	-5294
leased	-5295
▁'028-	-5296
▁2011"	-5297
▁source	-5298
▁classroom	-5299
=2	-5300
BC	-5301
041	-5302
104	-5303
136	-5304
324	-5305
▁7,	-5306
▁85	-5307
IATA	-5308
used	-5309
wick	-5310
▁'2,	-5311
ctric	-5312
store	-5313
▁1200)	-5314
Airport	-5315
Network	-5316
▁Points	-5317
▁writer	-5318
Earnings	-5319
▁angeles	-5320
▁decision	-5321
University	-5322
$_	-5323
/2	-5324
322	-5325
38"	-5326
Mon	-5327
apy	-5328
mcg	-5329
▁42	-5330
_127	-5331
king	-5332
mine	-5333
rian	-5334
▁ath	-5335
setid	-5336
weden	-5337
orders	-5338
▁major	-5339
▁market	-5340
Mountain	-5341
election	-5342
datasetid	-5343
▁LOCATION	-5344
▁exhibition	-5345
SY	-5346
188	-5347
325	-5348
373	-5349
377	-5350
mad	-5351
mod	-5352
▁ze	-5353
Byes	-5354
_276	-5355
ials	-5356
ited	-5357
quan	-5358
▁11,	-5359
▁192	-5360
draws	-5361
laims	-5362
▁char	-5363
▁wome	-5364
ickets	-5365
income	-5366
prince	-5367
▁right	-5368
ttlement	-5369
alifornia	-5370
▁accounts	-5371
Conference	-5372
Ob	-5373
▁X	-5374
116	-5375
95"	-5376
cou	-5377
hab	-5378
kee	-5379
▁45	-5380
6'))	-5381
▁12,	-5382
Genre	-5383
astro	-5384
OFFICE	-5385
oscopy	-5386
▁block	-5387
HAITIAN	-5388
Pleural	-5389
singles	-5390
▁Weight	-5391
▁hcards	-5392
▁kingdom	-5393
Chemistry	-5394
Republican	-5395
publication	-5396
admissionheight	-5397
Of	-5398
gi	-5399
ov	-5400
128	-5401
186	-5402
96'	-5403
ERP	-5404
HOU	-5405
–0"	-5406
Prof	-5407
_500	-5408
▁"16	-5409
▁'23	-5410
▁16,	-5411
▁MHz	-5412
▁mag	-5413
Races	-5414
india	-5415
▁'29'	-5416
▁2014	-5417
▁High	-5418
UserID	-5419
ground	-5420
▁crowd	-5421
ification	-5422
▁replaced	-5423
stallation	-5424
▁languages	-5425
(_	-5426
EO	-5427
fr	-5428
05"	-5429
168	-5430
282	-5431
362	-5432
97'	-5433
996	-5434
Att	-5435
▁6'	-5436
9'))	-5437
ERTO	-5438
athy	-5439
iata	-5440
leet	-5441
▁non	-5442
,000'	-5443
:00')	-5444
allen	-5445
▁trip	-5446
▁RICAN	-5447
Ascites	-5448
journal	-5449
oftware	-5450
▁PUERTO	-5451
mentator	-5452
EmployeeID	-5453
latedPostId	-5454
▁Classification	-5455
$__	-5456
(1)	-5457
170	-5458
192	-5459
335	-5460
349	-5461
Fin	-5462
MIN	-5463
–1'	-5464
_225	-5465
_262	-5466
here	-5467
▁15,	-5468
James	-5469
ffice	-5470
local	-5471
▁back	-5472
europe	-5473
onnage	-5474
rolled	-5475
matches	-5476
▁report	-5477
▁studio	-5478
engineer	-5479
▁Projects	-5480
▁Affiliation	-5481
:4	-5482
mu	-5483
58"	-5484
Bar	-5485
bye	-5486
erv	-5487
▁cy	-5488
Spec	-5489
_174	-5490
lays	-5491
left	-5492
lier	-5493
▁'20	-5494
▁hcl	-5495
LANDO	-5496
Urine	-5497
lanta	-5498
ustin	-5499
▁1999	-5500
▁book	-5501
Closed	-5502
monary	-5503
nesium	-5504
robert	-5505
▁2006"	-5506
▁2010'	-5507
ORLANDO	-5508
airdate	-5509
▁'2006'	-5510
▁Racing	-5511
▁drivers	-5512
washington	-5513
▁Financial	-5514
▁geographic	-5515
141	-5516
165	-5517
350	-5518
77'	-5519
bay	-5520
cha	-5521
tia	-5522
exam	-5523
▁'26	-5524
actid	-5525
ensus	-5526
lines	-5527
▁peak	-5528
▁runs	-5529
United	-5530
_13422	-5531
Excerpt	-5532
veloper	-5533
▁africa	-5534
▁device	-5535
▁keyword	-5536
IP	-5537
187	-5538
568	-5539
962	-5540
995	-5541
oph	-5542
▁7'	-5543
▁MY	-5544
_152	-5545
ally	-5546
stan	-5547
▁INF	-5548
▁pat	-5549
cript	-5550
liver	-5551
ondon	-5552
▁"11"	-5553
▁'32'	-5554
french	-5555
builder	-5556
▁builder	-5557
▁general	-5558
▁leading	-5559
firstname	-5560
▁candidate	-5561
Ab	-5562
088	-5563
944	-5564
988	-5565
999	-5566
▁(6	-5567
CENT	-5568
Role	-5569
_178	-5570
east	-5571
▁ter	-5572
iency	-5573
power	-5574
chedule	-5575
ventric	-5576
▁budget	-5577
Interview	-5578
▁Payments	-5579
▁headquarter	-5580
Je	-5581
015	-5582
078	-5583
11"	-5584
140	-5585
582	-5586
AGO	-5587
lol	-5588
ump	-5589
▁pp	-5590
DIAL	-5591
Down	-5592
Mens	-5593
_267	-5594
_400	-5595
_600	-5596
_700	-5597
avis	-5598
kins	-5599
ucky	-5600
▁"13	-5601
▁22,	-5602
▁24,	-5603
▁CAN	-5604
▁PER	-5605
▁haw	-5606
Field	-5607
Joint	-5608
aland	-5609
fensive	-5610
tsburgh	-5611
version	-5612
▁CANCER	-5613
▁CATEGORY	-5614
▁respiratory	-5615
ij	-5616
101	-5617
28'	-5618
=28	-5619
lad	-5620
lah	-5621
mus	-5622
til	-5623
via	-5624
▁37	-5625
▁58	-5626
▁fi	-5627
>%')	-5628
June	-5629
Link	-5630
Skip	-5631
bill	-5632
ered	-5633
lens	-5634
▁"42	-5635
▁25,	-5636
vania	-5637
▁'13.	-5638
▁term	-5639
window	-5640
▁coron	-5641
Leading	-5642
▁Budget	-5643
▁income	-5644
cientist	-5645
▁PERCENT	-5646
AO	-5647
221	-5648
347	-5649
far	-5650
met	-5651
–1"	-5652
▁May	-5653
▁enr	-5654
▁mil	-5655
force	-5656
▁"14"	-5657
▁'194	-5658
▁loan	-5659
russia	-5660
scored	-5661
▁TagId	-5662
▁black	-5663
Authors	-5664
olympic	-5665
▁personal	-5666
stablished	-5667
IX	-5668
#")	-5669
0.0	-5670
016	-5671
06"	-5672
137	-5673
352	-5674
380	-5675
467	-5676
577	-5677
97"	-5678
GRA	-5679
ene	-5680
▁47	-5681
Ends	-5682
_299	-5683
anel	-5684
safe	-5685
▁'7.	-5686
▁pen	-5687
Chris	-5688
inten	-5689
▁"20"	-5690
▁'15.	-5691
▁Dorm	-5692
▁used	-5693
Floors	-5694
served	-5695
sunday	-5696
Settled	-5697
entucky	-5698
stadium	-5699
ylvania	-5700
▁Player	-5701
▁kidney	-5702
▁scorer	-5703
saturday	-5704
▁Against	-5705
▁million	-5706
September	-5707
allergytime	-5708
▁Population	-5709
MO	-5710
UK	-5711
048	-5712
109	-5713
124	-5714
986	-5715
SNF	-5716
crs	-5717
ged	-5718
kid	-5719
rac	-5720
▁55	-5721
ICAO	-5722
Main	-5723
_233	-5724
mino	-5725
▁"3.	-5726
▁"9"	-5727
▁tro	-5728
Views	-5729
divid	-5730
james	-5731
types	-5732
▁CATH	-5733
▁PAIN	-5734
▁elim	-5735
AORTIC	-5736
second	-5737
CARDIAC	-5738
Channel	-5739
Japanese	-5740
▁duration	-5741
▁representative	-5742
OwnerDisplayName	-5743
kW	-5744
18"	-5745
346	-5746
378	-5747
4_2	-5748
cke	-5749
cla	-5750
ilo	-5751
una	-5752
▁-1	-5753
▁8"	-5754
▁ve	-5755
_110	-5756
_185	-5757
cium	-5758
tact	-5759
▁'08	-5760
▁Lap	-5761
▁red	-5762
Yards	-5763
china	-5764
putum	-5765
wards	-5766
▁wind	-5767
Decile	-5768
rillic	-5769
ferrari	-5770
▁awards	-5771
Official	-5772
Outgoing	-5773
montreal	-5774
▁Service	-5775
▁Stadium	-5776
▁version	-5777
emergency	-5778
▁character	-5779
organization	-5780
-3'	-5781
005	-5782
08"	-5783
167	-5784
172	-5785
185	-5786
312	-5787
365	-5788
939	-5789
hou	-5790
rin	-5791
▁nd	-5792
away	-5793
ells	-5794
icao	-5795
▁Ans	-5796
Peter	-5797
▁Part	-5798
▁Final	-5799
▁GRAFT	-5800
elapsed	-5801
payment	-5802
▁'2012'	-5803
signation	-5804
conference	-5805
▁'2105-12'	-5806
▁Difference	-5807
047	-5808
360	-5809
395	-5810
ARK	-5811
Tor	-5812
ave	-5813
non	-5814
▁9"	-5815
CHIC	-5816
Card	-5817
_208	-5818
_286	-5819
ness	-5820
side	-5821
▁'%-	-5822
▁29)	-5823
▁Avg	-5824
▁act	-5825
▁use	-5826
morrh	-5827
▁iata	-5828
▁mens	-5829
▁tabs	-5830
kansas	-5831
▁teach	-5832
CHICAGO	-5833
Nominee	-5834
urchase	-5835
00000000	-5836
Customer	-5837
dividual	-5838
▁Winning	-5839
▁Openning	-5840
▁addresses	-5841
-8	-5842
BA	-5843
126	-5844
356	-5845
359	-5846
922	-5847
ato	-5848
dam	-5849
▁(0	-5850
(*))	-5851
_164	-5852
_188	-5853
_227	-5854
info	-5855
peak	-5856
▁"24	-5857
▁"68	-5858
▁End	-5859
▁Med	-5860
("200	-5861
oston	-5862
utors	-5863
▁'032	-5864
▁Ship	-5865
▁band	-5866
▁rece	-5867
nessee	-5868
person	-5869
▁seats	-5870
england	-5871
istered	-5872
Delivery	-5873
Replaced	-5874
mountain	-5875
180	-5876
343	-5877
374	-5878
957	-5879
oen	-5880
olf	-5881
tar	-5882
usd	-5883
wal	-5884
▁'"	-5885
▁(4	-5886
▁33	-5887
_245	-5888
_272	-5889
anal	-5890
body	-5891
glen	-5892
onia	-5893
▁'32	-5894
▁23,	-5895
Actor	-5896
ander	-5897
olden	-5898
ourth	-5899
▁'34'	-5900
▁'38'	-5901
sputum	-5902
▁Grand	-5903
Podiums	-5904
▁volume	-5905
quantity	-5906
nsylvania	-5907
▁Carolina	-5908
Television	-5909
▁FavoriteCount	-5910
Sy	-5911
fm	-5912
LOT	-5913
SCI	-5914
chi	-5915
gly	-5916
iny	-5917
▁46	-5918
▁do	-5919
ALTH	-5920
idth	-5921
iron	-5922
prix	-5923
▁'34	-5924
▁2.5	-5925
▁eff	-5926
Extra	-5927
creen	-5928
honda	-5929
▁1998	-5930
_13414	-5931
▁extra	-5932
Address	-5933
ranking	-5934
ultural	-5935
▁'2005'	-5936
▁HEALTH	-5937
▁Minister	-5938
▁outgoing	-5939
-6	-5940
FI	-5941
04"	-5942
117	-5943
131	-5944
143	-5945
96"	-5946
ACH	-5947
eed	-5948
▁ko	-5949
July	-5950
LATE	-5951
Sing	-5952
Wiki	-5953
_175	-5954
_284	-5955
chen	-5956
tina	-5957
▁108	-5958
01-01	-5959
minee	-5960
ratio	-5961
seats	-5962
steve	-5963
▁'192	-5964
▁size	-5965
proval	-5966
princes	-5967
▁repair	-5968
decision	-5969
junction	-5970
▁COLLATE	-5971
▁Project	-5972
PARTITION	-5973
▁District	-5974
yr	-5975
-5"	-5976
176	-5977
329	-5978
372	-5979
3_3	-5980
94'	-5981
992	-5982
ATT	-5983
dio	-5984
her	-5985
ini	-5986
▁(\	-5987
▁ur	-5988
DEPT	-5989
EGAS	-5990
___)	-5991
msid	-5992
▁"30	-5993
▁'6.	-5994
▁49)	-5995
Grand	-5996
LOTTE	-5997
guard	-5998
rated	-5999
▁"27"	-6000
▁bank	-6001
▁insu	-6002
finish	-6003
single	-6004
▁VEGAS	-6005
network	-6006
▁SCHOOL	-6007
▁comple	-6008
CHARLOTTE	-6009
Character	-6010
▁description	-6011
050	-6012
369	-6013
94"	-6014
968	-6015
dbp	-6016
▁8'	-6017
-25"	-6018
4.0"	-6019
Head	-6020
vere	-6021
wide	-6022
ffalo	-6023
press	-6024
sions	-6025
artery	-6026
igital	-6027
allenge	-6028
▁Member	-6029
▁Record	-6030
▁injury	-6031
▁strokes	-6032
▁without	-6033
▁Students	-6034
▁carolina	-6035
university	-6036
RU	-6037
Si	-6038
144	-6039
338	-6040
958	-6041
965	-6042
CFL	-6043
lie	-6044
pas	-6045
▁($	-6046
▁ul	-6047
Roll	-6048
▁'0-	-6049
▁12'	-6050
▁New	-6051
▁mid	-6052
▁rfc	-6053
_1342	-6054
_2562	-6055
comes	-6056
_13415	-6057
center	-6058
veland	-6059
Musical	-6060
▁'031-2	-6061
▁LATINO	-6062
▁capital	-6063
▁masters	-6064
Transactions	-6065
sf	-6066
044	-6067
103	-6068
388	-6069
44"	-6070
584	-6071
942	-6072
972	-6073
▁(5	-6074
▁LA	-6075
%'))	-6076
-201	-6077
_266	-6078
cott	-6079
exas	-6080
fred	-6081
gree	-6082
ideo	-6083
▁30,	-6084
▁tur	-6085
Latin	-6086
▁'31'	-6087
▁RANK	-6088
▁icao	-6089
NEWARK	-6090
graphy	-6091
outher	-6092
▁north	-6093
▁'2004'	-6094
_2562572	-6095
▁records	-6096
▁francisco	-6097
dn	-6098
160	-6099
173	-6100
980	-6101
:30	-6102
PHO	-6103
YES	-6104
mas	-6105
oli	-6106
▁52	-6107
▁jo	-6108
tony	-6109
▁'37	-6110
▁250	-6111
▁sex	-6112
▁van	-6113
cloud	-6114
frank	-6115
green	-6116
icdia	-6117
▁"15"	-6118
▁"17"	-6119
▁1990	-6120
▁aust	-6121
ensity	-6122
enzyme	-6123
latest	-6124
▁StuID	-6125
▁sports	-6126
▁system	-6127
Contents	-6128
▁Courses	-6129
▁coronary	-6130
icdiastolic	-6131
▁SuggestedEdits	-6132
sr	-6133
134	-6134
149	-6135
323	-6136
326	-6137
35"	-6138
387	-6139
444	-6140
948	-6141
Cor	-6142
bil	-6143
hat	-6144
Runs	-6145
_105	-6146
gest	-6147
pass	-6148
xico	-6149
▁'36	-6150
▁17,	-6151
▁21,	-6152
▁pla	-6153
▁zip	-6154
genre	-6155
iants	-6156
▁"508	-6157
▁2200	-6158
▁Link	-6159
▁over	-6160
▁slam	-6161
Deaths	-6162
roller	-6163
▁(2010	-6164
▁2005"	-6165
▁throm	-6166
ctorate	-6167
outhern	-6168
visions	-6169
▁parent	-6170
therlands	-6171
▁Addresses	-6172
municipality	-6173
▁affiliation	-6174
-5	-6175
CR	-6176
TR	-6177
dt	-6178
947	-6179
974	-6180
ASS	-6181
bus	-6182
saa	-6183
str	-6184
▁'#	-6185
05')	-6186
EMIA	-6187
ENIX	-6188
PASS	-6189
_182	-6190
rime	-6191
▁0.9	-6192
verse	-6193
▁"207	-6194
▁wood	-6195
_13416	-6196
serati	-6197
PHOENIX	-6198
▁BYPASS	-6199
▁quantity	-6200
BountyAmount	-6201
LastEditDate	-6202
▁REPLACEMENT	-6203
FavoriteCount	-6204
DO	-6205
027	-6206
121	-6207
146	-6208
177	-6209
357	-6210
973	-6211
975	-6212
998	-6213
GDP	-6214
LES	-6215
LSA	-6216
Sup	-6217
cnt	-6218
gle	-6219
nov	-6220
▁'–	-6221
▁9.	-6222
▁ii	-6223
cipi	-6224
elly	-6225
pell	-6226
▁'5.	-6227
▁Res	-6228
▁ran	-6229
acher	-6230
brand	-6231
claim	-6232
oenix	-6233
▁1996	-6234
▁clim	-6235
▁rail	-6236
▁synd	-6237
Moving	-6238
Womens	-6239
pening	-6240
ported	-6241
▁prize	-6242
depende	-6243
ialysis	-6244
▁'2003'	-6245
▁Center	-6246
▁'2100')	-6247
El	-6248
.0"	-6249
012	-6250
028	-6251
076	-6252
085	-6253
152	-6254
155	-6255
IHS	-6256
Syn	-6257
sep	-6258
usa	-6259
▁gu	-6260
▁ih	-6261
▁pr	-6262
-200	-6263
free	-6264
gery	-6265
neum	-6266
ryan	-6267
▁"26	-6268
▁"46	-6269
▁39)	-6270
▁wal	-6271
IHSAA	-6272
cheal	-6273
windy	-6274
▁1994	-6275
bonate	-6276
idence	-6277
indian	-6278
▁'%<##	-6279
▁Award	-6280
▁stuid	-6281
Winners	-6282
percent	-6283
▁domain	-6284
▁moving	-6285
▁invoices	-6286
▁performer	-6287
▁submission	-6288
▁Participants	-6289
*"	-6290
157	-6291
171	-6292
354	-6293
912	-6294
976	-6295
Cle	-6296
Nom	-6297
bas	-6298
fil	-6299
oul	-6300
rab	-6301
yer	-6302
▁9'	-6303
:30"	-6304
INAL	-6305
SALT	-6306
Term	-6307
_113	-6308
_306	-6309
_348	-6310
_368	-6311
_388	-6312
_406	-6313
_448	-6314
_468	-6315
_488	-6316
_506	-6317
_548	-6318
_568	-6319
_588	-6320
_606	-6321
_648	-6322
_668	-6323
_688	-6324
_706	-6325
_748	-6326
_768	-6327
_788	-6328
born	-6329
olis	-6330
text	-6331
▁11"	-6332
▁800	-6333
▁due	-6334
▁log	-6335
ATTLE	-6336
Issue	-6337
parin	-6338
▁LAKE	-6339
▁gain	-6340
INDIAN	-6341
acator	-6342
assign	-6343
couver	-6344
mental	-6345
▁Order	-6346
▁hours	-6347
SEATTLE	-6348
▁church	-6349
▁AboutMe	-6350
▁section	-6351
▁zealand	-6352
▁official	-6353
UN	-6354
zo	-6355
-3"	-6356
163	-6357
919	-6358
928	-6359
929	-6360
940	-6361
985	-6362
Try	-6363
cli	-6364
erk	-6365
hes	-6366
sum	-6367
▁nt	-6368
Dele	-6369
LEED	-6370
ORTH	-6371
_344	-6372
_356	-6373
_377	-6374
_444	-6375
_456	-6376
_477	-6377
_544	-6378
_556	-6379
_577	-6380
_644	-6381
_656	-6382
_677	-6383
_744	-6384
_756	-6385
_777	-6386
atre	-6387
icar	-6388
ives	-6389
mbol	-6390
sson	-6391
▁Win	-6392
▁pul	-6393
Stand	-6394
▁"16"	-6395
▁Area	-6396
▁shop	-6397
▁ther	-6398
August	-6399
Losing	-6400
lorado	-6401
▁BLEED	-6402
▁Draft	-6403
▁serum	-6404
▁stars	-6405
▁Engine	-6406
▁editor	-6407
istrative	-6408
▁affected	-6409
systemicmean	-6410
▁administration	-6411
zl	-6412
075	-6413
166	-6414
340	-6415
379	-6416
92'	-6417
cia	-6418
_176	-6419
_302	-6420
_328	-6421
_357	-6422
_358	-6423
_395	-6424
_402	-6425
_428	-6426
_457	-6427
_458	-6428
_495	-6429
_502	-6430
_528	-6431
_557	-6432
_558	-6433
_595	-6434
_602	-6435
_628	-6436
_657	-6437
_658	-6438
_695	-6439
_702	-6440
_728	-6441
_757	-6442
_758	-6443
_795	-6444
_802	-6445
ines	-6446
ream	-6447
tier	-6448
▁(2,	-6449
▁cfl	-6450
▁fac	-6451
anish	-6452
views	-6453
Ground	-6454
___$__	-6455
cedure	-6456
ehicle	-6457
▁2006'	-6458
▁check	-6459
Machine	-6460
incipal	-6461
▁output	-6462
intenance	-6463
minnesota	-6464
▁schedule	-6465
Touchdowns	-6466
provalDate	-6467
▁authority	-6468
INDIANAPOLIS	-6469
II	-6470
ku	-6471
ws	-6472
130	-6473
320	-6474
376	-6475
382	-6476
926	-6477
967	-6478
LEV	-6479
adi	-6480
gre	-6481
joe	-6482
▁ke	-6483
1.0"	-6484
Oper	-6485
Rich	-6486
_307	-6487
_308	-6488
_407	-6489
_408	-6490
_507	-6491
_508	-6492
_607	-6493
_608	-6494
_707	-6495
_708	-6496
alle	-6497
main	-6498
▁"2:	-6499
▁"48	-6500
▁Red	-6501
▁med	-6502
inyin	-6503
uests	-6504
vance	-6505
visor	-6506
▁Ange	-6507
▁TRAN	-6508
▁tech	-6509
Boston	-6510
contin	-6511
▁Place	-6512
▁"2005"	-6513
▁tryout	-6514
▁regular	-6515
▁airports	-6516
Democratic	-6517
appointment	-6518
pg	-6519
004	-6520
13'	-6521
164	-6522
183	-6523
384	-6524
946	-6525
AVG	-6526
rop	-6527
she	-6528
sup	-6529
tah	-6530
▁9,	-6531
▁Jo	-6532
38_1	-6533
RACT	-6534
_155	-6535
_282	-6536
_304	-6537
_404	-6538
_501	-6539
_504	-6540
_604	-6541
_704	-6542
▁'2:	-6543
▁29,	-6544
ilers	-6545
▁2015	-6546
amenid	-6547
monton	-6548
rebral	-6549
▁'003-	-6550
▁2005'	-6551
troller	-6552
▁'013-2	-6553
Latitude	-6554
▁Average	-6555
▁nominee	-6556
▁projects	-6557
▁PostCount	-6558
▁ReviewTask	-6559
156	-6560
924	-6561
931	-6562
977	-6563
984	-6564
Met	-6565
jan	-6566
olo	-6567
pal	-6568
rev	-6569
sel	-6570
thy	-6571
▁''	-6572
▁lu	-6573
▁rd	-6574
_172	-6575
_396	-6576
_401	-6577
_496	-6578
_596	-6579
_601	-6580
_696	-6581
_701	-6582
_796	-6583
_800	-6584
_801	-6585
goal	-6586
tane	-6587
▁'3,	-6588
▁106	-6589
▁27,	-6590
▁wat	-6591
Smith	-6592
night	-6593
olicy	-6594
ories	-6595
▁'35'	-6596
▁ihsaa	-6597
HOUSTON	-6598
▁'2015-	-6599
▁census	-6600
▁chronic	-6601
defensive	-6602
▁national	-6603
▁roomName	-6604
manchester	-6605
▁apartment	-6606
▁furniture	-6607
▁Description	-6608
>'	-6609
–3	-6610
133	-6611
345	-6612
37"	-6613
Bel	-6614
ram	-6615
▁Is	-6616
▁fm	-6617
▁ht	-6618
FROM	-6619
_249	-6620
_316	-6621
_336	-6622
_338	-6623
_392	-6624
_397	-6625
_398	-6626
_399	-6627
_436	-6628
_438	-6629
_492	-6630
_497	-6631
_498	-6632
_499	-6633
_536	-6634
_538	-6635
_592	-6636
_597	-6637
_598	-6638
_599	-6639
_636	-6640
_638	-6641
_692	-6642
_697	-6643
_698	-6644
_699	-6645
_736	-6646
_738	-6647
_792	-6648
_797	-6649
_798	-6650
_799	-6651
apid	-6652
bell	-6653
ckex	-6654
▁'45	-6655
▁16"	-6656
▁Pub	-6657
▁The	-6658
▁fra	-6659
▁vas	-6660
Built	-6661
PARTS	-6662
ctomy	-6663
istan	-6664
plant	-6665
▁"13"	-6666
▁"206	-6667
▁'16.	-6668
budget	-6669
scorer	-6670
▁Other	-6671
▁color	-6672
▁death	-6673
▁hawks	-6674
▁louis	-6675
Assists	-6676
Evening	-6677
stackex	-6678
▁Source	-6679
▁artery	-6680
▁period	-6681
Swimsuit	-6682
accepted	-6683
▁Company	-6684
FROMPARTS	-6685
Longitude	-6686
tellation	-6687
▁Building	-6688
stackexchange	-6689
051	-6690
07-	-6691
99'	-6692
Can	-6693
SIS	-6694
ras	-6695
▁8.	-6696
▁Be	-6697
/201	-6698
SDAY	-6699
_166	-6700
_315	-6701
_318	-6702
_335	-6703
_394	-6704
_415	-6705
_416	-6706
_418	-6707
_435	-6708
_494	-6709
_515	-6710
_516	-6711
_518	-6712
_535	-6713
_594	-6714
_615	-6715
_616	-6716
_618	-6717
_635	-6718
_694	-6719
_715	-6720
_716	-6721
_718	-6722
_735	-6723
_794	-6724
gium	-6725
make	-6726
onio	-6727
phal	-6728
phan	-6729
ticu	-6730
▁'29	-6731
▁10'	-6732
▁13,	-6733
anies	-6734
bined	-6735
isted	-6736
▁"43"	-6737
▁heat	-6738
▁skip	-6739
tamino	-6740
▁agent	-6741
merican	-6742
▁Studio	-6743
▁losing	-6744
Duration	-6745
duration	-6746
▁Tourist	-6747
▁playoffs	-6748
▁specimen	-6749
pittsburgh	-6750
taminophen	-6751
▁difference	-6752
Constituency	-6753
SH	-6754
2.5	-6755
447	-6756
NTO	-6757
Tom	-6758
jid	-6759
–2"	-6760
▁Pt	-6761
Pass	-6762
TORO	-6763
_317	-6764
_334	-6765
_337	-6766
_417	-6767
_434	-6768
_437	-6769
_517	-6770
_534	-6771
_537	-6772
_617	-6773
_634	-6774
_637	-6775
_717	-6776
_734	-6777
_737	-6778
amie	-6779
ribu	-6780
tate	-6781
▁"38	-6782
▁ALL	-6783
▁Rep	-6784
▁cal	-6785
FacID	-6786
World	-6787
onary	-6788
posed	-6789
▁1997	-6790
▁acce	-6791
▁rest	-6792
ormula	-6793
venous	-6794
TORONTO	-6795
present	-6796
richard	-6797
▁womens	-6798
▁Engineer	-6799
▁wrestler	-6800
production	-6801
manufacturer	-6802
061	-6803
1)'	-6804
321	-6805
578	-6806
Cal	-6807
Mil	-6808
Pat	-6809
/200	-6810
_279	-6811
_2__	-6812
_314	-6813
_414	-6814
_514	-6815
_614	-6816
_714	-6817
clin	-6818
gown	-6819
imal	-6820
orto	-6821
▁har	-6822
▁pht	-6823
Storm	-6824
Value	-6825
athan	-6826
onyms	-6827
▁"208	-6828
▁'33'	-6829
▁hall	-6830
▁photo	-6831
▁smith	-6832
▁ulcer	-6833
▁vesse	-6834
enteral	-6835
olution	-6836
▁"2003"	-6837
▁'2000'	-6838
▁Author	-6839
▁People	-6840
▁classic	-6841
democratic	-6842
icarbonate	-6843
▁interview	-6844
QL	-6845
ae	-6846
020	-6847
115	-6848
462	-6849
588	-6850
67"	-6851
OOD	-6852
cos	-6853
lly	-6854
nos	-6855
▁54	-6856
▁77	-6857
Peak	-6858
STOP	-6859
_224	-6860
_312	-6861
_332	-6862
_412	-6863
_432	-6864
_512	-6865
_532	-6866
_612	-6867
_632	-6868
_712	-6869
_732	-6870
anna	-6871
auth	-6872
cite	-6873
dern	-6874
ends	-6875
fect	-6876
mall	-6877
miss	-6878
▁flu	-6879
Mixed	-6880
lando	-6881
▁FOOD	-6882
Tutors	-6883
capita	-6884
fusion	-6885
▁2011'	-6886
▁users	-6887
Highest	-6888
▁'2019-	-6889
▁Hometown	-6890
interaction	-6891
.*	-6892
Qu	-6893
TA	-6894
040	-6895
070	-6896
687	-6897
909	-6898
955	-6899
AUR	-6900
CLE	-6901
bru	-6902
irc	-6903
jav	-6904
zen	-6905
▁Sk	-6906
ITLE	-6907
_226	-6908
_327	-6909
_347	-6910
_366	-6911
_367	-6912
_387	-6913
_427	-6914
_447	-6915
_466	-6916
_467	-6917
_487	-6918
_527	-6919
_547	-6920
_566	-6921
_567	-6922
_627	-6923
_647	-6924
_666	-6925
_667	-6926
_687	-6927
_727	-6928
_747	-6929
_766	-6930
_767	-6931
_787	-6932
lade	-6933
mode	-6934
sert	-6935
▁"4.	-6936
▁150	-6937
▁600	-6938
▁Bar	-6939
▁USD	-6940
▁ble	-6941
Dates	-6942
erman	-6943
holds	-6944
▁"100	-6945
▁"30"	-6946
▁Flag	-6947
▁coup	-6948
AURANT	-6949
Gender	-6950
Robert	-6951
ritain	-6952
▁2012"	-6953
▁Jones	-6954
▁dates	-6955
▁diabe	-6956
Chinese	-6957
William	-6958
taneous	-6959
unknown	-6960
▁branch	-6961
▁podium	-6962
Comments	-6963
▁cardiac	-6964
ESTAURANT	-6965
▁callsign	-6966
RelatedPostId	-6967
ESTAURANTalias	-6968
ax	-6969
xy	-6970
04-	-6971
562	-6972
990	-6973
Bob	-6974
EGO	-6975
Won	-6976
goo	-6977
nam	-6978
–2'	-6979
▁64	-6980
▁sq	-6981
()),	-6982
_154	-6983
_322	-6984
_422	-6985
_522	-6986
_587	-6987
_622	-6988
_722	-6989
tems	-6990
▁'-'	-6991
▁'67	-6992
▁101	-6993
▁Won	-6994
▁hos	-6995
Sales	-6996
TITLE	-6997
ctive	-6998
▁roll	-6999
ackage	-7000
sweden	-7001
▁DIEGO	-7002
▁green	-7003
▁valve	-7004
college	-7005
cotland	-7006
delaide	-7007
sertion	-7008
▁"2004"	-7009
▁prereq	-7010
accident	-7011
issioned	-7012
▁DATEPART	-7013
reputation	-7014
▁elevation	-7015
Attractions	-7016
Participant	-7017
accelerator	-7018
▁DATEFROMPARTS	-7019
gp	-7020
mw	-7021
030	-7022
052	-7023
079	-7024
162	-7025
9)"	-7026
Nat	-7027
PRO	-7028
ero	-7029
jay	-7030
jul	-7031
kar	-7032
lee	-7033
sha	-7034
uss	-7035
▁mi	-7036
8.0"	-7037
_206	-7038
_229	-7039
_346	-7040
_446	-7041
_546	-7042
_646	-7043
_746	-7044
_778	-7045
asks	-7046
ians	-7047
math	-7048
pool	-7049
rist	-7050
▁att	-7051
▁nat	-7052
ANSAS	-7053
Acute	-7054
hours	-7055
penia	-7056
umbia	-7057
▁Days	-7058
▁earn	-7059
Target	-7060
entral	-7061
penses	-7062
ascript	-7063
untains	-7064
▁credit	-7065
▁fasting	-7066
▁intesti	-7067
▁primary	-7068
transfers	-7069
▁Physician	-7070
▁manufacturers	-7071
▁qualification	-7072
dv	-7073
)')	-7074
034	-7075
055	-7076
083	-7077
11-	-7078
119	-7079
ATI	-7080
Ben	-7081
Don	-7082
LOS	-7083
NGE	-7084
Ten	-7085
enr	-7086
rID	-7087
ros	-7088
zil	-7089
▁CO	-7090
dave	-7091
liga	-7092
▁"0-	-7093
▁mcc	-7094
▁rom	-7095
cName	-7096
mpson	-7097
ocket	-7098
scott	-7099
villa	-7100
▁'36'	-7101
▁ANGE	-7102
▁cuts	-7103
KANSAS	-7104
Studio	-7105
ickoff	-7106
safety	-7107
timore	-7108
viewer	-7109
▁"2007	-7110
▁Birth	-7111
▁Major	-7112
AlbumId	-7113
▁Guests	-7114
▁appell	-7115
▁capita	-7116
Playoffs	-7117
▁ANGELES	-7118
▁climber	-7119
classroom	-7120
ventricular	-7121
championship	-7122
▁appellations	-7123
Te	-7124
Ti	-7125
007	-7126
068	-7127
15'	-7128
47"	-7129
960	-7130
Pop	-7131
Uns	-7132
Yes	-7133
cks	-7134
pur	-7135
ret	-7136
sex	-7137
urg	-7138
▁OB	-7139
Bill	-7140
EMOR	-7141
_133	-7142
arab	-7143
▁"23	-7144
▁"77	-7145
▁'48	-7146
▁102	-7147
▁Top	-7148
Based	-7149
Coach	-7150
block	-7151
leste	-7152
rates	-7153
rizzl	-7154
▁clar	-7155
▁sulf	-7156
authid	-7157
ending	-7158
▁super	-7159
▁union	-7160
Manager	-7161
▁anemia	-7162
Synonyms	-7163
rizzlies	-7164
▁raceway	-7165
▁festival	-7166
attraction	-7167
submission	-7168
ExcerptPostId	-7169
▁constituency	-7170
systemicsystolic	-7171
1:	-7172
ML	-7173
006	-7174
150	-7175
314	-7176
364	-7177
370	-7178
443	-7179
952	-7180
mch	-7181
pet	-7182
shi	-7183
▁vs	-7184
_145	-7185
_162	-7186
_184	-7187
acht	-7188
ckle	-7189
heat	-7190
mate	-7191
phil	-7192
ycin	-7193
▁Aug	-7194
adian	-7195
cemia	-7196
phate	-7197
white	-7198
▁'42'	-7199
▁3000	-7200
▁Acce	-7201
▁land	-7202
Badges	-7203
became	-7204
conomy	-7205
pplier	-7206
▁jones	-7207
Density	-7208
vacancy	-7209
▁'2002'	-7210
▁Visits	-7211
▁partic	-7212
Callsign	-7213
▁germany	-7214
▁podiums	-7215
▁disorder	-7216
▁premises	-7217
▁successor	-7218
▁'12:00:00'	-7219
Mc	-7220
bl	-7221
073	-7222
118	-7223
92"	-7224
954	-7225
982	-7226
Cop	-7227
Dan	-7228
avy	-7229
iga	-7230
run	-7231
tel	-7232
▁(3	-7233
▁Sp	-7234
16_1	-7235
3.0"	-7236
LONG	-7237
OCAR	-7238
West	-7239
With	-7240
_124	-7241
andy	-7242
fold	-7243
ille	-7244
none	-7245
olar	-7246
▁13"	-7247
▁59)	-7248
▁ber	-7249
CLEVE	-7250
SHORT	-7251
Thing	-7252
itial	-7253
louis	-7254
mocra	-7255
panel	-7256
times	-7257
trose	-7258
water	-7259
▁ELEV	-7260
▁Oper	-7261
__2010	-7262
astern	-7263
ipates	-7264
opathy	-7265
raceId	-7266
rowser	-7267
▁2001"	-7268
▁INFAR	-7269
▁Organ	-7270
▁Panel	-7271
▁songs	-7272
▁MYOCAR	-7273
▁yearid	-7274
neumonia	-7275
▁formats	-7276
▁railway	-7277
CLEVELAND	-7278
viewTasks	-7279
▁syndrome	-7280
ReviewTask	-7281
hemoglobin	-7282
▁INFARCTION	-7283
▁MYOCARDIAL	-7284
Headquarters	-7285
▁TagSynonyms	-7286
▁temperature	-7287
09-	-7288
139	-7289
351	-7290
366	-7291
5-2	-7292
Den	-7293
Jim	-7294
UES	-7295
amb	-7296
▁Un	-7297
▁rt	-7298
12_1	-7299
Days	-7300
Unit	-7301
_125	-7302
ivil	-7303
stal	-7304
▁dev	-7305
▁die	-7306
Prize	-7307
Seats	-7308
Speed	-7309
itzer	-7310
ollar	-7311
▁Role	-7312
Rounds	-7313
apolis	-7314
volume	-7315
▁1800)	-7316
▁water	-7317
current	-7318
oscopic	-7319
▁Status	-7320
▁career	-7321
maserati	-7322
morrhage	-7323
▁vacancy	-7324
rangement	-7325
▁facility	-7326
Affiliation	-7327
DeletionDate	-7328
:"	-7329
DA	-7330
Is	-7331
pn	-7332
-4'	-7333
003	-7334
025	-7335
03-	-7336
198	-7337
330	-7338
344	-7339
385	-7340
REA	-7341
apo	-7342
isa	-7343
lax	-7344
lov	-7345
sam	-7346
ulf	-7347
ICAL	-7348
SYCH	-7349
_193	-7350
_243	-7351
dere	-7352
iden	-7353
yama	-7354
▁'4,	-7355
▁26,	-7356
▁gas	-7357
▁lot	-7358
▁sto	-7359
▁web	-7360
angio	-7361
great	-7362
▁'40'	-7363
▁Away	-7364
Junior	-7365
▁North	-7366
▁Phone	-7367
▁Speed	-7368
▁fault	-7369
▁files	-7370
ributes	-7371
▁window	-7372
illinois	-7373
▁COUNTRY	-7374
▁Ranking	-7375
▁authors	-7376
▁gymnast	-7377
▁bleeding	-7378
▁previous	-7379
▁longitude	-7380
institution	-7381
yd	-7382
010	-7383
026	-7384
074	-7385
077	-7386
087	-7387
174	-7388
2.0	-7389
358	-7390
448	-7391
576	-7392
925	-7393
itt	-7394
roc	-7395
▁53	-7396
-31'	-7397
osis	-7398
utic	-7399
▁"28	-7400
▁16'	-7401
▁sup	-7402
Store	-7403
black	-7404
itect	-7405
serum	-7406
▁100)	-7407
▁poll	-7408
formed	-7409
▁Event	-7410
▁athle	-7411
▁brown	-7412
Tonnage	-7413
▁'2017-	-7414
▁'2018-	-7415
▁Series	-7416
▁rounds	-7417
▁seasons	-7418
Authority	-7419
cutaneous	-7420
▁latitude	-7421
Appelation	-7422
AllergyType	-7423
▁headquarters	-7424
TD	-7425
uc	-7426
zi	-7427
-4"	-7428
.)"	-7429
002	-7430
039	-7431
06-	-7432
106	-7433
587	-7434
994	-7435
=14	-7436
INE	-7437
_1_	-7438
inf	-7439
nas	-7440
pID	-7441
wis	-7442
▁La	-7443
96_1	-7444
_254	-7445
_342	-7446
_352	-7447
_442	-7448
_452	-7449
_542	-7450
_552	-7451
_642	-7452
_752	-7453
alls	-7454
less	-7455
▁"27	-7456
▁('%	-7457
▁187	-7458
▁fre	-7459
▁mor	-7460
05'))	-7461
ctual	-7462
stone	-7463
▁Week	-7464
astric	-7465
atitis	-7466
lahoma	-7467
▁Staff	-7468
▁level	-7469
▁value	-7470
▁white	-7471
▁yards	-7472
ciation	-7473
contact	-7474
insulin	-7475
logical	-7476
▁Amount	-7477
Previous	-7478
ocialist	-7479
▁Angeles	-7480
▁account	-7481
▁winners	-7482
▁ReviewTasks	-7483
characteristics	-7484
8)	-7485
043	-7486
059	-7487
111	-7488
381	-7489
476	-7490
575	-7491
775	-7492
933	-7493
963	-7494
966	-7495
tab	-7496
tif	-7497
▁He	-7498
Elim	-7499
_678	-7500
_742	-7501
achu	-7502
chel	-7503
▁"6-	-7504
▁"9.	-7505
▁'47	-7506
▁'6-	-7507
▁208	-7508
▁sav	-7509
essor	-7510
ordan	-7511
sales	-7512
▁800)	-7513
▁fire	-7514
ackson	-7515
brazil	-7516
finals	-7517
phrine	-7518
quired	-7519
sydney	-7520
▁2004"	-7521
▁Lives	-7522
▁campu	-7523
▁point	-7524
▁poles	-7525
▁ratio	-7526
_204_78	-7527
▁States	-7528
▁bridge	-7529
▁consul	-7530
▁debate	-7531
▁floors	-7532
Branding	-7533
ceremony	-7534
Performer	-7535
clearance	-7536
▁Industry	-7537
▁airlines	-7538
▁campuses	-7539
▁QuestionsTotal	-7540
UB	-7541
066	-7542
145	-7543
189	-7544
4.0	-7545
472	-7546
683	-7547
Log	-7548
Mag	-7549
Tur	-7550
ado	-7551
dra	-7552
wan	-7553
▁"(	-7554
▁48	-7555
1877	-7556
2)")	-7557
2.0"	-7558
CRED	-7559
Miss	-7560
_652	-7561
bury	-7562
dale	-7563
gian	-7564
hour	-7565
tail	-7566
▁11'	-7567
▁138	-7568
▁28,	-7569
▁def	-7570
▁gdp	-7571
miami	-7572
poser	-7573
pular	-7574
▁west	-7575
CREDIT	-7576
joined	-7577
parent	-7578
▁defic	-7579
▁drain	-7580
▁estim	-7581
▁fname	-7582
gregate	-7583
ireland	-7584
olicies	-7585
overnor	-7586
▁'2014-	-7587
▁'2016-	-7588
▁Region	-7589
▁Sports	-7590
ervative	-7591
▁sulfate	-7592
▁Accepted	-7593
▁japanese	-7594
▁mountains	-7595
033	-7596
067	-7597
179	-7598
22"	-7599
66"	-7600
68'	-7601
923	-7602
93"	-7603
951	-7604
956	-7605
959	-7606
98)	-7607
Get	-7608
Mal	-7609
def	-7610
pop	-7611
▁TO	-7612
(100	-7613
-10"	-7614
Ital	-7615
Site	-7616
able	-7617
aron	-7618
feet	-7619
jeff	-7620
onso	-7621
utri	-7622
viet	-7623
▁erp	-7624
Kelly	-7625
There	-7626
brity	-7627
▁arch	-7628
bourne	-7629
morial	-7630
nology	-7631
phanie	-7632
▁"2010	-7633
▁WORTH	-7634
Capital	-7635
atlanta	-7636
charles	-7637
culated	-7638
william	-7639
▁Closed	-7640
▁Office	-7641
▁Skills	-7642
▁bronch	-7643
▁stroke	-7644
▁tissue	-7645
Calendar	-7646
available	-7647
vancouver	-7648
▁Institution	-7649
▁Championship	-7650
Li	-7651
On	-7652
UT	-7653
qf	-7654
xx	-7655
yo	-7656
053	-7657
194	-7658
222	-7659
306	-7660
363	-7661
910	-7662
921	-7663
fox	-7664
ska	-7665
▁ir	-7666
cham	-7667
reek	-7668
vale	-7669
▁bru	-7670
▁pic	-7671
Super	-7672
Texas	-7673
inson	-7674
petra	-7675
storm	-7676
vices	-7677
▁Park	-7678
▁anal	-7679
ailway	-7680
google	-7681
nthony	-7682
titude	-7683
▁lname	-7684
Runners	-7685
tagName	-7686
▁'016-2	-7687
▁'2100-	-7688
▁photos	-7689
creation	-7690
▁edition	-7691
▁evening	-7692
▁branding	-7693
▁infusion	-7694
assignment	-7695
republican	-7696
▁TotalRank	-7697
▁consultation	-7698
By	-7699
Fa	-7700
VI	-7701
024	-7702
065	-7703
159	-7704
169	-7705
52"	-7706
920	-7707
937	-7708
983	-7709
=27	-7710
OMY	-7711
dar	-7712
▁78	-7713
▁My	-7714
▁fc	-7715
Flag	-7716
bron	-7717
iant	-7718
shot	-7719
▁ben	-7720
▁que	-7721
▁tex	-7722
board	-7723
icket	-7724
leans	-7725
premi	-7726
shire	-7727
sycho	-7728
▁'71-	-7729
Scores	-7730
client	-7731
▁admit	-7732
▁react	-7733
Charles	-7734
_204_98	-7735
apeutic	-7736
revenue	-7737
▁'1998'	-7738
▁Claims	-7739
▁Edwards	-7740
▁actress	-7741
▁britain	-7742
▁problem	-7743
itzerland	-7744
▁Employees	-7745
International	-7746
GP	-7747
hu	-7748
–4	-7749
001	-7750
018	-7751
184	-7752
220	-7753
464	-7754
57"	-7755
760	-7756
950	-7757
961	-7758
aki	-7759
els	-7760
ete	-7761
lix	-7762
tam	-7763
uki	-7764
▁%'	-7765
▁',	-7766
▁Ad	-7767
▁Au	-7768
▁PA	-7769
▁ha	-7770
SUFF	-7771
ales	-7772
arth	-7773
cats	-7774
ears	-7775
loor	-7776
ouis	-7777
pose	-7778
rock	-7779
tico	-7780
▁'50	-7781
▁'66	-7782
▁Cap	-7783
▁bur	-7784
▁gsi	-7785
▁ten	-7786
IENCY	-7787
grant	-7788
hydro	-7789
liber	-7790
▁'100	-7791
▁'70-	-7792
▁1992	-7793
▁Dele	-7794
▁West	-7795
▁held	-7796
▁line	-7797
ferrie	-7798
legate	-7799
razole	-7800
semide	-7801
▁'035-	-7802
▁2004'	-7803
▁Urine	-7804
▁enter	-7805
_151877	-7806
_203_37	-7807
general	-7808
▁INSUFF	-7809
▁League	-7810
▁island	-7811
▁jersey	-7812
▁weekly	-7813
Opposing	-7814
Visiting	-7815
chanical	-7816
incident	-7817
urosemide	-7818
▁Directed	-7819
▁diameter	-7820
▁opposing	-7821
glenferrie	-7822
javascript	-7823
▁Occupation	-7824
▁hypertension	-7825
Im	-7826
bi	-7827
nm	-7828
072	-7829
36"	-7830
389	-7831
580	-7832
773	-7833
917	-7834
Sen	-7835
Sun	-7836
api	-7837
nop	-7838
ped	-7839
ref	-7840
–10	-7841
Land	-7842
Port	-7843
_126	-7844
_293	-7845
iner	-7846
itch	-7847
▁10)	-7848
▁2))	-7849
▁Uni	-7850
LName	-7851
Right	-7852
agles	-7853
https	-7854
rents	-7855
super	-7856
▁1995	-7857
▁Site	-7858
Median	-7859
Starts	-7860
bacter	-7861
▁"2012	-7862
▁'011-	-7863
▁Inter	-7864
▁Sport	-7865
▁gross	-7866
▁medal	-7867
Species	-7868
_204_77	-7869
porting	-7870
▁'1999'	-7871
▁'2001'	-7872
▁closed	-7873
▁gastro	-7874
▁orders	-7875
▁reason	-7876
▁chinese	-7877
▁minutes	-7878
▁mission	-7879
magnesium	-7880
▁Aircraft	-7881
▁visiting	-7882
▁williams	-7883
australian	-7884
▁intestine	-7885
▁locations	-7886
▁publisher	-7887
BI	-7888
YY	-7889
rc	-7890
008	-7891
011	-7892
081	-7893
449	-7894
46"	-7895
480	-7896
68-	-7897
938	-7898
971	-7899
981	-7900
LDB	-7901
hit	-7902
kov	-7903
pac	-7904
php	-7905
tie	-7906
uma	-7907
wau	-7908
▁'.	-7909
▁)'	-7910
32_1	-7911
983"	-7912
DEMA	-7913
Fail	-7914
RIAL	-7915
VLDB	-7916
_264	-7917
_274	-7918
tary	-7919
uous	-7920
▁'5-	-7921
▁'56	-7922
▁17'	-7923
▁22"	-7924
▁22'	-7925
▁How	-7926
Unspe	-7927
ished	-7928
stage	-7929
▁'39'	-7930
▁1989	-7931
▁Hall	-7932
▁came	-7933
▁farm	-7934
▁fifa	-7935
Manner	-7936
raceid	-7937
▁Close	-7938
▁FRACT	-7939
▁issue	-7940
_204_57	-7941
▁'027-2	-7942
▁decile	-7943
function	-7944
medicine	-7945
standing	-7946
utrition	-7947
▁(2011)"	-7948
▁johnson	-7949
▁subject	-7950
Candidate	-7951
Platforms	-7952
frequency	-7953
▁FRACTURE	-7954
WikiPostId	-7955
Performance	-7956
Unspecified	-7957
▁organisation	-7958
,5	-7959
-4	-7960
Cl	-7961
SI	-7962
df	-7963
mf	-7964
09"	-7965
319	-7966
353	-7967
654	-7968
918	-7969
NFL	-7970
_2_	-7971
aco	-7972
hai	-7973
nel	-7974
sky	-7975
▁Te	-7976
▁ng	-7977
▁sc	-7978
(200	-7979
MEMP	-7980
_265	-7981
_310	-7982
_410	-7983
_476	-7984
_510	-7985
_710	-7986
hood	-7987
inia	-7988
ubin	-7989
▁"5-	-7990
▁'46	-7991
▁0),	-7992
▁13'	-7993
▁25"	-7994
▁hrt	-7995
▁san	-7996
extra	-7997
ocrit	-7998
setts	-7999
union	-8000
▁"68"	-8001
▁Gown	-8002
Center	-8003
atting	-8004
habita	-8005
warded	-8006
▁'033-	-8007
▁cName	-8008
MEMPHIS	-8009
__2011_	-8010
captain	-8011
countId	-8012
winners	-8013
▁100000	-8014
▁manner	-8015
▁saline	-8016
DATEDIFF	-8017
Festival	-8018
▁rangers	-8019
▁therapy	-8020
_15187735	-8021
achusetts	-8022
habitants	-8023
contestant	-8024
▁infection	-8025
▁Municipality	-8026
EL	-8027
pb	-8028
xe	-8029
022	-8030
110	-8031
181	-8032
383	-8033
397	-8034
442	-8035
682	-8036
70-	-8037
906	-8038
949	-8039
970	-8040
978	-8041
Cla	-8042
Cou	-8043
Cre	-8044
HYP	-8045
agu	-8046
jon	-8047
▁43	-8048
▁63	-8049
▁US	-8050
_205	-8051
_362	-8052
_462	-8053
_562	-8054
_662	-8055
_762	-8056
anda	-8057
itro	-8058
riag	-8059
wart	-8060
▁"45	-8061
▁"99	-8062
▁Try	-8063
DISCH	-8064
▁"12"	-8065
▁"41"	-8066
▁'41'	-8067
▁byes	-8068
▁view	-8069
London	-8070
Period	-8071
george	-8072
ptance	-8073
waukee	-8074
▁"2006	-8075
▁PSYCH	-8076
▁cells	-8077
▁chart	-8078
▁venti	-8079
▁young	-8080
Captain	-8081
riction	-8082
▁choice	-8083
nickname	-8084
petrator	-8085
▁neoplas	-8086
committee	-8087
Submission	-8088
journalist	-8089
▁creatinine	-8090
▁democratic	-8091
(2	-8092
CD	-8093
FC	-8094
lp	-8095
pf	-8096
sl	-8097
ww	-8098
-25	-8099
153	-8100
586	-8101
806	-8102
969	-8103
Rob	-8104
bro	-8105
fed	-8106
fre	-8107
job	-8108
jun	-8109
–3"	-8110
▁Vo	-8111
▁ty	-8112
08_1	-8113
36_1	-8114
ENRO	-8115
GREE	-8116
_610	-8117
oman	-8118
rows	-8119
▁157	-8120
▁26"	-8121
_2328	-8122
blems	-8123
stomy	-8124
▁'44'	-8125
▁'45'	-8126
▁Dupe	-8127
▁Ends	-8128
citing	-8129
▁2003"	-8130
▁brand	-8131
▁posts	-8132
▁radio	-8133
▁wheel	-8134
Railway	-8135
_203_67	-8136
ampbell	-8137
eedback	-8138
tagname	-8139
▁motors	-8140
conceded	-8141
Stephanie	-8142
▁activity	-8143
▁premiere	-8144
passengers	-8145
netherlands	-8146
acetaminophen	-8147
:%	-8148
FE	-8149
My	-8150
RN	-8151
kh	-8152
023	-8153
058	-8154
082	-8155
161	-8156
361	-8157
ori	-8158
osc	-8159
▁GP	-8160
▁Ge	-8161
▁so	-8162
01_1	-8163
1##'	-8164
57_1	-8165
Prod	-8166
hill	-8167
imon	-8168
lean	-8169
▁#1"	-8170
▁Ele	-8171
▁hep	-8172
▁law	-8173
▁pop	-8174
cross	-8175
ishop	-8176
ities	-8177
lotte	-8178
mouth	-8179
riots	-8180
sport	-8181
▁"70"	-8182
▁expe	-8183
Memory	-8184
alties	-8185
bledon	-8186
forced	-8187
thomas	-8188
▁route	-8189
_204_95	-8190
cension	-8191
expired	-8192
forward	-8193
▁Tryout	-8194
▁england	-8195
▁tourist	-8196
locations	-8197
▁Bookings	-8198
▁swimsuit	-8199
▁specified	-8200
▁INSTRUCTOR	-8201
▁municipality	-8202
▁INSTRUCTORalias	-8203
(1	-8204
PP	-8205
RH	-8206
SL	-8207
080	-8208
3.0	-8209
302	-8210
399	-8211
941	-8212
COL	-8213
box	-8214
cts	-8215
hio	-8216
mix	-8217
▁88	-8218
39_1	-8219
ause	-8220
iang	-8221
mann	-8222
▁"1,	-8223
▁"37	-8224
▁$)"	-8225
▁'57	-8226
▁0))	-8227
▁17"	-8228
▁25'	-8229
▁SQL	-8230
▁don	-8231
▁ind	-8232
▁map	-8233
▁neo	-8234
▁tab	-8235
▁you	-8236
Badge	-8237
React	-8238
Wheel	-8239
berto	-8240
pathy	-8241
texas	-8242
where	-8243
▁'18.	-8244
▁Gall	-8245
▁mini	-8246
floors	-8247
illage	-8248
▁asset	-8249
▁flush	-8250
Primary	-8251
mercial	-8252
pointed	-8253
▁Driver	-8254
Ceremony	-8255
purchase	-8256
▁percent	-8257
▁premier	-8258
WebsiteUrl	-8259
employeeid	-8260
▁AIRPORTalias	-8261
fi	-8262
–5	-8263
114	-8264
461	-8265
953	-8266
979	-8267
991	-8268
MOR	-8269
USA	-8270
fra	-8271
var	-8272
02_1	-8273
6.0"	-8274
Caps	-8275
Prom	-8276
TUES	-8277
_165	-8278
_378	-8279
_482	-8280
_486	-8281
euro	-8282
ized	-8283
llin	-8284
mmse	-8285
park	-8286
▁(18	-8287
▁-1,	-8288
▁0.5	-8289
▁Ste	-8290
▁fib	-8291
▁voc	-8292
Brand	-8293
close	-8294
facid	-8295
males	-8296
owner	-8297
saint	-8298
▁"31"	-8299
▁"45"	-8300
▁"512	-8301
▁'19.	-8302
▁'69-	-8303
▁drug	-8304
incinn	-8305
irubin	-8306
labama	-8307
motive	-8308
nolock	-8309
norway	-8310
ntonio	-8311
proved	-8312
▁2003'	-8313
TUESDAY	-8314
protein	-8315
roduced	-8316
▁"2013"	-8317
▁'006-8	-8318
▁Reserv	-8319
▁cardio	-8320
▁Credits	-8321
▁advisor	-8322
▁thrombo	-8323
Mountains	-8324
incinnati	-8325
▁'2105-12	-8326
▁Employee	-8327
▁neoplasm	-8328
▁countries	-8329
▁procedure	-8330
examination	-8331
citingpaperid	-8332
ME	-8333
YC	-8334
hr	-8335
.5'	-8336
029	-8337
031	-8338
05-	-8339
057	-8340
341	-8341
561	-8342
71-	-8343
88"	-8344
Ans	-8345
Lar	-8346
Pts	-8347
Rad	-8348
lia	-8349
lom	-8350
lyn	-8351
mpa	-8352
–3'	-8353
▁56	-8354
▁62	-8355
▁CH	-8356
▁To	-8357
▁ft	-8358
200"	-8359
99_1	-8360
ENCE	-8361
Mary	-8362
Mike	-8363
_123	-8364
aren	-8365
bang	-8366
endo	-8367
lice	-8368
omen	-8369
quar	-8370
tino	-8371
tter	-8372
▁"31	-8373
▁'44	-8374
▁(4,	-8375
▁000	-8376
▁14'	-8377
▁nfl	-8378
▁one	-8379
("#")	-8380
Local	-8381
▁1)))	-8382
▁Elim	-8383
▁caps	-8384
▁dist	-8385
▁proc	-8386
Comple	-8387
Thomas	-8388
derson	-8389
partic	-8390
▁2012'	-8391
▁World	-8392
▁tract	-8393
_204_96	-8394
agement	-8395
buffalo	-8396
surface	-8397
▁"2002"	-8398
▁'1994'	-8399
▁couple	-8400
Accepted	-8401
▁episodes	-8402
▁condition	-8403
mifinalists	-8404
▁RESTAURANTalias	-8405
1/	-8406
GU	-8407
ev	-8408
036	-8409
049	-8410
069	-8411
08-	-8412
224	-8413
484	-8414
565	-8415
903	-8416
EXP	-8417
PNE	-8418
big	-8419
laz	-8420
▁BE	-8421
-20'	-8422
Apps	-8423
DEAD	-8424
ICUL	-8425
IRED	-8426
_686	-8427
calc	-8428
flix	-8429
ture	-8430
▁20'	-8431
▁21"	-8432
▁24'	-8433
▁26'	-8434
▁27"	-8435
▁7–6	-8436
▁Gen	-8437
▁bor	-8438
▁del	-8439
▁her	-8440
Block	-8441
PNEUM	-8442
Steve	-8443
anion	-8444
ilson	-8445
issue	-8446
▁"29"	-8447
▁1500	-8448
laysia	-8449
mentia	-8450
opress	-8451
ostomy	-8452
sworth	-8453
▁Stock	-8454
▁dance	-8455
▁korea	-8456
▁sales	-8457
▁stock	-8458
EXPIRED	-8459
YCARDIA	-8460
unswick	-8461
▁Events	-8462
▁tackle	-8463
▁tracks	-8464
ctorates	-8465
isations	-8466
rization	-8467
▁glucose	-8468
▁machine	-8469
▁Gallardo	-8470
Washington	-8471
▁SportName	-8472
bicarbonate	-8473
▁translation	-8474
▁DeletionDate	-8475
–8	-8476
009	-8477
046	-8478
064	-8479
371	-8480
69-	-8481
Art	-8482
asp	-8483
ids	-8484
kim	-8485
oid	-8486
oni	-8487
rpm	-8488
tko	-8489
try	-8490
93_1	-8491
_478	-8492
irin	-8493
jury	-8494
kers	-8495
lled	-8496
lour	-8497
redi	-8498
▁"34	-8499
▁104	-8500
▁14"	-8501
▁20"	-8502
▁21'	-8503
▁24"	-8504
▁27'	-8505
▁318	-8506
▁Har	-8507
▁Sch	-8508
▁cnt	-8509
▁les	-8510
95'))	-8511
Music	-8512
cardio	-8513
dallas	-8514
derers	-8515
ighbor	-8516
master	-8517
report	-8518
▁stand	-8519
Richard	-8520
ardinia	-8521
florida	-8522
tration	-8523
▁'2013'	-8524
▁Census	-8525
▁Period	-8526
▁garden	-8527
Episodes	-8528
nopposed	-8529
organism	-8530
scotland	-8531
▁arrival	-8532
▁culture	-8533
▁history	-8534
▁runners	-8535
quartered	-8536
▁diabetic	-8537
furosemide	-8538
▁pulmonary	-8539
▁membership	-8540
▁perpetrator	-8541
▁installation	-8542
Do	-8543
NS	-8544
rn	-8545
tz	-8546
("1	-8547
/',	-8548
0.5	-8549
060	-8550
098	-8551
423	-8552
560	-8553
567	-8554
932	-8555
GEO	-8556
awa	-8557
bol	-8558
ond	-8559
oug	-8560
ufc	-8561
▁cc	-8562
▁gt	-8563
▁ts	-8564
14_1	-8565
2010	-8566
FECT	-8567
Jeff	-8568
QUIP	-8569
SEQU	-8570
SPAN	-8571
anny	-8572
cali	-8573
ctro	-8574
edit	-8575
fall	-8576
soft	-8577
utro	-8578
▁"29	-8579
▁'33	-8580
▁'58	-8581
▁Pos	-8582
▁SUB	-8583
▁han	-8584
angay	-8585
athon	-8586
erved	-8587
▁6–4,	-8588
▁samp	-8589
ENROLL	-8590
SPLANT	-8591
german	-8592
instid	-8593
ticles	-8594
titles	-8595
▁2013"	-8596
▁Cells	-8597
▁EQUIP	-8598
Version	-8599
borough	-8600
uncture	-8601
▁median	-8602
Minister	-8603
SEQUENCE	-8604
clubname	-8605
episodes	-8606
reported	-8607
vascular	-8608
▁protein	-8609
infection	-8610
Attributes	-8611
Passengers	-8612
ighborhood	-8613
▁'2105-11'	-8614
▁EQUIPMENT	-8615
▁TRANSPLANT	-8616
▁authorship	-8617
▁republican	-8618
▁QuestionsIn	-8619
/%	-8620
GT	-8621
db	-8622
ux	-8623
vs	-8624
-6'	-8625
0.3	-8626
091	-8627
138	-8628
316	-8629
564	-8630
589	-8631
943	-8632
AGE	-8633
Red	-8634
Sam	-8635
hct	-8636
oxy	-8637
rim	-8638
uke	-8639
▁*,	-8640
▁6)	-8641
▁Ne	-8642
▁fl	-8643
04_1	-8644
343"	-8645
35_1	-8646
68_1	-8647
MONT	-8648
Poll	-8649
REAL	-8650
Show	-8651
_305	-8652
_405	-8653
_505	-8654
_576	-8655
_586	-8656
_605	-8657
_705	-8658
heim	-8659
meru	-8660
ried	-8661
swim	-8662
▁18'	-8663
▁bel	-8664
Items	-8665
betes	-8666
iders	-8667
perty	-8668
▁"23"	-8669
▁'37'	-8670
▁Wood	-8671
▁bike	-8672
Others	-8673
Torque	-8674
nitude	-8675
▁2001'	-8676
▁Years	-8677
_204_97	-8678
dominal	-8679
▁'1996'	-8680
MONTREAL	-8681
thrombin	-8682
▁cathete	-8683
▁ranking	-8684
▁surgery	-8685
Statement	-8686
cleveland	-8687
▁fracture	-8688
▁platform	-8689
california	-8690
filtration	-8691
▁00:00:00'	-8692
destination	-8693
▁STATEalias	-8694
▁replacement	-8695
▁ventilation	-8696
▁catheterization	-8697
%-	-8698
8,	-8699
hp	-8700
–7	-8701
▁)	-8702
-24	-8703
042	-8704
045	-8705
062	-8706
287	-8707
337	-8708
42"	-8709
451	-8710
463	-8711
579	-8712
583	-8713
667	-8714
ACC	-8715
BRA	-8716
_$_	-8717
arr	-8718
ecu	-8719
fel	-8720
irm	-8721
kel	-8722
oak	-8723
tte	-8724
yan	-8725
▁98	-8726
▁aa	-8727
5.0"	-8728
ITIS	-8729
ONIA	-8730
_385	-8731
_475	-8732
bane	-8733
gres	-8734
held	-8735
pers	-8736
stad	-8737
tany	-8738
tawa	-8739
toph	-8740
▁110	-8741
▁AAA	-8742
▁dys	-8743
▁iii	-8744
▁pts	-8745
▁var	-8746
Gross	-8747
Water	-8748
Weeks	-8749
andra	-8750
berts	-8751
death	-8752
ijing	-8753
itary	-8754
names	-8755
ordon	-8756
uncil	-8757
▁'49'	-8758
▁Cast	-8759
▁June	-8760
▁else	-8761
▁hypo	-8762
▁news	-8763
Joined	-8764
longed	-8765
raight	-8766
▁"2009	-8767
▁rooms	-8768
Georgia	-8769
houston	-8770
phoenix	-8771
▁"3343"	-8772
▁Suchan	-8773
▁albums	-8774
Outcomes	-8775
Winnings	-8776
signedTo	-8777
▁highest	-8778
Catalogue	-8779
PNEUMONIA	-8780
attribute	-8781
lassified	-8782
▁Services	-8783
bacterials	-8784
▁nominated	-8785
jectionDate	-8786
outstanding	-8787
▁AssignedTo	-8788
▁individual	-8789
Pennsylvania	-8790
▁restriction	-8791
international	-8792
Af	-8793
DR	-8794
dr	-8795
wr	-8796
071	-8797
301	-8798
309	-8799
527	-8800
alf	-8801
app	-8802
ito	-8803
oct	-8804
vfl	-8805
zep	-8806
Took	-8807
_213	-8808
_355	-8809
_455	-8810
_555	-8811
_578	-8812
_584	-8813
_655	-8814
_755	-8815
acon	-8816
adam	-8817
ando	-8818
cocc	-8819
cyto	-8820
fame	-8821
rike	-8822
seph	-8823
uefa	-8824
yota	-8825
▁(11	-8826
▁1.5	-8827
▁18"	-8828
▁Pri	-8829
_2006	-8830
cytes	-8831
excel	-8832
lycer	-8833
▁'50'	-8834
▁1987	-8835
▁Pres	-8836
▁pPos	-8837
Friend	-8838
church	-8839
icense	-8840
idosis	-8841
lantic	-8842
mentid	-8843
snatch	-8844
stance	-8845
stream	-8846
▁"2000	-8847
▁(((((	-8848
▁1999"	-8849
▁Polic	-8850
▁Smith	-8851
▁fluid	-8852
▁neuro	-8853
comycin	-8854
▁"6983"	-8855
▁vessel	-8856
Articles	-8857
Diameter	-8858
champion	-8859
chloride	-8860
kardinia	-8861
▁Episode	-8862
▁arterio	-8863
broadcast	-8864
cientists	-8865
dependent	-8866
structure	-8867
▁attribute	-8868
▁catalogue	-8869
▁estimated	-8870
▁physician	-8871
▁Conference	-8872
▁postseason	-8873
EditorUserId	-8874
assachusetts	-8875
Representative	-8876
GL	-8877
-6"	-8878
021	-8879
084	-8880
132	-8881
223	-8882
243	-8883
331	-8884
427	-8885
573	-8886
574	-8887
99"	-8888
Des	-8889
IAL	-8890
NAL	-8891
RAC	-8892
alb	-8893
ola	-8894
pct	-8895
yal	-8896
▁bs	-8897
(10,	-8898
58_1	-8899
ETER	-8900
Male	-8901
Semi	-8902
Visa	-8903
Word	-8904
_263	-8905
_345	-8906
_365	-8907
_445	-8908
_465	-8909
_545	-8910
_565	-8911
_645	-8912
_665	-8913
_745	-8914
_765	-8915
burn	-8916
ylor	-8917
▁#2"	-8918
▁29"	-8919
▁Cal	-8920
▁Net	-8921
▁bre	-8922
▁gap	-8923
▁vol	-8924
BRAIN	-8925
RHAGE	-8926
SBURG	-8927
_1434	-8928
apore	-8929
cohol	-8930
garia	-8931
hemat	-8932
phine	-8933
yards	-8934
▁"85"	-8935
▁'48'	-8936
▁'52'	-8937
▁CHAR	-8938
▁MASS	-8939
▁mark	-8940
▁show	-8941
▁tags	-8942
Couple	-8943
Female	-8944
INTRAC	-8945
RANIAL	-8946
STRING	-8947
ntered	-8948
poland	-8949
summer	-8950
▁HEMOR	-8951
▁PETER	-8952
▁bowel	-8953
▁lions	-8954
▁media	-8955
▁skill	-8956
Drivers	-8957
Elected	-8958
georgia	-8959
llinois	-8960
risbane	-8961
▁"2000"	-8962
▁"2110"	-8963
▁'1997'	-8964
▁'2013-	-8965
▁Winery	-8966
▁jockey	-8967
▁watson	-8968
bandmate	-8969
european	-8970
▁entered	-8971
▁mention	-8972
▁sponsor	-8973
brunswick	-8974
rillation	-8975
territory	-8976
▁Governor	-8977
▁minister	-8978
▁problems	-8979
istrations	-8980
tification	-8981
▁HEMORRHAGE	-8982
▁PETERSBURG	-8983
▁hemorrhage	-8984
INTRACRANIAL	-8985
constructorId	-8986
Rd	-8987
UE	-8988
19'	-8989
229	-8990
2_)	-8991
465	-8992
777	-8993
9)'	-8994
MET	-8995
cta	-8996
ima	-8997
kal	-8998
lla	-8999
mel	-9000
ppi	-9001
rum	-9002
tax	-9003
yst	-9004
▁51	-9005
▁93	-9006
▁AT	-9007
▁ba	-9008
▁cl	-9009
▁ij	-9010
▁wo	-9011
-25'	-9012
13_1	-9013
17_1	-9014
Alex	-9015
Gain	-9016
STER	-9017
_672	-9018
chip	-9019
cker	-9020
hale	-9021
izon	-9022
took	-9023
▁19'	-9024
▁Bow	-9025
▁OUT	-9026
▁pur	-9027
Green	-9028
Staff	-9029
cific	-9030
ettle	-9031
gross	-9032
ircum	-9033
lists	-9034
ortic	-9035
rants	-9036
riage	-9037
tings	-9038
▁1993	-9039
▁Lost	-9040
▁Town	-9041
▁port	-9042
2000__	-9043
Person	-9044
_18600	-9045
family	-9046
inches	-9047
mocrat	-9048
ungary	-9049
▁Drama	-9050
▁Names	-9051
▁venip	-9052
cipient	-9053
ignancy	-9054
stroyed	-9055
viation	-9056
▁torque	-9057
coronary	-9058
liminary	-9059
▁investor	-9060
▁platelet	-9061
▁students	-9062
▁torrents	-9063
Eliminated	-9064
estimation	-9065
▁Statement	-9066
▁eliminated	-9067
▁Maintenance	-9068
▁venipuncture	-9069
IF	-9070
0-2	-9071
089	-9072
191	-9073
227	-9074
390	-9075
525	-9076
914	-9077
989	-9078
993	-9079
Ast	-9080
DOM	-9081
HAB	-9082
Mid	-9083
SSN	-9084
Sex	-9085
gdp	-9086
mac	-9087
nar	-9088
ova	-9089
sol	-9090
uen	-9091
uri	-9092
▁7–	-9093
55_1	-9094
90_1	-9095
PHIC	-9096
_285	-9097
bone	-9098
meth	-9099
peri	-9100
quis	-9101
▁'09	-9102
▁'65	-9103
▁105	-9104
▁31,	-9105
▁GEO	-9106
▁Pts	-9107
REHAB	-9108
onent	-9109
quare	-9110
rowth	-9111
shock	-9112
spect	-9113
ultra	-9114
▁'03'	-9115
▁'11-	-9116
▁'51'	-9117
▁PART	-9118
▁Work	-9119
▁most	-9120
▁prod	-9121
Jockey	-9122
laints	-9123
▁colon	-9124
COUNTRY	-9125
GRAPHIC	-9126
_204_92	-9127
issippi	-9128
▁bypass	-9129
▁centre	-9130
▁hCards	-9131
▁lesion	-9132
▁oilers	-9133
▁others	-9134
▁papers	-9135
▁screen	-9136
Launched	-9137
National	-9138
colorado	-9139
oprazole	-9140
standard	-9141
supplier	-9142
Australia	-9143
Elevation	-9144
▁checking	-9145
▁football	-9146
▁teachers	-9147
Department	-9148
Difference	-9149
▁Stockings	-9150
▁GEOGRAPHIC	-9151
▁classified	-9152
▁opposition	-9153
▁Reservations	-9154
▁GEOGRAPHICalias	-9155
,7	-9156
Gu	-9157
063	-9158
226	-9159
317	-9160
333	-9161
475	-9162
487	-9163
566	-9164
778	-9165
BUS	-9166
Tro	-9167
ipe	-9168
slo	-9169
▁fo	-9170
▁kW	-9171
1000	-9172
DISC	-9173
FORT	-9174
Info	-9175
_10)	-9176
_326	-9177
_382	-9178
_426	-9179
_526	-9180
_626	-9181
_726	-9182
_782	-9183
bern	-9184
cket	-9185
cntr	-9186
egfr	-9187
hang	-9188
loan	-9189
rell	-9190
▁"5.	-9191
▁19"	-9192
▁29'	-9193
▁601	-9194
▁bal	-9195
▁cer	-9196
▁gar	-9197
▁jan	-9198
▁low	-9199
▁row	-9200
▁tre	-9201
▁two	-9202
Black	-9203
andre	-9204
clear	-9205
conom	-9206
miles	-9207
prize	-9208
razil	-9209
react	-9210
ringe	-9211
roman	-9212
rosis	-9213
teams	-9214
third	-9215
tiger	-9216
urban	-9217
▁"204	-9218
▁comb	-9219
andrew	-9220
arabic	-9221
consin	-9222
itamin	-9223
mestic	-9224
mexico	-9225
semble	-9226
stroke	-9227
▁Coast	-9228
▁chris	-9229
▁diego	-9230
▁extre	-9231
▁grade	-9232
Florida	-9233
Seasons	-9234
america	-9235
bedroom	-9236
cardiac	-9237
glomeru	-9238
sponsor	-9239
▁'021-2	-9240
▁Police	-9241
▁camera	-9242
▁instru	-9243
▁normal	-9244
▁opened	-9245
▁uncntr	-9246
Rebounds	-9247
anderers	-9248
answered	-9249
comotive	-9250
released	-9251
fficiency	-9252
sentation	-9253
▁Capacity	-9254
▁producer	-9255
glomerular	-9256
▁Committee	-9257
▁elsewhere	-9258
ApprovalDate	-9259
Municipality	-9260
▁Elimination	-9261
▁fibrillation	-9262
Mi	-9263
dl	-9264
pk	-9265
ql	-9266
308	-9267
BID	-9268
Non	-9269
VIN	-9270
clu	-9271
cro	-9272
era	-9273
err	-9274
fan	-9275
rob	-9276
▁cr	-9277
/199	-9278
CHLD	-9279
RULE	-9280
Sear	-9281
_240	-9282
_376	-9283
_582	-9284
ands	-9285
iano	-9286
mach	-9287
phos	-9288
temp	-9289
▁"88	-9290
▁'3:	-9291
▁'55	-9292
▁107	-9293
▁160	-9294
▁277	-9295
▁Par	-9296
▁bol	-9297
▁fal	-9298
▁lar	-9299
▁meq	-9300
▁pay	-9301
20131	-9302
ABDOM	-9303
jason	-9304
known	-9305
lipid	-9306
ritis	-9307
scale	-9308
sment	-9309
▁'08'	-9310
▁'09'	-9311
▁'12-	-9312
▁'46'	-9313
▁'72-	-9314
▁2019	-9315
▁chip	-9316
▁free	-9317
▁this	-9318
CHLDRN	-9319
Career	-9320
German	-9321
Jersey	-9322
Opened	-9323
Search	-9324
sepsis	-9325
▁Start	-9326
▁asian	-9327
Journal	-9328
albumin	-9329
calcium	-9330
italian	-9331
sitions	-9332
uropean	-9333
vention	-9334
▁1991))	-9335
▁Grants	-9336
▁scored	-9337
Cyrillic	-9338
electric	-9339
▁'030-42	-9340
▁Patient	-9341
ABDOMINAL	-9342
clination	-9343
▁Research	-9344
▁arteries	-9345
▁cardinal	-9346
Opposition	-9347
candidates	-9348
▁professor	-9349
conservative	-9350
installation	-9351
representative	-9352
▁International	-9353
Ly	-9354
TW	-9355
tg	-9356
019	-9357
112	-9358
2-2	-9359
281	-9360
334	-9361
339	-9362
521	-9363
523	-9364
526	-9365
900	-9366
Mel	-9367
TAM	-9368
dec	-9369
irk	-9370
mos	-9371
nik	-9372
▁HS	-9373
-11'	-9374
05_1	-9375
92_1	-9376
98_1	-9377
Bike	-9378
THUR	-9379
Tyre	-9380
_103	-9381
_140	-9382
_386	-9383
_775	-9384
good	-9385
imed	-9386
iowa	-9387
lair	-9388
olph	-9389
page	-9390
rece	-9391
▁"3:	-9392
▁256	-9393
▁Lee	-9394
▁stu	-9395
13'))	-9396
Close	-9397
Debut	-9398
Guest	-9399
Kevin	-9400
Louis	-9401
TAMPA	-9402
iance	-9403
intra	-9404
ispan	-9405
izona	-9406
quali	-9407
▁'05'	-9408
▁'54'	-9409
▁'55'	-9410
Change	-9411
cident	-9412
contra	-9413
ession	-9414
ffield	-9415
tempts	-9416
▁1996"	-9417
▁Arena	-9418
▁acute	-9419
▁debut	-9420
▁urine	-9421
Entered	-9422
browser	-9423
ulation	-9424
▁'1983'	-9425
▁'1992'	-9426
▁1440.0	-9427
▁single	-9428
Feedback	-9429
THURSDAY	-9430
activity	-9431
vailable	-9432
▁'016-18	-9433
▁savings	-9434
Engineers	-9435
_18600760	-9436
▁Software	-9437
▁american	-9438
▁winnings	-9439
Electorate	-9440
ricultural	-9441
▁personfriend	-9442
eu	-9443
fb	-9444
"')	-9445
/01	-9446
013	-9447
10-	-9448
284	-9449
454	-9450
774	-9451
ULA	-9452
bik	-9453
bow	-9454
fig	-9455
ght	-9456
kin	-9457
nec	-9458
peg	-9459
▁AG	-9460
▁nu	-9461
▁ol	-9462
30_1	-9463
OSIS	-9464
_119	-9465
_384	-9466
_485	-9467
_572	-9468
anes	-9469
byes	-9470
door	-9471
enry	-9472
iger	-9473
ller	-9474
nior	-9475
ohio	-9476
ront	-9477
▁'4-	-9478
▁146	-9479
▁bul	-9480
▁war	-9481
##>%'	-9482
ESITY	-9483
liers	-9484
poles	-9485
tific	-9486
werer	-9487
▁"50"	-9488
▁'17.	-9489
▁'43'	-9490
▁1983	-9491
▁FIST	-9492
▁blue	-9493
▁effe	-9494
▁jets	-9495
▁rome	-9496
Census	-9497
Groups	-9498
MORBID	-9499
RoomId	-9500
adiens	-9501
atible	-9502
inence	-9503
▁'032-	-9504
▁50000	-9505
▁Match	-9506
▁horse	-9507
porters	-9508
written	-9509
▁giants	-9510
American	-9511
Billions	-9512
Expenses	-9513
Personal	-9514
Virginia	-9515
▁FISTULA	-9516
▁OBESITY	-9517
▁nations	-9518
Broadcast	-9519
▁launched	-9520
Australian	-9521
▁Unopposed	-9522
▁australia	-9523
▁completed	-9524
▁'08:00:00'	-9525
▁qualifying	-9526
,6	-9527
EK	-9528
MU	-9529
pc	-9530
307	-9531
332	-9532
336	-9533
392	-9534
474	-9535
901	-9536
91"	-9537
9_8	-9538
IOE	-9539
IOR	-9540
aka	-9541
bab	-9542
bud	-9543
hor	-9544
law	-9545
nom	-9546
sec	-9547
vey	-9548
▁SE	-9549
▁qt	-9550
-27'	-9551
33_1	-9552
King	-9553
ORAL	-9554
_191	-9555
_239	-9556
_675	-9557
_676	-9558
_804	-9559
alid	-9560
cade	-9561
cuts	-9562
hyth	-9563
mpli	-9564
nock	-9565
zech	-9566
▁"56	-9567
▁'42	-9568
▁(14	-9569
▁127	-9570
▁15'	-9571
▁2")	-9572
▁28"	-9573
▁Ind	-9574
▁Reg	-9575
▁bra	-9576
▁dec	-9577
▁inv	-9578
▁sen	-9579
77691	-9580
Fleet	-9581
Ratio	-9582
_500,	-9583
argen	-9584
brian	-9585
irect	-9586
tampa	-9587
width	-9588
▁"80"	-9589
▁'20.	-9590
▁'47'	-9591
▁1984	-9592
▁Sing	-9593
French	-9594
ampton	-9595
ckland	-9596
ladder	-9597
ration	-9598
▁'018-	-9599
▁1998"	-9600
▁White	-9601
▁clark	-9602
▁hemat	-9603
▁infar	-9604
▁motor	-9605
ispanic	-9606
windows	-9607
▁policy	-9608
▁vocals	-9609
edmonton	-9610
lesterol	-9611
mplified	-9612
platform	-9613
profiles	-9614
revision	-9615
tracheal	-9616
wrestler	-9617
▁Revenue	-9618
▁vehicle	-9619
▁website	-9620
_11677691	-9621
opponents	-9622
presented	-9623
▁cyrillic	-9624
▁patriots	-9625
California	-9626
▁Acceptance	-9627
▁touchdowns	-9628
▁elimination	-9629
GA	-9630
PD	-9631
Pr	-9632
gb	-9633
01)	-9634
113	-9635
283	-9636
30)	-9637
33)	-9638
520	-9639
581	-9640
585	-9641
66)	-9642
Dia	-9643
NEB	-9644
Rou	-9645
lit	-9646
loc	-9647
nac	-9648
neu	-9649
oss	-9650
pes	-9651
wee	-9652
▁'>	-9653
▁Do	-9654
('##	-9655
03_2	-9656
06_1	-9657
09_1	-9658
ATED	-9659
CINN	-9660
Lind	-9661
PTAL	-9662
WEEK	-9663
_325	-9664
_375	-9665
_425	-9666
_525	-9667
_625	-9668
_685	-9669
_725	-9670
_784	-9671
aine	-9672
bank	-9673
bile	-9674
dish	-9675
jazz	-9676
pier	-9677
rive	-9678
▁"97	-9679
▁cur	-9680
▁pan	-9681
37'))	-9682
BOSIS	-9683
Color	-9684
_300,	-9685
_400,	-9686
_600,	-9687
_700,	-9688
andro	-9689
atura	-9690
cycle	-9691
raine	-9692
regon	-9693
tures	-9694
▁"22"	-9695
▁"67"	-9696
▁'10,	-9697
▁('##	-9698
▁1986	-9699
▁AREA	-9700
▁fore	-9701
▁hold	-9702
▁oral	-9703
▁tyre	-9704
Public	-9705
ardial	-9706
boplas	-9707
celona	-9708
nthers	-9709
unties	-9710
▁10855	-9711
▁THROM	-9712
▁lower	-9713
▁video	-9714
CINCINN	-9715
Chronic	-9716
Italian	-9717
__2010_	-9718
amilton	-9719
problem	-9720
raymond	-9721
seattle	-9722
upvotes	-9723
▁"2182"	-9724
▁"2197"	-9725
▁DEFECT	-9726
▁design	-9727
▁trophy	-9728
aturated	-9729
directed	-9730
michigan	-9731
▁jackson	-9732
▁meaning	-9733
▁revenue	-9734
▁species	-9735
Committee	-9736
Nominated	-9737
Physician	-9738
boplastin	-9739
▁ELEVATED	-9740
CINCINNATI	-9741
▁AREAalias	-9742
▁president	-9743
▁wanderers	-9744
Appearances	-9745
▁THROMBOSIS	-9746
hypertension	-9747
medicationid	-9748
▁commentator	-9749
VA	-9750
rr	-9751
1.5	-9752
3)"	-9753
30"	-9754
30'	-9755
310	-9756
398	-9757
478	-9758
ACL	-9759
MAX	-9760
aya	-9761
bot	-9762
cag	-9763
ius	-9764
kur	-9765
osa	-9766
sql	-9767
–4"	-9768
▁"\	-9769
▁En	-9770
▁bu	-9771
▁ep	-9772
▁hd	-9773
▁na	-9774
34_1	-9775
90_2	-9776
95_1	-9777
Free	-9778
Late	-9779
_211	-9780
_374	-9781
_682	-9782
inas	-9783
itan	-9784
lank	-9785
manu	-9786
ouri	-9787
rust	-9788
stim	-9789
tant	-9790
tele	-9791
will	-9792
▁125	-9793
▁140	-9794
▁180	-9795
▁Nor	-9796
▁hol	-9797
▁tip	-9798
▁ure	-9799
GREEK	-9800
_2012	-9801
media	-9802
occer	-9803
ponse	-9804
stock	-9805
vated	-9806
▁'70'	-9807
▁1985	-9808
▁JOSE	-9809
▁tour	-9810
denver	-9811
grated	-9812
ildren	-9813
margin	-9814
setron	-9815
uterol	-9816
▁Store	-9817
▁japan	-9818
▁mixed	-9819
▁under	-9820
Chicago	-9821
Gymnast	-9822
Ranking	-9823
_204_68	-9824
_204_94	-9825
bedside	-9826
central	-9827
roadway	-9828
▁eagles	-9829
▁friend	-9830
▁parish	-9831
Finalist	-9832
TagBased	-9833
plication	-9834
▁straight	-9835
Additional	-9836
Prominence	-9837
antoprazole	-9838
BR	-9839
Ca	-9840
bt	-9841
pd	-9842
rm	-9843
wy	-9844
190	-9845
393	-9846
396	-9847
469	-9848
524	-9849
563	-9850
569	-9851
Har	-9852
Joe	-9853
Jon	-9854
Kit	-9855
YPE	-9856
ady	-9857
eme	-9858
gpa	-9859
roe	-9860
sso	-9861
,000	-9862
-22'	-9863
03_1	-9864
ENGL	-9865
Line	-9866
Tony	-9867
_231	-9868
_585	-9869
alfa	-9870
ides	-9871
lash	-9872
mONT	-9873
mons	-9874
plas	-9875
ride	-9876
thew	-9877
utch	-9878
ying	-9879
▁"8.	-9880
▁(12	-9881
▁15"	-9882
▁28'	-9883
▁MED	-9884
▁Max	-9885
▁Mil	-9886
▁dex	-9887
▁nor	-9888
▁pit	-9889
▁pol	-9890
▁sun	-9891
Aorto	-9892
Arena	-9893
aries	-9894
ining	-9895
jimmy	-9896
lalom	-9897
paris	-9898
uture	-9899
▁"24"	-9900
▁"55"	-9901
▁East	-9902
▁Jose	-9903
▁neck	-9904
▁skin	-9905
George	-9906
Sodium	-9907
Volume	-9908
_13418	-9909
ignant	-9910
ricist	-9911
vanced	-9912
▁Green	-9913
▁Latin	-9914
▁RIGHT	-9915
▁cname	-9916
▁davis	-9917
▁shock	-9918
quested	-9919
seasons	-9920
umacher	-9921
▁"1999"	-9922
▁"2184"	-9923
▁Runner	-9924
▁deaths	-9925
DATETIME	-9926
ducation	-9927
earnings	-9928
izations	-9929
▁depende	-9930
▁Calendar	-9931
▁enforced	-9932
Settlement	-9933
cincinnati	-9934
modialysis	-9935
▁financial	-9936
commentator	-9937
▁apartments	-9938
▁Organisations	-9939
+"	-9940
,8	-9941
3_	-9942
mg	-9943
ui	-9944
424	-9945
445	-9946
473	-9947
486	-9948
Bow	-9949
Clo	-9950
SAT	-9951
VIL	-9952
brm	-9953
gil	-9954
hin	-9955
jam	-9956
lop	-9957
urn	-9958
wbc	-9959
▁fs	-9960
-26'	-9961
-28'	-9962
07_1	-9963
52_1	-9964
Hard	-9965
Matt	-9966
NASH	-9967
Shop	-9968
Size	-9969
Ties	-9970
_372	-9971
_472	-9972
_484	-9973
_772	-9974
call	-9975
coln	-9976
diff	-9977
ilia	-9978
jean	-9979
loyd	-9980
matt	-9981
show	-9982
wich	-9983
zone	-9984
▁"3-	-9985
▁"33	-9986
▁210	-9987
▁clo	-9988
▁dbo	-9989
▁ham	-9990
▁lin	-9991
▁pal	-9992
Frank	-9993
Pilot	-9994
SATUR	-9995
Times	-9996
VILLE	-9997
VINCE	-9998
brook	-9999
craig	-10000
treat	-10001
vider	-10002
▁"71"	-10003
▁'02'	-10004
▁'04'	-10005
▁'188	-10006
▁'63'	-10007
▁apps	-10008
▁jose	-10009
355'))	-10010
annual	-10011
atrial	-10012
caster	-10013
cience	-10014
gnancy	-10015
philip	-10016
vasive	-10017
yamaha	-10018
▁'029-	-10019
▁2002"	-10020
▁HEART	-10021
▁clubs	-10022
▁coast	-10023
▁embol	-10024
▁index	-10025
▁range	-10026
▁works	-10027
Airdate	-10028
cipline	-10029
▁Assets	-10030
▁Played	-10031
PROVINCE	-10032
SATURDAY	-10033
citation	-10034
football	-10035
forename	-10036
▁'005-87	-10037
▁Station	-10038
NASHVILLE	-10039
Successor	-10040
ategories	-10041
completed	-10042
revisions	-10043
voiceDate	-10044
▁athletic	-10045
▁'030-4200	-10046
switzerland	-10047
▁california	-10048
▁settlement	-10049
▁Comptroller	-10050
1–	-10051
BU	-10052
288	-10053
420	-10054
453	-10055
554	-10056
676	-10057
688	-10058
9%'	-10059
9.0	-10060
908	-10061
Acc	-10062
Ath	-10063
Ken	-10064
LYC	-10065
YSM	-10066
aro	-10067
equ	-10068
eri	-10069
feo	-10070
hep	-10071
ift	-10072
mcv	-10073
vik	-10074
▁go	-10075
COMA	-10076
Data	-10077
EMUR	-10078
East	-10079
NEUR	-10080
OUIS	-10081
_776	-10082
_786	-10083
lins	-10084
nett	-10085
ocus	-10086
olin	-10087
rett	-10088
tice	-10089
tomy	-10090
uild	-10091
ured	-10092
▁23'	-10093
▁30"	-10094
▁700	-10095
▁Pat	-10096
▁Web	-10097
▁hrs	-10098
▁oth	-10099
▁tmp	-10100
Admin	-10101
Graph	-10102
cname	-10103
itera	-10104
lovak	-10105
major	-10106
ooter	-10107
thing	-10108
▁"56"	-10109
▁"62"	-10110
▁"79"	-10111
▁"89"	-10112
▁'%<'	-10113
▁'06'	-10114
▁'68'	-10115
▁1980	-10116
▁Hill	-10117
▁ISCH	-10118
▁hand	-10119
ERGLYC	-10120
TACOMA	-10121
backer	-10122
colors	-10123
daniel	-10124
launch	-10125
parish	-10126
▁'2000	-10127
▁2017)	-10128
▁ANEUR	-10129
▁FEMUR	-10130
▁LOUIS	-10131
▁angio	-10132
▁lymph	-10133
▁times	-10134
▁woods	-10135
Vacator	-10136
therapy	-10137
vestors	-10138
village	-10139
▁"1998"	-10140
▁"2001"	-10141
▁"2121"	-10142
▁'1991'	-10143
▁Joined	-10144
▁Length	-10145
▁claims	-10146
▁finals	-10147
▁martin	-10148
▁miller	-10149
▁routes	-10150
▁severe	-10151
Pressure	-10152
facility	-10153
▁(2010)"	-10154
▁January	-10155
▁pleural	-10156
HYPERGLYC	-10157
wimbledon	-10158
▁"2174.0"	-10159
▁ANEURYSM	-10160
breviation	-10161
phalopathy	-10162
▁playlists	-10163
HYPERGLYCEMIA	-10164
▁PersonFriend	-10165
(4	-10166
,2	-10167
/6	-10168
ez	-10169
fx	-10170
-22	-10171
02-	-10172
096	-10173
1%'	-10174
19"	-10175
225	-10176
27"	-10177
285	-10178
303	-10179
570	-10180
626	-10181
662	-10182
772	-10183
ALL	-10184
Sur	-10185
ami	-10186
ams	-10187
dez	-10188
eta	-10189
gio	-10190
gon	-10191
ips	-10192
lec	-10193
rik	-10194
vir	-10195
▁Je	-10196
▁Qu	-10197
▁da	-10198
▁dv	-10199
-23'	-10200
100"	-10201
COMP	-10202
FIEL	-10203
Russ	-10204
Star	-10205
_474	-10206
_574	-10207
agad	-10208
ario	-10209
aven	-10210
ayne	-10211
book	-10212
cath	-10213
ffer	-10214
gene	-10215
half	-10216
heum	-10217
lant	-10218
prop	-10219
punt	-10220
rish	-10221
stra	-10222
tric	-10223
ulls	-10224
umor	-10225
xide	-10226
▁"32	-10227
▁"4:	-10228
▁"55	-10229
▁"7-	-10230
▁186	-10231
▁CAR	-10232
▁mec	-10233
Clubs	-10234
_2456	-10235
_2625	-10236
asset	-10237
azole	-10238
denti	-10239
inton	-10240
▁'193	-10241
▁'73-	-10242
▁King	-10243
▁Song	-10244
▁link	-10245
▁ring	-10246
▁wing	-10247
Branch	-10248
France	-10249
__2011	-10250
bronch	-10251
coming	-10252
ducted	-10253
metres	-10254
period	-10255
▁1998'	-10256
▁2000"	-10257
▁2000'	-10258
▁2002'	-10259
▁April	-10260
▁South	-10261
▁Teams	-10262
▁intra	-10263
Edition	-10264
heparin	-10265
oakland	-10266
stances	-10267
▁'033-2	-10268
▁'1987'	-10269
▁joined	-10270
dentials	-10271
▁Builder	-10272
▁Johnson	-10273
▁central	-10274
Developer	-10275
candidate	-10276
lactation	-10277
FIELDalias	-10278
LinkTypeId	-10279
individual	-10280
▁Companies	-10281
▁pregnancy	-10282
000000000000	-10283
transactions	-10284
▁Appointment	-10285
..	-10286
Hx	-10287
So	-10288
TP	-10289
280	-10290
311	-10291
315	-10292
446	-10293
481	-10294
529	-10295
=21	-10296
Agg	-10297
Han	-10298
IVP	-10299
McC	-10300
Vol	-10301
dew	-10302
duc	-10303
lou	-10304
nee	-10305
sil	-10306
▁ns	-10307
37_1	-10308
ERAL	-10309
Wind	-10310
lang	-10311
llis	-10312
mier	-10313
ores	-10314
rame	-10315
rose	-10316
sell	-10317
uris	-10318
▁"66	-10319
▁23"	-10320
▁257	-10321
▁258	-10322
▁30'	-10323
▁Gar	-10324
▁mac	-10325
▁mic	-10326
,000"	-10327
AINST	-10328
Fault	-10329
Image	-10330
MINNE	-10331
abeth	-10332
alent	-10333
azine	-10334
bital	-10335
dance	-10336
judge	-10337
three	-10338
topro	-10339
velop	-10340
▁"188	-10341
▁"83"	-10342
▁'01'	-10343
▁'12,	-10344
▁'56'	-10345
▁1700	-10346
▁ADVI	-10347
▁TYPE	-10348
▁flag	-10349
▁gram	-10350
▁jobs	-10351
▁john	-10352
▁miss	-10353
Family	-10354
Faults	-10355
Michel	-10356
Sydney	-10357
_11400	-10358
career	-10359
curity	-10360
lanned	-10361
london	-10362
middle	-10363
tifier	-10364
▁'1-0'	-10365
▁1900)	-10366
▁1997'	-10367
▁Album	-10368
▁bills	-10369
▁email	-10370
▁foley	-10371
▁weeks	-10372
3355'))	-10373
Initial	-10374
Support	-10375
_204_99	-10376
aterial	-10377
entered	-10378
▁"2146"	-10379
▁'1986'	-10380
▁enroll	-10381
▁finale	-10382
▁indoor	-10383
Kentucky	-10384
dementia	-10385
mifinals	-10386
pression	-10387
register	-10388
shipping	-10389
toprolol	-10390
township	-10391
▁'006-15	-10392
▁AGAINST	-10393
▁MEDICAL	-10394
▁stewart	-10395
baltimore	-10396
tennessee	-10397
▁"2111.0"	-10398
▁Answered	-10399
▁finalist	-10400
▁canadiens	-10401
▁developer	-10402
therapeutic	-10403
▁transplant	-10404
SourceTagName	-10405
▁'031-3355'))	-10406
Ho	-10407
rl	-10408
yu	-10409
032	-10410
092	-10411
094	-10412
20"	-10413
31'	-10414
318	-10415
471	-10416
934	-10417
IND	-10418
Rnd	-10419
SIG	-10420
chy	-10421
jos	-10422
nie	-10423
rus	-10424
▁79	-10425
▁OF	-10426
▁Pr	-10427
▁bl	-10428
▁ct	-10429
▁ri	-10430
-29'	-10431
44_1	-10432
Good	-10433
OVER	-10434
_354	-10435
_364	-10436
_454	-10437
_464	-10438
_554	-10439
_564	-10440
_654	-10441
_664	-10442
_754	-10443
_764	-10444
aker	-10445
ansk	-10446
bers	-10447
cise	-10448
esis	-10449
ffen	-10450
leon	-10451
rael	-10452
rude	-10453
scow	-10454
▁118	-10455
▁137	-10456
▁142	-10457
▁Ame	-10458
▁HCl	-10459
▁Out	-10460
▁abs	-10461
▁far	-10462
▁fix	-10463
▁gre	-10464
▁mur	-10465
▁rob	-10466
▁sig	-10467
▁sys	-10468
▁wed	-10469
Teams	-10470
topic	-10471
tries	-10472
unter	-10473
▁"194	-10474
▁"64"	-10475
▁'80'	-10476
▁1988	-10477
▁Race	-10478
▁diff	-10479
▁pain	-10480
MONDAY	-10481
Origin	-10482
berlin	-10483
corded	-10484
drawal	-10485
postid	-10486
▁'100'	-10487
▁1997"	-10488
▁1999'	-10489
▁multi	-10490
▁teams	-10491
▁tumor	-10492
British	-10493
▁'1988'	-10494
▁campus	-10495
▁finrev	-10496
▁served	-10497
▁starts	-10498
▁titles	-10499
dustrial	-10500
ilirubin	-10501
▁'027-14	-10502
▁courses	-10503
▁teaches	-10504
AccountId	-10505
Condition	-10506
Melbourne	-10507
elevation	-10508
president	-10509
pulmonary	-10510
▁Michigan	-10511
compatible	-10512
reditation	-10513
performance	-10514
▁malignancy	-10515
indianapolis	-10516
▁transfusion	-10517
AI	-10518
Bu	-10519
MW	-10520
RC	-10521
cb	-10522
gt	-10523
hx	-10524
25"	-10525
28"	-10526
305	-10527
571	-10528
700	-10529
72-	-10530
935	-10531
936	-10532
MLS	-10533
Mat	-10534
Sig	-10535
_2)	-10536
_3_	-10537
ads	-10538
bie	-10539
fat	-10540
igi	-10541
reo	-10542
scu	-10543
–4'	-10544
▁61	-10545
▁II	-10546
▁pv	-10547
▁sl	-10548
-30'	-10549
/198	-10550
88_1	-10551
_324	-10552
_424	-10553
_524	-10554
_624	-10555
_724	-10556
ador	-10557
atta	-10558
audi	-10559
boys	-10560
cand	-10561
cyte	-10562
hart	-10563
ipts	-10564
quad	-10565
rton	-10566
▁"39	-10567
▁"58	-10568
▁(13	-10569
▁312	-10570
▁737	-10571
▁Can	-10572
▁Far	-10573
▁asp	-10574
Horse	-10575
LNAME	-10576
Shirt	-10577
cedes	-10578
deria	-10579
maker	-10580
mario	-10581
oster	-10582
puter	-10583
query	-10584
ribes	-10585
rison	-10586
teral	-10587
zepam	-10588
▁"14.	-10589
▁"49"	-10590
▁'-',	-10591
▁'202	-10592
▁'57'	-10593
▁(8)'	-10594
▁6–3,	-10595
▁Game	-10596
▁love	-10597
ATRIAL	-10598
Streak	-10599
_23248	-10600
bishop	-10601
bridge	-10602
dollar	-10603
gative	-10604
glycer	-10605
ilshot	-10606
justin	-10607
medals	-10608
ricket	-10609
rystal	-10610
strong	-10611
▁1996'	-10612
▁Blood	-10613
▁Trade	-10614
▁drama	-10615
▁graft	-10616
▁ptags	-10617
▁river	-10618
▁tower	-10619
Wickets	-10620
_204_34	-10621
_256286	-10622
akistan	-10623
arizona	-10624
ildcats	-10625
indiana	-10626
urinary	-10627
urisdic	-10628
▁"1990"	-10629
▁"1996"	-10630
▁"1997"	-10631
▁Medals	-10632
▁roller	-10633
▁streak	-10634
▁sydney	-10635
ancelled	-10636
assenger	-10637
olympics	-10638
policies	-10639
▁'006-16	-10640
▁Address	-10641
▁content	-10642
phosphate	-10643
sheffield	-10644
▁Publisher	-10645
▁positions	-10646
diagnosisid	-10647
Constellation	-10648
"'	-10649
JE	-10650
bn	-10651
nu	-10652
3.7	-10653
391	-10654
426	-10655
460	-10656
470	-10657
48"	-10658
485	-10659
904	-10660
907	-10661
Big	-10662
Ble	-10663
Bul	-10664
Dom	-10665
ISH	-10666
Pay	-10667
Pct	-10668
Sch	-10669
_5)	-10670
__2	-10671
cam	-10672
pha	-10673
rbc	-10674
sug	-10675
uez	-10676
▁9)	-10677
▁We	-10678
▁gr	-10679
▁lb	-10680
▁ot	-10681
##',	-10682
()))	-10683
18_1	-10684
Bank	-10685
Fate	-10686
WITH	-10687
_575	-10688
_785	-10689
case	-10690
copa	-10691
ella	-10692
hole	-10693
hong	-10694
mchc	-10695
nell	-10696
tile	-10697
wall	-10698
▁'')	-10699
▁'07	-10700
▁'52	-10701
▁(16	-10702
▁And	-10703
▁Rob	-10704
▁crt	-10705
▁spo	-10706
▁uid	-10707
_1728	-10708
_1732	-10709
_3012	-10710
allas	-10711
grees	-10712
icker	-10713
kevin	-10714
logon	-10715
nipeg	-10716
royal	-10717
under	-10718
▁"26"	-10719
▁"47"	-10720
▁'60'	-10721
▁1974	-10722
▁1978	-10723
▁5,00	-10724
▁duct	-10725
▁seat	-10726
▁semi	-10727
▁vent	-10728
ATERAL	-10729
McCain	-10730
Psycho	-10731
SUNDAY	-10732
Snatch	-10733
Steven	-10734
_11545	-10735
_15887	-10736
choice	-10737
martin	-10738
onatal	-10739
origin	-10740
▁1992"	-10741
▁Jagad	-10742
▁Parts	-10743
▁fleet	-10744
Arrival	-10745
Carrier	-10746
landers	-10747
▁'025-5	-10748
▁'2010-	-10749
▁'2012-	-10750
▁Finish	-10751
▁Target	-10752
▁bruins	-10753
▁valley	-10754
Adelaide	-10755
Building	-10756
Regional	-10757
Timeslot	-10758
bulgaria	-10759
comments	-10760
morphine	-10761
roomName	-10762
teration	-10763
▁broncos	-10764
albuterol	-10765
community	-10766
grizzlies	-10767
▁Jagadish	-10768
▁Nickname	-10769
▁November	-10770
▁Reviewer	-10771
▁accepted	-10772
▁SUBSTRING	-10773
▁challenge	-10774
▁community	-10775
▁pneumonia	-10776
▁Percentage	-10777
▁SportsInfo	-10778
▁deficiency	-10779
▁accelerator	-10780
▁PostFeedback	-10781
GS	-10782
("#	-10783
400	-10784
466	-10785
684	-10786
686	-10787
886	-10788
DOB	-10789
Mor	-10790
Not	-10791
Tim	-10792
akh	-10793
chr	-10794
dee	-10795
eds	-10796
gal	-10797
gel	-10798
iso	-10799
oro	-10800
rex	-10801
vro	-10802
vul	-10803
xon	-10804
▁'*	-10805
▁-2	-10806
▁84	-10807
24_1	-10808
28_1	-10809
DOSE	-10810
Jack	-10811
Make	-10812
_25)	-10813
cuse	-10814
dick	-10815
itus	-10816
meta	-10817
shaw	-10818
ynam	-10819
▁"4-	-10820
▁"57	-10821
▁'4:	-10822
▁1.4	-10823
▁211	-10824
▁Dis	-10825
▁Pct	-10826
▁Ver	-10827
▁agg	-10828
▁but	-10829
▁der	-10830
▁kit	-10831
▁lee	-10832
▁pra	-10833
▁ren	-10834
ASTRO	-10835
Obama	-10836
Under	-10837
human	-10838
pilot	-10839
▁"896	-10840
▁'53'	-10841
▁24.0	-10842
▁2–6,	-10843
▁3–6,	-10844
▁4–6,	-10845
▁fuel	-10846
▁iden	-10847
▁live	-10848
▁mode	-10849
12-31'	-10850
ANGIOE	-10851
carpet	-10852
iliary	-10853
ladesh	-10854
server	-10855
starts	-10856
toyota	-10857
ulfate	-10858
▁Coach	-10859
▁FLOOR	-10860
▁kings	-10861
▁pName	-10862
▁small	-10863
▁stent	-10864
Natural	-10865
Partial	-10866
Spanish	-10867
angular	-10868
british	-10869
coaster	-10870
liberal	-10871
minence	-10872
support	-10873
▁"2180"	-10874
▁'1984'	-10875
▁2017))	-10876
▁hockey	-10877
▁scores	-10878
OVERDOSE	-10879
PostTags	-10880
Saturday	-10881
Townland	-10882
▁English	-10883
▁insulin	-10884
▁quarter	-10885
▁raiders	-10886
Potassium	-10887
_11545282	-10888
dansetron	-10889
physician	-10890
▁"2131.0"	-10891
▁Williams	-10892
▁effusion	-10893
ANGIOEDEMA	-10894
▁Francisco	-10895
attractions	-10896
▁Democratic	-10897
▁contestant	-10898
'%	-10899
++	-10900
5/	-10901
DC	-10902
NU	-10903
2.8	-10904
425	-10905
MHz	-10906
TEN	-10907
abi	-10908
afs	-10909
erp	-10910
fix	-10911
ipt	-10912
nan	-10913
sal	-10914
sch	-10915
utc	-10916
wen	-10917
▁"*	-10918
▁"–	-10919
▁'(	-10920
▁(/	-10921
▁cd	-10922
▁ga	-10923
(201	-10924
-24'	-10925
15_1	-10926
_774	-10927
airs	-10928
amaz	-10929
ampa	-10930
anne	-10931
arse	-10932
dles	-10933
fort	-10934
hell	-10935
hire	-10936
iefs	-10937
imer	-10938
▁"78	-10939
▁(15	-10940
▁136	-10941
▁145	-10942
▁Deb	-10943
▁Sen	-10944
▁cla	-10945
▁jun	-10946
▁lan	-10947
▁mls	-10948
▁por	-10949
-25")	-10950
Index	-10951
RepId	-10952
Simon	-10953
agent	-10954
anton	-10955
aylor	-10956
bikes	-10957
cache	-10958
hawks	-10959
inase	-10960
lorer	-10961
mploy	-10962
orton	-10963
since	-10964
ssion	-10965
▁"36"	-10966
▁($)"	-10967
▁(8)"	-10968
▁30.3	-10969
▁ends	-10970
▁hour	-10971
▁life	-10972
▁make	-10973
▁vial	-10974
Scored	-10975
Senior	-10976
Serial	-10977
_11677	-10978
gesics	-10979
target	-10980
versal	-10981
▁"6–4,	-10982
▁'2008	-10983
▁'6–4,	-10984
▁March	-10985
▁style	-10986
Minutes	-10987
Package	-10988
Program	-10989
_203_34	-10990
_204_32	-10991
_204_74	-10992
__2009_	-10993
capital	-10994
denmark	-10995
itrogen	-10996
orlando	-10997
partner	-10998
tabolic	-10999
tention	-11000
ternate	-11001
working	-11002
▁'030-5	-11003
▁1000)"	-11004
▁listed	-11005
▁mexico	-11006
▁voting	-11007
:00:00')	-11008
Producer	-11009
hometown	-11010
kentucky	-11011
▁(2009)"	-11012
▁October	-11013
▁invoice	-11014
FirstName	-11015
mployment	-11016
velopment	-11017
▁dextrose	-11018
▁industry	-11019
▁townland	-11020
▁tracheal	-11021
Established	-11022
MINNEAPOLIS	-11023
SupportRepId	-11024
▁appearances	-11025
▁Championships	-11026
▁SuggestedEdit	-11027
▁constellation	-11028
▁insufficiency	-11029
,4	-11030
/8	-11031
3/	-11032
PM	-11033
VR	-11034
3.5	-11035
30,	-11036
5)"	-11037
647	-11038
67)	-11039
DEV	-11040
OMA	-11041
_09	-11042
bbc	-11043
dor	-11044
eid	-11045
fav	-11046
nus	-11047
tpn	-11048
tti	-11049
urb	-11050
vba	-11051
▁GI	-11052
▁ci	-11053
06')	-11054
0884	-11055
BANK	-11056
Drug	-11057
TRIM	-11058
_111	-11059
_281	-11060
_674	-11061
_684	-11062
arat	-11063
crea	-11064
iety	-11065
ised	-11066
ofol	-11067
sted	-11068
tans	-11069
▁"44	-11070
▁"65	-11071
▁'62	-11072
▁(24	-11073
▁135	-11074
▁TOP	-11075
▁Tor	-11076
▁Val	-11077
▁fat	-11078
▁hor	-11079
▁imp	-11080
▁lim	-11081
17'))	-11082
GRADE	-11083
House	-11084
IVPCA	-11085
Proto	-11086
Purse	-11087
Scott	-11088
atial	-11089
atine	-11090
corio	-11091
corpo	-11092
ernie	-11093
iling	-11094
inant	-11095
input	-11096
labor	-11097
ouble	-11098
valen	-11099
vator	-11100
▁"187	-11101
▁"61"	-11102
▁"77"	-11103
▁'16,	-11104
▁'22.	-11105
▁'61'	-11106
▁'66'	-11107
▁'>%'	-11108
▁0.9%	-11109
▁Cont	-11110
▁Head	-11111
▁bone	-11112
▁cong	-11113
▁feet	-11114
▁remo	-11115
Daniel	-11116
Listed	-11117
Partic	-11118
_15668	-11119
acters	-11120
coring	-11121
cribes	-11122
garian	-11123
idents	-11124
lipide	-11125
mantic	-11126
mitter	-11127
ottawa	-11128
ouston	-11129
queens	-11130
racuse	-11131
ternal	-11132
unting	-11133
▁"1-0"	-11134
▁1993"	-11135
▁2013'	-11136
▁Asses	-11137
▁Black	-11138
▁Brown	-11139
▁bears	-11140
▁circu	-11141
▁ended	-11142
▁ultra	-11143
Kickoff	-11144
_204_16	-11145
belgium	-11146
calgary	-11147
onsored	-11148
pension	-11149
▁"2156"	-11150
▁"2170"	-11151
▁Policy	-11152
▁Scored	-11153
▁mccain	-11154
▁prophy	-11155
▁public	-11156
_1341453	-11157
cosworth	-11158
driverId	-11159
ilipinas	-11160
poration	-11161
▁'006-12	-11162
▁numbers	-11163
Champions	-11164
cytopenia	-11165
▁'006-195	-11166
▁AvgScore	-11167
▁SEMESTER	-11168
▁creation	-11169
▁pressure	-11170
▁purchase	-11171
Centerfold	-11172
CustomerId	-11173
hematocrit	-11174
vancomycin	-11175
▁Investors	-11176
▁available	-11177
▁champions	-11178
appearances	-11179
▁dysfunction	-11180
▁administered	-11181
▁construction	-11182
Administrative	-11183
▁QuestionCount	-11184
▁antibacterials	-11185
(7	-11186
MS	-11187
We	-11188
mt	-11189
035	-11190
278	-11191
28)	-11192
482	-11193
488	-11194
50'	-11195
666	-11196
67-	-11197
9-2	-11198
902	-11199
905	-11200
915	-11201
Equ	-11202
HUM	-11203
Kar	-11204
OUS	-11205
aut	-11206
dun	-11207
jac	-11208
ops	-11209
rdw	-11210
sor	-11211
ssn	-11212
uer	-11213
uru	-11214
▁82	-11215
▁86	-11216
▁Si	-11217
▁bt	-11218
1336	-11219
Bang	-11220
Crew	-11221
OUND	-11222
Ohio	-11223
Supp	-11224
acks	-11225
agen	-11226
ango	-11227
brad	-11228
elim	-11229
ever	-11230
fast	-11231
ivan	-11232
lets	-11233
poch	-11234
sued	-11235
this	-11236
tium	-11237
toky	-11238
utor	-11239
–200	-11240
▁'2-	-11241
▁(0-	-11242
▁185	-11243
▁Cor	-11244
▁Sub	-11245
▁bag	-11246
▁occ	-11247
▁sel	-11248
3355'	-11249
Roman	-11250
akota	-11251
elers	-11252
grass	-11253
henry	-11254
ictor	-11255
lural	-11256
orman	-11257
rough	-11258
▁"11.	-11259
▁"34"	-11260
▁"48"	-11261
▁"72"	-11262
▁"76"	-11263
▁'21.	-11264
▁'62'	-11265
▁'69'	-11266
▁6–2"	-11267
▁6–2'	-11268
▁Wins	-11269
▁crew	-11270
▁dual	-11271
▁east	-11272
▁endo	-11273
▁pack	-11274
▁sqmi	-11275
Actual	-11276
amazon	-11277
amples	-11278
arning	-11279
castle	-11280
ductor	-11281
ffilia	-11282
johnny	-11283
ocytes	-11284
statin	-11285
tidine	-11286
▁'2010	-11287
▁1994"	-11288
▁Built	-11289
▁after	-11290
▁bypas	-11291
▁light	-11292
Central	-11293
Content	-11294
Quarter	-11295
anskrit	-11296
arsenal	-11297
lection	-11298
politan	-11299
ression	-11300
▁'1974'	-11301
▁'1978'	-11302
▁'1993'	-11303
▁Settle	-11304
▁uncont	-11305
isconsin	-11306
platelet	-11307
signedto	-11308
southern	-11309
▁Excerpt	-11310
▁Network	-11311
▁artwork	-11312
▁complic	-11313
▁elector	-11314
▁orleans	-11315
Louisiana	-11316
Tennessee	-11317
vasopress	-11318
▁Official	-11319
▁receiver	-11320
▁standard	-11321
touchdowns	-11322
designation	-11323
▁'031-3355'	-11324
▁assignedto	-11325
creationdate	-11326
▁Settlements	-11327
▁electorates	-11328
TargetTagName	-11329
2:	-11330
=1	-11331
FS	-11332
lq	-11333
$)"	-11334
.9%	-11335
037	-11336
038	-11337
11.	-11338
14)	-11339
193	-11340
275	-11341
35'	-11342
450	-11343
680	-11344
685	-11345
689	-11346
DET	-11347
Gar	-11348
NGC	-11349
Nor	-11350
ays	-11351
bad	-11352
cmi	-11353
cod	-11354
ful	-11355
mis	-11356
mys	-11357
pep	-11358
rez	-11359
tip	-11360
tot	-11361
two	-11362
udy	-11363
web	-11364
–7,	-11365
▁87	-11366
▁uk	-11367
-15'	-11368
/100	-11369
08')	-11370
100'	-11371
50_1	-11372
65_1	-11373
Hypo	-11374
Most	-11375
None	-11376
Poly	-11377
ROIT	-11378
VENT	-11379
VEST	-11380
coag	-11381
dart	-11382
dell	-11383
dome	-11384
ewan	-11385
fire	-11386
ific	-11387
juan	-11388
lase	-11389
life	-11390
mity	-11391
nger	-11392
noid	-11393
onym	-11394
oral	-11395
rone	-11396
rong	-11397
ster	-11398
tens	-11399
uria	-11400
vity	-11401
yard	-11402
▁"52	-11403
▁190	-11404
▁GDP	-11405
▁Mon	-11406
▁Mus	-11407
▁pac	-11408
▁sao	-11409
CHEST	-11410
CRAFT	-11411
Death	-11412
Hyper	-11413
LIVER	-11414
White	-11415
ality	-11416
atell	-11417
billy	-11418
bname	-11419
coast	-11420
draft	-11421
email	-11422
facte	-11423
isher	-11424
jerry	-11425
laxis	-11426
mphis	-11427
oline	-11428
orary	-11429
renzo	-11430
tizen	-11431
tokyo	-11432
▁1.0)	-11433
▁Jazz	-11434
▁mill	-11435
Canada	-11436
Stolen	-11437
Weekly	-11438
deaths	-11439
detail	-11440
estyle	-11441
fender	-11442
jected	-11443
leader	-11444
replay	-11445
vrolet	-11446
▁"2115	-11447
▁"6–3,	-11448
▁15794	-11449
▁1993'	-11450
▁esoph	-11451
▁loser	-11452
▁obama	-11453
Awarded	-11454
BURBANK	-11455
DETROIT	-11456
Mintage	-11457
_204_52	-11458
_204_54	-11459
aprilia	-11460
aspirin	-11461
drivers	-11462
klahoma	-11463
lebrity	-11464
machine	-11465
meaning	-11466
nominal	-11467
pleural	-11468
rockets	-11469
tistics	-11470
▁"2107"	-11471
▁"2111"	-11472
▁"2200"	-11473
▁'1989'	-11474
▁((((((	-11475
▁sepsis	-11476
Operator	-11477
adelaide	-11478
atellite	-11479
ccessors	-11480
centesis	-11481
enrolled	-11482
▁Airdate	-11483
▁Singles	-11484
▁sampled	-11485
▁unknown	-11486
▁vacator	-11487
Publisher	-11488
Territory	-11489
argentina	-11490
barcelona	-11491
formation	-11492
manufacte	-11493
nutrition	-11494
▁Conceded	-11495
▁republic	-11496
▁vascular	-11497
CRAFTalias	-11498
▁architect	-11499
▁buildings	-11500
▁Assessment	-11501
▁NumAnswers	-11502
▁households	-11503
▁infarction	-11504
Percutaneous	-11505
▁arteriogram	-11506
▁prophylaxis	-11507
▁displacement	-11508
▁QuestionsInMay	-11509
ReviewTaskTypeId	-11510
".	-11511
BN	-11512
ao	-11513
cf	-11514
gr	-11515
hd	-11516
hs	-11517
099	-11518
2")	-11519
2%'	-11520
289	-11521
38)	-11522
440	-11523
555	-11524
911	-11525
916	-11526
Dup	-11527
aAA	-11528
bec	-11529
pth	-11530
xic	-11531
▁Fe	-11532
▁cf	-11533
▁gi	-11534
▁od	-11535
▁os	-11536
000_	-11537
3672	-11538
45_1	-11539
Born	-11540
Bush	-11541
_131	-11542
dies	-11543
fern	-11544
foot	-11545
hein	-11546
hiro	-11547
ires	-11548
irls	-11549
rint	-11550
spar	-11551
▁'88	-11552
▁'97	-11553
▁(20	-11554
▁739	-11555
▁Sab	-11556
▁ast	-11557
▁dun	-11558
▁pid	-11559
▁tar	-11560
38.0"	-11561
Email	-11562
Kerry	-11563
Loser	-11564
_1672	-11565
_2011	-11566
conds	-11567
dates	-11568
dered	-11569
hydra	-11570
named	-11571
neuro	-11572
olone	-11573
orean	-11574
rooks	-11575
tanyl	-11576
urray	-11577
▁'07'	-11578
▁'19,	-11579
▁'65'	-11580
▁'72'	-11581
▁Base	-11582
▁coli	-11583
▁copy	-11584
▁meal	-11585
Fourth	-11586
Single	-11587
_12962	-11588
carlos	-11589
decile	-11590
ikings	-11591
irming	-11592
policy	-11593
winter	-11594
▁"4–6,	-11595
▁'008-	-11596
▁'4–6,	-11597
▁'6–3,	-11598
▁2018)	-11599
▁31854	-11600
▁Davis	-11601
▁Value	-11602
▁draft	-11603
▁shirt	-11604
▁thora	-11605
▁voice	-11606
eration	-11607
finland	-11608
hibitor	-11609
hungary	-11610
ilities	-11611
jackson	-11612
lincoln	-11613
olphins	-11614
▁"2112"	-11615
▁'1982'	-11616
▁'1990'	-11617
▁August	-11618
▁Jersey	-11619
▁enzyme	-11620
▁fourth	-11621
▁ptypes	-11622
Bleeding	-11623
Combined	-11624
Maryland	-11625
brisbane	-11626
dextrose	-11627
glycemia	-11628
industry	-11629
property	-11630
restlers	-11631
snatched	-11632
sualties	-11633
▁1991)))	-11634
▁Manager	-11635
▁advance	-11636
▁upvotes	-11637
President	-11638
irmingham	-11639
▁operator	-11640
literation	-11641
▁insertion	-11642
AnswerScore	-11643
Destination	-11644
arrangement	-11645
▁management	-11646
PB	-11647
Pl	-11648
SF	-11649
SW	-11650
ek	-11651
hh	-11652
ht	-11653
ua	-11654
0%'	-11655
0)'	-11656
272	-11657
313	-11658
459	-11659
489	-11660
644	-11661
658	-11662
669	-11663
74-	-11664
BIO	-11665
ERB	-11666
Fre	-11667
Lac	-11668
Mad	-11669
RUQ	-11670
hea	-11671
ife	-11672
kaz	-11673
lav	-11674
lev	-11675
mee	-11676
rec	-11677
tch	-11678
umn	-11679
veh	-11680
wol	-11681
zle	-11682
▁"-	-11683
▁#1	-11684
▁8)	-11685
▁83	-11686
▁Go	-11687
04')	-11688
6817	-11689
95_2	-11690
Greg	-11691
RESS	-11692
arin	-11693
fail	-11694
gypt	-11695
ifth	-11696
ixon	-11697
lent	-11698
mers	-11699
mson	-11700
orst	-11701
sist	-11702
yyyy	-11703
▁116	-11704
▁Non	-11705
▁Sum	-11706
▁arm	-11707
▁nas	-11708
▁nov	-11709
▁tal	-11710
▁vil	-11711
Alice	-11712
Brian	-11713
Visit	-11714
_1735	-11715
czech	-11716
elson	-11717
foley	-11718
mixed	-11719
races	-11720
renal	-11721
simon	-11722
style	-11723
umbus	-11724
vered	-11725
weeks	-11726
▁"44"	-11727
▁"510	-11728
▁'14,	-11729
▁'187	-11730
▁'64'	-11731
▁1976	-11732
▁6–2,	-11733
▁FALL	-11734
▁Left	-11735
▁Male	-11736
▁ORTH	-11737
▁bush	-11738
▁stem	-11739
▁temp	-11740
Andrew	-11741
CTIONS	-11742
Option	-11743
Socket	-11744
Street	-11745
Visits	-11746
_27756	-11747
badges	-11748
format	-11749
insert	-11750
meters	-11751
option	-11752
plasma	-11753
portug	-11754
soviet	-11755
topher	-11756
▁'2012	-11757
▁1000)	-11758
▁Group	-11759
▁HEMAT	-11760
▁cross	-11761
▁proto	-11762
▁romeo	-11763
ADDRESS	-11764
Digital	-11765
_203_52	-11766
_203_58	-11767
_204_62	-11768
askatch	-11769
berliga	-11770
chnical	-11771
ditions	-11772
ocusate	-11773
stadion	-11774
tonnage	-11775
▁"1994"	-11776
▁"2168"	-11777
▁'1971'	-11778
▁'1976'	-11779
▁Sodium	-11780
▁arrest	-11781
▁memory	-11782
▁wilson	-11783
HIREDATE	-11784
LOCATION	-11785
contents	-11786
oklahoma	-11787
talities	-11788
virginia	-11789
▁'030-52	-11790
▁MayRank	-11791
▁bladder	-11792
▁florida	-11793
▁formula	-11794
▁package	-11795
▁wickets	-11796
Employees	-11797
Insertion	-11798
performer	-11799
▁"2115.0"	-11800
▁"2138.0"	-11801
▁'025-444	-11802
▁Director	-11803
▁Football	-11804
▁earnings	-11805
▁engineer	-11806
linebacker	-11807
unaffected	-11808
askatchewan	-11809
ondansetron	-11810
▁scientists	-11811
▁CloseReason	-11812
▁INSUFFIENCY	-11813
▁arrangement	-11814
▁ApprovalDate	-11815
▁LastEditDate	-11816
▁transactions	-11817
lv	-11818
wc	-11819
4)'	-11820
678	-11821
7%'	-11822
913	-11823
Ann	-11824
CAL	-11825
ILY	-11826
Kil	-11827
ROY	-11828
aar	-11829
bun	-11830
dbo	-11831
iaz	-11832
imp	-11833
kol	-11834
mmy	-11835
now	-11836
▁SC	-11837
▁pq	-11838
▁tr	-11839
Copa	-11840
Save	-11841
_291	-11842
arus	-11843
bour	-11844
cean	-11845
five	-11846
gain	-11847
ione	-11848
lith	-11849
poll	-11850
▁%")	-11851
▁'5,	-11852
▁(3,	-11853
▁11.	-11854
▁152	-11855
▁175	-11856
▁2.0	-11857
▁285	-11858
▁864	-11859
▁Bal	-11860
▁Pen	-11861
▁Ren	-11862
▁cas	-11863
▁cmi	-11864
▁est	-11865
▁fer	-11866
▁fol	-11867
▁hur	-11868
▁sum	-11869
COACH	-11870
Great	-11871
Japan	-11872
Parts	-11873
Young	-11874
_200)	-11875
ators	-11876
bobby	-11877
bruce	-11878
exams	-11879
laren	-11880
lasty	-11881
lator	-11882
lucon	-11883
marks	-11884
ongue	-11885
stool	-11886
theme	-11887
thnic	-11888
uster	-11889
▁"74"	-11890
▁'+1'	-11891
▁'11,	-11892
▁'20,	-11893
▁'78'	-11894
▁1600	-11895
▁1961	-11896
▁6–4"	-11897
▁Gold	-11898
▁form	-11899
▁kong	-11900
▁lake	-11901
▁rock	-11902
▁save	-11903
Kansas	-11904
Stored	-11905
_11734	-11906
_11964	-11907
ctroly	-11908
keting	-11909
mobile	-11910
ocaine	-11911
ranial	-11912
street	-11913
▁1992'	-11914
▁1994'	-11915
▁Fault	-11916
▁beach	-11917
▁colts	-11918
▁james	-11919
▁maple	-11920
Advisor	-11921
Elector	-11922
Website	-11923
austria	-11924
formula	-11925
ighting	-11926
ivalent	-11927
izontal	-11928
lovakia	-11929
patrick	-11930
seconds	-11931
venture	-11932
▁"1995"	-11933
▁"8:00"	-11934
▁'1985'	-11935
▁'2020-	-11936
▁(2011)	-11937
▁Gender	-11938
▁Orders	-11939
▁common	-11940
▁george	-11941
▁intake	-11942
▁london	-11943
▁rovers	-11944
Arkansas	-11945
Democrat	-11946
Governor	-11947
Premiere	-11948
_1341423	-11949
distance	-11950
hosphate	-11951
▁'016-96	-11952
▁entries	-11953
▁special	-11954
Suggested	-11955
suggested	-11956
▁cerebral	-11957
▁electric	-11958
▁illinois	-11959
▁steelers	-11960
▁township	-11961
Occupation	-11962
Psychology	-11963
mechanical	-11964
▁copyright	-11965
▁injection	-11966
▁islanders	-11967
independent	-11968
translation	-11969
treatmentid	-11970
▁'006-80884	-11971
▁Passengers	-11972
▁TotalScore	-11973
pantoprazole	-11974
▁commissioned	-11975
4/	-11976
(18	-11977
097	-11978
12)	-11979
273	-11980
4%'	-11981
621	-11982
93'	-11983
Bor	-11984
GAN	-11985
HAL	-11986
ILE	-11987
Jul	-11988
Pit	-11989
Pla	-11990
bac	-11991
eno	-11992
git	-11993
ios	-11994
onz	-11995
ows	-11996
sie	-11997
wri	-11998
▁Af	-11999
▁Ho	-12000
▁fx	-12001
▁ry	-12002
-22"	-12003
01_2	-12004
13_2	-12005
15_3	-12006
32_2	-12007
46_1	-12008
64_1	-12009
COPD	-12010
Join	-12011
Over	-12012
ROOM	-12013
_150	-12014
alan	-12015
iran	-12016
itti	-12017
ived	-12018
mbly	-12019
remy	-12020
seud	-12021
soph	-12022
–199	-12023
▁"2-	-12024
▁126	-12025
▁226	-12026
▁BAR	-12027
▁Der	-12028
▁Int	-12029
▁Mor	-12030
▁mck	-12031
▁nut	-12032
▁sph	-12033
▁via	-12034
14'))	-12035
4032"	-12036
99784	-12037
ACERB	-12038
DAILY	-12039
Loses	-12040
Yacht	-12041
_1638	-12042
_2__)	-12043
ading	-12044
entre	-12045
ested	-12046
latin	-12047
leeds	-12048
music	-12049
orthe	-12050
outhe	-12051
pical	-12052
roger	-12053
sible	-12054
sound	-12055
tated	-12056
worth	-12057
▁"12.	-12058
▁"54"	-12059
▁"59"	-12060
▁'.9%	-12061
▁'67'	-12062
▁'74-	-12063
▁(1)"	-12064
▁6–3"	-12065
▁6–3'	-12066
▁6–4'	-12067
▁Char	-12068
▁bile	-12069
▁care	-12070
▁lung	-12071
▁pace	-12072
Office	-12073
anessa	-12074
camera	-12075
diesel	-12076
itrate	-12077
locyte	-12078
ompson	-12079
oxygen	-12080
▁'1-1'	-12081
▁night	-12082
▁singh	-12083
/01/201	-12084
Mission	-12085
Opening	-12086
Toronto	-12087
_100151	-12088
_203_56	-12089
_203_78	-12090
_204_44	-12091
_204_64	-12092
awrence	-12093
chinese	-12094
chronic	-12095
ratings	-12096
▁"1989"	-12097
▁"2120"	-12098
▁"2150"	-12099
▁'1966'	-12100
▁middle	-12101
▁object	-12102
▁socket	-12103
Incision	-12104
Standard	-12105
idocaine	-12106
mercedes	-12107
official	-12108
outcomes	-12109
▁"74032"	-12110
▁'031-16	-12111
▁EXACERB	-12112
▁billion	-12113
Completed	-12114
Minnesota	-12115
Standings	-12116
_16799784	-12117
inephrine	-12118
operation	-12119
racranial	-12120
▁American	-12121
▁Duration	-12122
▁Invoices	-12123
▁auckland	-12124
▁chargers	-12125
Endoscopic	-12126
ssociation	-12127
▁'006-1336	-12128
▁downvotes	-12129
▁extremity	-12130
cholesterol	-12131
▁dependence	-12132
▁electorate	-12133
▁sportsinfo	-12134
Construction	-12135
Displacement	-12136
▁participant	-12137
▁ventricular	-12138
SEQUENCEalias	-12139
championships	-12140
▁EXACERBATION	-12141
cceptedAnswers	-12142
PS	-12143
\\	-12144
sd	-12145
td	-12146
095	-12147
10.	-12148
254	-12149
274	-12150
3%'	-12151
394	-12152
6%'	-12153
655	-12154
672	-12155
68"	-12156
723	-12157
888	-12158
Der	-12159
Her	-12160
Mod	-12161
_5_	-12162
atp	-12163
aux	-12164
bat	-12165
cat	-12166
cep	-12167
fly	-12168
hav	-12169
ige	-12170
img	-12171
mpg	-12172
rah	-12173
rod	-12174
wel	-12175
zip	-12176
–7'	-12177
▁81	-12178
▁91	-12179
▁CE	-12180
▁Hy	-12181
▁Ko	-12182
▁Pa	-12183
▁Sa	-12184
▁TV	-12185
▁cs	-12186
▁df	-12187
41_1	-12188
98))	-12189
Band	-12190
Blue	-12191
Fuel	-12192
Stru	-12193
VERT	-12194
_109	-12195
_303	-12196
_333	-12197
_393	-12198
_403	-12199
_433	-12200
_493	-12201
_503	-12202
_533	-12203
_593	-12204
_603	-12205
_633	-12206
_693	-12207
_703	-12208
_733	-12209
_793	-12210
_803	-12211
agle	-12212
chez	-12213
hand	-12214
iton	-12215
lymp	-12216
mini	-12217
mins	-12218
olid	-12219
onar	-12220
onda	-12221
pred	-12222
rage	-12223
resh	-12224
semi	-12225
tana	-12226
uela	-12227
uese	-12228
xine	-12229
▁#1'	-12230
▁'3-	-12231
▁'94	-12232
▁'99	-12233
▁128	-12234
▁147	-12235
▁193	-12236
▁234	-12237
▁Pla	-12238
▁dan	-12239
▁ext	-12240
▁kar	-12241
▁mpg	-12242
▁rid	-12243
▁sti	-12244
000)"	-12245
34'))	-12246
CName	-12247
China	-12248
Cover	-12249
PVLDB	-12250
Route	-12251
Style	-12252
WEDNE	-12253
Works	-12254
_2008	-12255
crime	-12256
horse	-12257
▁"11-	-12258
▁"15.	-12259
▁"205	-12260
▁"51"	-12261
▁"58"	-12262
▁'59'	-12263
▁(1.0	-12264
▁(6)'	-12265
▁1850	-12266
▁1900	-12267
▁1981	-12268
▁Bowl	-12269
▁Cons	-12270
▁Film	-12271
▁July	-12272
▁bowl	-12273
▁fall	-12274
▁into	-12275
▁nick	-12276
▁took	-12277
Device	-12278
Orders	-12279
Sunday	-12280
anucks	-12281
mander	-12282
proach	-12283
struct	-12284
▁"2002	-12285
▁'2-1'	-12286
▁(10)'	-12287
▁20000	-12288
▁Index	-12289
▁Prize	-12290
▁STDEV	-12291
▁Visit	-12292
▁human	-12293
▁infus	-12294
▁space	-12295
▁texas	-12296
▁units	-12297
Premier	-12298
Vehicle	-12299
_203_54	-12300
__2002_	-12301
arriors	-12302
centile	-12303
cottish	-12304
economy	-12305
pulsion	-12306
stephen	-12307
tinuous	-12308
▁"1991"	-12309
▁'1979'	-12310
▁'1995'	-12311
▁Actual	-12312
▁Island	-12313
▁Parent	-12314
▁Things	-12315
▁assets	-12316
▁france	-12317
▁nutrit	-12318
▁senior	-12319
▁sphinc	-12320
▁square	-12321
▁taylor	-12322
Football	-12323
Illinois	-12324
Reserved	-12325
Wrestler	-12326
_2456500	-12327
contract	-12328
diabetes	-12329
diameter	-12330
elebrity	-12331
gressive	-12332
ocardial	-12333
▁"10:00"	-12334
▁'031-13	-12335
▁alcohol	-12336
▁hepatic	-12337
▁partial	-12338
▁scorers	-12339
▁theatre	-12340
Aggregate	-12341
Socialist	-12342
WEDNESDAY	-12343
_15887683	-12344
alexander	-12345
incumbent	-12346
interview	-12347
lipidemia	-12348
successor	-12349
▁Division	-12350
▁saturday	-12351
Contestant	-12352
continuous	-12353
metoprolol	-12354
▁FirstName	-12355
▁firstname	-12356
▁wednesday	-12357
established	-12358
inhabitants	-12359
Philadelphia	-12360
▁Performance	-12361
▁neighborhood	-12362
▁uncontrolled	-12363
IH	-12364
RT	-12365
UC	-12366
dw	-12367
.9'	-12368
03)	-12369
056	-12370
2)'	-12371
264	-12372
4)"	-12373
422	-12374
483	-12375
624	-12376
664	-12377
665	-12378
757	-12379
770	-12380
Bru	-12381
HRS	-12382
Key	-12383
Lab	-12384
Low	-12385
Una	-12386
Wal	-12387
cti	-12388
cul	-12389
jin	-12390
map	-12391
maz	-12392
mir	-12393
nea	-12394
nfl	-12395
pel	-12396
pin	-12397
sca	-12398
▁ja	-12399
▁ye	-12400
-13'	-12401
/197	-12402
10_1	-12403
19_1	-12404
2019	-12405
56_1	-12406
5843	-12407
BLAD	-12408
LOCK	-12409
Nick	-12410
OLUS	-12411
RASH	-12412
_313	-12413
_413	-12414
_513	-12415
_613	-12416
_713	-12417
aged	-12418
awar	-12419
cong	-12420
ergy	-12421
eric	-12422
idel	-12423
lene	-12424
mans	-12425
mola	-12426
rash	-12427
teri	-12428
tire	-12429
tivi	-12430
zuki	-12431
–25"	-12432
–25'	-12433
▁'31	-12434
▁176	-12435
▁6–7	-12436
▁900	-12437
▁Tro	-12438
▁bin	-12439
▁crs	-12440
▁eti	-12441
▁ice	-12442
▁usa	-12443
("201	-12444
-10")	-12445
71'))	-12446
CTOMY	-12447
Cross	-12448
Dance	-12449
Draft	-12450
ERNOT	-12451
Grape	-12452
INHAL	-12453
Train	-12454
_1196	-12455
_2010	-12456
_2699	-12457
aning	-12458
annon	-12459
atory	-12460
chair	-12461
edits	-12462
iguel	-12463
ilton	-12464
inger	-12465
limin	-12466
loser	-12467
medal	-12468
metro	-12469
ryant	-12470
useum	-12471
voted	-12472
wales	-12473
ysics	-12474
▁"+1"	-12475
▁"514	-12476
▁'10-	-12477
▁'76'	-12478
▁(100	-12479
▁(2)"	-12480
▁1966	-12481
▁2844	-12482
▁Data	-12483
▁Tour	-12484
▁Wiki	-12485
▁less	-12486
▁pass	-12487
▁poly	-12488
▁tran	-12489
▁wall	-12490
GASTRO	-12491
INTEST	-12492
_25086	-12493
deacon	-12494
genase	-12495
▁(10)"	-12496
▁28443	-12497
▁Actor	-12498
▁BEACH	-12499
▁BOLUS	-12500
▁MYOME	-12501
▁Premi	-12502
▁acade	-12503
▁acres	-12504
▁creek	-12505
▁hydro	-12506
▁since	-12507
▁three	-12508
BLADDER	-12509
Batting	-12510
Cardiac	-12511
ICIENCY	-12512
_204_12	-12513
amilies	-12514
dollars	-12515
gastric	-12516
▁"2056"	-12517
▁"2103"	-12518
▁"2123"	-12519
▁"2167"	-12520
▁'032-2	-12521
▁'2011-	-12522
▁AORTIC	-12523
▁Editor	-12524
▁Margin	-12525
▁annual	-12526
▁serial	-12527
ERNOTOMY	-12528
lyceride	-12529
outheast	-12530
playoffs	-12531
scuderia	-12532
tirement	-12533
tivities	-12534
▁'006-17	-12535
▁(2002)"	-12536
▁biliary	-12537
▁syringe	-12538
quisition	-12539
utropenia	-12540
▁"2155.0"	-12541
▁adelaide	-12542
▁dialysis	-12543
▁drainage	-12544
INHALATION	-12545
INTESTINAL	-12546
Unaffected	-12547
ducational	-12548
endoscopic	-12549
liminaries	-12550
▁'2104-09'	-12551
▁MYOMECTOMY	-12552
▁STERNOTOMY	-12553
▁centerfold	-12554
▁locomotive	-12555
▁schumacher	-12556
administered	-12557
▁established	-12558
▁bronchoscopy	-12559
▁complication	-12560
▁constructors	-12561
▁INSUFFICIENCY	-12562
GASTROINTESTINAL	-12563
Ba	-12564
HD	-12565
Pa	-12566
Ty	-12567
_"	-12568
.1'	-12569
.3'	-12570
.4'	-12571
/11	-12572
02)	-12573
13)	-12574
COA	-12575
Cat	-12576
Web	-12577
aly	-12578
bia	-12579
bmw	-12580
dub	-12581
hum	-12582
igg	-12583
jar	-12584
nai	-12585
pus	-12586
tak	-12587
tha	-12588
uda	-12589
yto	-12590
zer	-12591
–7"	-12592
▁$_	-12593
▁(-	-12594
▁br	-12595
-11"	-12596
-29"	-12597
02_2	-12598
105"	-12599
107)	-12600
44_2	-12601
62_1	-12602
69_1	-12603
74_1	-12604
91_1	-12605
ACCT	-12606
Asst	-12607
Back	-12608
Base	-12609
Elsa	-12610
FRID	-12611
Life	-12612
Roma	-12613
_130	-12614
acct	-12615
alca	-12616
apon	-12617
ardi	-12618
blue	-12619
fran	-12620
furt	-12621
ided	-12622
igns	-12623
ique	-12624
lomb	-12625
most	-12626
nced	-12627
orpe	-12628
roma	-12629
runs	-12630
yelo	-12631
▁"6.	-12632
▁"7.	-12633
▁'77	-12634
▁'9-	-12635
▁1")	-12636
▁117	-12637
▁302	-12638
▁Del	-12639
▁Mid	-12640
▁ane	-12641
▁exp	-12642
▁fis	-12643
▁mcg	-12644
▁pet	-12645
▁sea	-12646
07'))	-12647
1##%'	-12648
Crude	-12649
Flags	-12650
India	-12651
Level	-12652
Liber	-12653
Linda	-12654
Medal	-12655
Multi	-12656
Orbit	-12657
Urban	-12658
acres	-12659
clist	-12660
drain	-12661
geria	-12662
ittle	-12663
ixels	-12664
offen	-12665
promo	-12666
rency	-12667
verty	-12668
wboys	-12669
ytoin	-12670
▁"19"	-12671
▁"81"	-12672
▁'58'	-12673
▁1950	-12674
▁Rich	-12675
▁Star	-12676
▁WINE	-12677
▁arab	-12678
▁golf	-12679
▁inst	-12680
▁roma	-12681
▁scan	-12682
##>%')	-12683
Donald	-12684
FRIDAY	-12685
Object	-12686
Parent	-12687
Parish	-12688
Pinyin	-12689
_11401	-12690
_22815	-12691
access	-12692
estive	-12693
greece	-12694
menced	-12695
modern	-12696
oregon	-12697
pierre	-12698
porary	-12699
qualif	-12700
review	-12701
seated	-12702
▁'3-0'	-12703
▁2200)	-12704
▁Power	-12705
▁cause	-12706
▁found	-12707
▁guard	-12708
▁leafs	-12709
▁villa	-12710
Forward	-12711
Minimum	-12712
Special	-12713
Swimmer	-12714
_203_42	-12715
_204_17	-12716
_204_42	-12717
_204_67	-12718
conomic	-12719
cretary	-12720
estinal	-12721
fecture	-12722
species	-12723
teacher	-12724
ultures	-12725
welling	-12726
▁"1993"	-12727
▁'010-2	-12728
▁'015-2	-12729
▁'1977'	-12730
▁'1981'	-12731
▁Income	-12732
▁Motors	-12733
▁factor	-12734
▁tigers	-12735
COALESCE	-12736
Defender	-12737
Michelle	-12738
_2508633	-12739
combined	-12740
docusate	-12741
fernando	-12742
malaysia	-12743
nections	-12744
portland	-12745
▁'005-77	-12746
▁abscess	-12747
▁antonio	-12748
▁maximum	-12749
▁packers	-12750
_11677100	-12751
architect	-12752
ascension	-12753
chevrolet	-12754
household	-12755
pneumonia	-12756
temporary	-12757
ylephrine	-12758
▁'013-285	-12759
▁lastname	-12760
▁useracct	-12761
households	-12762
▁'005-8746	-12763
▁abdominal	-12764
▁ascension	-12765
▁disorders	-12766
urisdiction	-12767
▁motorsport	-12768
▁resolution	-12769
participates	-12770
▁'030-42006'	-12771
▁obstruction	-12772
▁BountyAmount	-12773
▁denomination	-12774
▁endotracheal	-12775
LastEditorUserId	-12776
(3	-12777
MM	-12778
NW	-12779
PI	-12780
UG	-12781
XX	-12782
fu	-12783
lm	-12784
mv	-12785
xi	-12786
%)"	-12787
269	-12788
32)	-12789
429	-12790
441	-12791
455	-12792
6)"	-12793
66-	-12794
675	-12795
73-	-12796
8-2	-12797
9")	-12798
9%"	-12799
BOT	-12800
DMI	-12801
Hol	-12802
PCP	-12803
UTC	-12804
Van	-12805
WBC	-12806
alt	-12807
cas	-12808
dmi	-12809
joh	-12810
mcc	-12811
mol	-12812
pga	-12813
tig	-12814
▁gp	-12815
▁rn	-12816
▁wk	-12817
190"	-12818
575'	-12819
:00.	-12820
Arch	-12821
BRAD	-12822
Conf	-12823
Hash	-12824
MOID	-12825
Tied	-12826
_183	-12827
atti	-12828
bian	-12829
lara	-12830
laus	-12831
nedy	-12832
nova	-12833
olam	-12834
puty	-12835
riog	-12836
tack	-12837
ubes	-12838
▁103	-12839
▁113	-12840
▁30)	-12841
▁31'	-12842
▁615	-12843
▁808	-12844
▁Bro	-12845
▁MVR	-12846
▁One	-12847
▁Wal	-12848
▁met	-12849
▁rpm	-12850
▁sin	-12851
▁tru	-12852
24'))	-12853
56'))	-12854
93'))	-12855
98'))	-12856
Civil	-12857
Space	-12858
_2679	-12859
_2850	-12860
ameth	-12861
chlor	-12862
cided	-12863
drama	-12864
esity	-12865
front	-12866
idine	-12867
itral	-12868
labid	-12869
lages	-12870
larry	-12871
lotus	-12872
ticut	-12873
uzzle	-12874
vijay	-12875
wound	-12876
▁"192	-12877
▁'24.	-12878
▁(6)"	-12879
▁1977	-12880
▁1979	-12881
▁COLO	-12882
▁Fate	-12883
▁hern	-12884
▁mell	-12885
▁word	-12886
DIALYS	-12887
Debate	-12888
EditId	-12889
Skills	-12890
Voters	-12891
_19656	-12892
acting	-12893
atures	-12894
coccus	-12895
iology	-12896
temple	-12897
▁"2011	-12898
▁10624	-12899
▁1995"	-12900
▁Chris	-12901
▁Model	-12902
▁Range	-12903
▁choke	-12904
▁fires	-12905
▁frank	-12906
▁judge	-12907
▁reser	-12908
▁scott	-12909
▁stone	-12910
▁women	-12911
Netflix	-12912
Patient	-12913
Protein	-12914
SIGMOID	-12915
Village	-12916
Western	-12917
_203_27	-12918
chelsea	-12919
circuit	-12920
decided	-12921
lecular	-12922
linical	-12923
ounties	-12924
prednis	-12925
premise	-12926
surname	-12927
▁"2138"	-12928
▁"2176"	-12929
▁"2187"	-12930
▁"2194"	-12931
▁'007-2	-12932
▁DIVERT	-12933
▁Family	-12934
▁United	-12935
▁leader	-12936
Advanced	-12937
ICULITIS	-12938
VESTICAL	-12939
cipients	-12940
ctorated	-12941
disorder	-12942
fraction	-12943
glycerin	-12944
necticut	-12945
workshop	-12946
▁Arrival	-12947
▁Orleans	-12948
▁Release	-12949
▁Sulfate	-12950
▁carrier	-12951
▁control	-12952
▁council	-12953
▁cricket	-12954
▁initial	-12955
▁operate	-12956
▁parsing	-12957
▁support	-12958
▁urinary	-12959
Component	-12960
Magnesium	-12961
Residence	-12962
_24565004	-12963
destroyed	-12964
ttlements	-12965
▁"2126.0"	-12966
▁"2186.0"	-12967
▁NumPosts	-12968
▁Premises	-12969
▁arteriog	-12970
▁combined	-12971
▁etiology	-12972
▁reaction	-12973
▁regional	-12974
▁software	-12975
▁uncntrld	-12976
Birthplace	-12977
appearance	-12978
appelation	-12979
resolution	-12980
▁residence	-12981
BRADYCARDIA	-12982
Publication	-12983
Translation	-12984
allergyname	-12985
hypotension	-12986
▁'005-77687	-12987
▁sampledata	-12988
▁supporting	-12989
Commissioned	-12990
▁respiration	-12991
▁COLOVESTICAL	-12992
▁expectorated	-12993
▁'025-44495'))	-12994
▁RelatedPostId	-12995
SuggestedEditId	-12996
▁DIVERTICULITIS	-12997
▁administrative	-12998
/"	-12999
Ve	-13000
oa	-13001
wh	-13002
.7'	-13003
0)"	-13004
1%"	-13005
22'	-13006
23"	-13007
40"	-13008
421	-13009
58)	-13010
640	-13011
779	-13012
BBC	-13013
ENE	-13014
Fer	-13015
NBA	-13016
Pur	-13017
SON	-13018
Spo	-13019
Wil	-13020
gni	-13021
ika	-13022
mul	-13023
nof	-13024
ono	-13025
opn	-13026
ppe	-13027
sac	-13028
six	-13029
uko	-13030
-20"	-13031
-5")	-13032
2##'	-13033
34_2	-13034
500"	-13035
61_1	-13036
92_2	-13037
CHEM	-13038
Dave	-13039
GUID	-13040
Lisa	-13041
Luke	-13042
NDEX	-13043
abad	-13044
ante	-13045
arah	-13046
aryn	-13047
feld	-13048
file	-13049
full	-13050
grad	-13051
inch	-13052
lest	-13053
mand	-13054
mile	-13055
nold	-13056
oliv	-13057
orta	-13058
ruby	-13059
tero	-13060
▁'9,	-13061
▁111	-13062
▁3.5	-13063
▁31"	-13064
▁Beh	-13065
▁Ton	-13066
▁els	-13067
▁emp	-13068
Hours	-13069
ageal	-13070
aired	-13071
alaxy	-13072
asure	-13073
bases	-13074
eller	-13075
epoch	-13076
floor	-13077
laure	-13078
legia	-13079
lucag	-13080
maria	-13081
pines	-13082
remia	-13083
roffe	-13084
sSpec	-13085
semia	-13086
ships	-13087
stade	-13088
tices	-13089
wayne	-13090
women	-13091
▁'71'	-13092
▁'73'	-13093
▁'77'	-13094
▁(1)'	-13095
▁(2)'	-13096
▁-30,	-13097
▁Hour	-13098
▁PAUL	-13099
▁case	-13100
▁info	-13101
▁laid	-13102
▁paul	-13103
▁rams	-13104
▁tied	-13105
Common	-13106
Romaji	-13107
Social	-13108
Winery	-13109
_23286	-13110
cortis	-13111
etalol	-13112
goalie	-13113
licate	-13114
screen	-13115
userId	-13116
▁'2-0'	-13117
▁'2006	-13118
▁1.000	-13119
▁1000'	-13120
▁1989'	-13121
▁House	-13122
▁cover	-13123
▁italy	-13124
▁sspec	-13125
ATINDEX	-13126
Belgium	-13127
Detroit	-13128
Indiana	-13129
Largest	-13130
Upvotes	-13131
_204_26	-13132
_204_76	-13133
crystal	-13134
egrated	-13135
weather	-13136
▁"2004-	-13137
▁"8:30"	-13138
▁'1980'	-13139
▁Martin	-13140
▁Trophy	-13141
▁aortic	-13142
▁growth	-13143
▁recent	-13144
▁snatch	-13145
Creation	-13146
Oklahoma	-13147
Research	-13148
Township	-13149
_1473672	-13150
_1745843	-13151
artridge	-13152
billions	-13153
cheduled	-13154
▁Percent	-13155
▁batting	-13156
▁falcons	-13157
▁kickoff	-13158
Structure	-13159
languages	-13160
microsoft	-13161
publisher	-13162
sponsored	-13163
statement	-13164
▁conceded	-13165
▁incision	-13166
▁memorial	-13167
▁programs	-13168
Facilities	-13169
Partnering	-13170
visionGUID	-13171
▁Woodroffe	-13172
▁YearMonth	-13173
InvoiceDate	-13174
datasetname	-13175
▁LinkTypeId	-13176
▁washington	-13177
Participates	-13178
▁Publication	-13179
▁designation	-13180
▁destruction	-13181
▁resultsdata	-13182
Massachusetts	-13183
▁Denomination	-13184
▁characteristics	-13185
9%	-13186
DV	-13187
OX	-13188
TC	-13189
cw	-13190
2.6	-13191
35)	-13192
479	-13193
5)'	-13194
559	-13195
600	-13196
620	-13197
625	-13198
681	-13199
849	-13200
Bas	-13201
Dar	-13202
MKE	-13203
UIT	-13204
WEL	-13205
YND	-13206
__1	-13207
acu	-13208
cil	-13209
due	-13210
flu	-13211
gow	-13212
oku	-13213
teg	-13214
udd	-13215
viv	-13216
–5'	-13217
▁Ep	-13218
▁Op	-13219
▁qs	-13220
▁sw	-13221
▁tu	-13222
▁vi	-13223
/09"	-13224
0.0"	-13225
06_2	-13226
08_2	-13227
36_2	-13228
42_1	-13229
47_1	-13230
60_1	-13231
9.0"	-13232
BOTH	-13233
Died	-13234
GUIL	-13235
LAIN	-13236
Laid	-13237
ROME	-13238
Real	-13239
TAIN	-13240
Verb	-13241
alam	-13242
atar	-13243
auge	-13244
aver	-13245
fair	-13246
fari	-13247
ghan	-13248
gran	-13249
icks	-13250
mika	-13251
ndit	-13252
neth	-13253
olog	-13254
prox	-13255
seum	-13256
trin	-13257
tube	-13258
yste	-13259
▁"9-	-13260
▁'95	-13261
▁130	-13262
▁927	-13263
▁ACT	-13264
▁Ben	-13265
▁Che	-13266
▁Nov	-13267
▁Run	-13268
▁VAR	-13269
▁War	-13270
▁dam	-13271
▁ken	-13272
▁vie	-13273
(10))	-13274
08'))	-13275
12-31	-13276
35'))	-13277
COLUM	-13278
RICUL	-13279
arach	-13280
arrow	-13281
asaki	-13282
fecti	-13283
inion	-13284
ipine	-13285
movie	-13286
ntemp	-13287
retti	-13288
tario	-13289
tommy	-13290
using	-13291
▁"175	-13292
▁"18"	-13293
▁"182	-13294
▁"21"	-13295
▁"250	-13296
▁"86"	-13297
▁''),	-13298
▁'-10	-13299
▁'79'	-13300
▁1964	-13301
▁1971	-13302
▁2018	-13303
▁EYES	-13304
▁Rece	-13305
▁SYND	-13306
▁TACH	-13307
▁copa	-13308
▁half	-13309
▁secs	-13310
123'))	-13311
Annual	-13312
Assets	-13313
Famous	-13314
Finals	-13315
Joseph	-13316
PITUIT	-13317
africa	-13318
lative	-13319
orsche	-13320
ragons	-13321
▁"2-1"	-13322
▁"3-0"	-13323
▁1989"	-13324
▁86400	-13325
▁BARRE	-13326
▁Games	-13327
▁Liber	-13328
▁broad	-13329
▁civil	-13330
▁gtype	-13331
▁named	-13332
▁resus	-13333
Alabama	-13334
Artwork	-13335
Buffalo	-13336
Formula	-13337
RICULAR	-13338
_203_72	-13339
_204_37	-13340
_204_72	-13341
actress	-13342
ibining	-13343
lateral	-13344
minutes	-13345
reshold	-13346
results	-13347
stimate	-13348
tadores	-13349
vitamin	-13350
▁"1992"	-13351
▁"2151"	-13352
▁"2162"	-13353
▁"2175"	-13354
▁"2195"	-13355
▁'015-5	-13356
▁'017-2	-13357
▁'025-2	-13358
▁'1964'	-13359
▁'1972'	-13360
▁Church	-13361
▁Harris	-13362
▁colour	-13363
▁insert	-13364
▁saints	-13365
▁trauma	-13366
▁visits	-13367
Cardinal	-13368
Coronary	-13369
GUILLAIN	-13370
Platelet	-13371
_1965650	-13372
_2850912	-13373
fectious	-13374
finalist	-13375
premiere	-13376
producer	-13377
tainment	-13378
▁'033-22	-13379
▁Pending	-13380
▁popular	-13381
PITUITARY	-13382
champions	-13383
christian	-13384
finalists	-13385
milwaukee	-13386
newcastle	-13387
structive	-13388
▁"2112.0"	-13389
▁'030-534	-13390
▁Campbell	-13391
▁Mailshot	-13392
▁SYNDROME	-13393
▁TagBased	-13394
▁coliseum	-13395
▁marathon	-13396
▁mellitus	-13397
▁myAnswer	-13398
▁policies	-13399
▁reviewer	-13400
analgesics	-13401
▁Downvotes	-13402
▁basePrice	-13403
VENTRICULAR	-13404
▁complaints	-13405
▁partnering	-13406
▁TACHYCARDIA	-13407
▁allergytype	-13408
Semifinalists	-13409
▁'2019-01-01'	-13410
▁PendingFlags	-13411
▁'031-16123'))	-13412
▁RejectionDate	-13413
.%	-13414
6_	-13415
DD	-13416
Qs	-13417
TN	-13418
vy	-13419
%)'	-13420
(30	-13421
.0'	-13422
090	-13423
093	-13424
15,	-13425
2.7	-13426
33'	-13427
4-2	-13428
80'	-13429
ATB	-13430
Jer	-13431
Old	-13432
Sha	-13433
aaa	-13434
dnf	-13435
gor	-13436
hau	-13437
hgb	-13438
how	-13439
kas	-13440
liz	-13441
sab	-13442
tac	-13443
tai	-13444
tos	-13445
▁Ba	-13446
▁By	-13447
▁IV	-13448
▁LL	-13449
▁PM	-13450
▁hs	-13451
▁ka	-13452
▁tb	-13453
-19'	-13454
00_1	-13455
01))	-13456
07')	-13457
16_2	-13458
17_2	-13459
1871	-13460
1930	-13461
480"	-13462
91_2	-13463
Acco	-13464
Cong	-13465
ERIC	-13466
LETE	-13467
Live	-13468
Rick	-13469
Rock	-13470
Utah	-13471
arco	-13472
ashi	-13473
atia	-13474
atsu	-13475
ente	-13476
fiji	-13477
irit	-13478
lity	-13479
muno	-13480
thur	-13481
tide	-13482
vies	-13483
▁(1-	-13484
▁(19	-13485
▁156	-13486
▁202	-13487
▁528	-13488
▁594	-13489
▁Leg	-13490
▁McC	-13491
▁Mee	-13492
▁Ter	-13493
▁amt	-13494
▁bet	-13495
▁cle	-13496
▁den	-13497
▁dob	-13498
▁feb	-13499
▁kWh	-13500
▁rod	-13501
▁ton	-13502
'))))	-13503
Radio	-13504
Sigma	-13505
babwe	-13506
berta	-13507
colin	-13508
illis	-13509
marco	-13510
monte	-13511
tutor	-13512
ungar	-13513
viron	-13514
▁'-12	-13515
▁'23.	-13516
▁'74'	-13517
▁(7)'	-13518
▁1970	-13519
▁1982	-13520
▁Peak	-13521
▁Shop	-13522
▁good	-13523
▁self	-13524
▁side	-13525
▁tier	-13526
▁ties	-13527
▁verb	-13528
Dallas	-13529
Steals	-13530
_27734	-13531
factor	-13532
golden	-13533
helial	-13534
irtual	-13535
laware	-13536
owment	-13537
rizona	-13538
roxine	-13539
seases	-13540
sembly	-13541
vement	-13542
▁'0-1'	-13543
▁1990'	-13544
▁1995'	-13545
▁Music	-13546
▁Sales	-13547
▁story	-13548
Example	-13549
License	-13550
Patrick	-13551
_204_38	-13552
_204_56	-13553
fastest	-13554
feature	-13555
hythmic	-13556
imbabwe	-13557
layalam	-13558
lucagon	-13559
maining	-13560
masters	-13561
▁"9:00"	-13562
▁Miller	-13563
▁PostNo	-13564
▁System	-13565
▁TRANSA	-13566
▁europe	-13567
▁pinyin	-13568
Internet	-13569
_1342013	-13570
columbia	-13571
expenses	-13572
ferences	-13573
molality	-13574
motidine	-13575
olarship	-13576
perience	-13577
propofol	-13578
▁Mission	-13579
▁Problem	-13580
▁Upvotes	-13581
▁british	-13582
▁opening	-13583
▁profile	-13584
▁ringers	-13585
▁systems	-13586
▁voltage	-13587
Celebrity	-13588
ffiliated	-13589
journalid	-13590
liverpool	-13591
louisiana	-13592
▁'007-158	-13593
▁campbell	-13594
▁religion	-13595
▁thompson	-13596
calculated	-13597
eliminated	-13598
qualifying	-13599
▁'2105-06'	-13600
▁Grizzlies	-13601
▁socialist	-13602
▁withdrawn	-13603
Comptroller	-13604
CountryName	-13605
affiliation	-13606
▁Tournament	-13607
▁convention	-13608
▁myocardial	-13609
▁termination	-13610
▁TRANSACTIONS	-13611
administration	-13612
,9	-13613
/5	-13614
CV	-13615
DX	-13616
Er	-13617
FK	-13618
nc	-13619
rb	-13620
2%"	-13621
25'	-13622
553	-13623
556	-13624
6)'	-13625
653	-13626
7%"	-13627
878	-13628
AIR	-13629
Abn	-13630
Ang	-13631
Chr	-13632
Fix	-13633
Mac	-13634
Mer	-13635
POX	-13636
Que	-13637
SEG	-13638
dig	-13639
fol	-13640
gee	-13641
lux	-13642
shu	-13643
tri	-13644
–5"	-13645
–5,	-13646
▁01	-13647
▁7.	-13648
▁Ft	-13649
▁Gu	-13650
▁IM	-13651
▁Ke	-13652
▁VE	-13653
▁cu	-13654
▁it	-13655
(1.0	-13656
09_2	-13657
12_2	-13658
2332	-13659
48_2	-13660
5784	-13661
97_1	-13662
:30'	-13663
Auck	-13664
Cost	-13665
Dist	-13666
Fire	-13667
Iden	-13668
MESE	-13669
Mont	-13670
Rain	-13671
SCOP	-13672
Tour	-13673
assi	-13674
beta	-13675
caps	-13676
clim	-13677
cock	-13678
duke	-13679
giro	-13680
iami	-13681
imit	-13682
lach	-13683
mong	-13684
obac	-13685
ocia	-13686
poly	-13687
rico	-13688
span	-13689
tels	-13690
todd	-13691
trop	-13692
vine	-13693
▁"47	-13694
▁'$.	-13695
▁'54	-13696
▁'87	-13697
▁139	-13698
▁19.	-13699
▁215	-13700
▁222	-13701
▁650	-13702
▁Lab	-13703
▁Oct	-13704
▁RFC	-13705
▁Roc	-13706
▁San	-13707
▁Stu	-13708
▁Sup	-13709
▁Wil	-13710
▁ear	-13711
▁fri	-13712
▁ghz	-13713
▁ner	-13714
▁pas	-13715
▁pav	-13716
▁pct	-13717
▁sat	-13718
BOWEL	-13719
GANGR	-13720
HYPER	-13721
HYPOX	-13722
Human	-13723
_2503	-13724
aking	-13725
asone	-13726
aston	-13727
colon	-13728
deral	-13729
itive	-13730
micin	-13731
nifer	-13732
notre	-13733
offic	-13734
prime	-13735
prote	-13736
udges	-13737
▁'15,	-13738
▁'67-	-13739
▁'84'	-13740
▁8116	-13741
▁Lots	-13742
▁Tech	-13743
▁euro	-13744
▁mary	-13745
▁meds	-13746
▁twee	-13747
▁vale	-13748
07-01'	-13749
201349	-13750
Design	-13751
Endosc	-13752
Golden	-13753
Labour	-13754
MESENT	-13755
_13423	-13756
_14342	-13757
centre	-13758
covery	-13759
dified	-13760
kelson	-13761
onesia	-13762
ranger	-13763
riving	-13764
stress	-13765
tistid	-13766
titute	-13767
unspec	-13768
volved	-13769
▁"5125	-13770
▁'102'	-13771
▁1967'	-13772
▁1990"	-13773
▁2000)	-13774
▁BLOCK	-13775
▁Issue	-13776
▁Round	-13777
▁Super	-13778
▁bname	-13779
▁refer	-13780
▁sound	-13781
Albumin	-13782
HYPOXIA	-13783
Houston	-13784
Innings	-13785
SEGMENT	-13786
TENSION	-13787
_203_22	-13788
_203_76	-13789
_204_93	-13790
allarat	-13791
anthony	-13792
atremia	-13793
cussion	-13794
genreid	-13795
opening	-13796
primary	-13797
tamicin	-13798
tomatic	-13799
▁"1821"	-13800
▁"2139"	-13801
▁"2144"	-13802
▁"2154"	-13803
▁"2190"	-13804
▁200000	-13805
▁romaji	-13806
▁sample	-13807
▁walker	-13808
Answered	-13809
Auckland	-13810
GANGRENE	-13811
Garfield	-13812
cerebral	-13813
istricts	-13814
maryland	-13815
ribution	-13816
▁'021-11	-13817
▁Advisor	-13818
▁Doubles	-13819
▁License	-13820
▁Orlando	-13821
▁Pleural	-13822
▁Rockets	-13823
▁digital	-13824
▁ratings	-13825
▁started	-13826
▁tonnage	-13827
01-01##')	-13828
Milwaukee	-13829
Prolonged	-13830
STRUCTION	-13831
arachnoid	-13832
customers	-13833
kesperson	-13834
prolonged	-13835
withdrawn	-13836
▁"2158.0"	-13837
▁"2183.0"	-13838
▁'027-136	-13839
▁Activity	-13840
▁CORONARY	-13841
▁December	-13842
▁ISCHEMIA	-13843
▁PATINDEX	-13844
▁hamilton	-13845
▁incident	-13846
▁michigan	-13847
▁released	-13848
▁reserved	-13849
Categories	-13850
MESENTERIC	-13851
ntemporary	-13852
ticulocyte	-13853
▁'022-1871	-13854
▁ELEVATION	-13855
▁cardinals	-13856
▁companies	-13857
▁household	-13858
▁magnitude	-13859
▁presenter	-13860
hydrogenase	-13861
▁conditions	-13862
HYPERTENSION	-13863
Registration	-13864
constituency	-13865
▁OBSTRUCTION	-13866
▁application	-13867
RejectionDate	-13868
▁'2015-01-01'	-13869
4_	-13870
Go	-13871
KF	-13872
Sw	-13873
gg	-13874
rk	-13875
sg	-13876
zh	-13877
(6,	-13878
-5'	-13879
.*,	-13880
0.4	-13881
12,	-13882
250	-13883
650	-13884
75"	-13885
846	-13886
CID	-13887
Dam	-13888
Est	-13889
ICS	-13890
LOG	-13891
Lap	-13892
ROW	-13893
You	-13894
aus	-13895
iff	-13896
jen	-13897
neo	-13898
nol	-13899
pay	-13900
tox	-13901
zhe	-13902
▁El	-13903
▁Of	-13904
▁SR	-13905
▁fr	-13906
▁mu	-13907
▁ny	-13908
(7))	-13909
-21"	-13910
02')	-13911
03))	-13912
22_1	-13913
372"	-13914
43_1	-13915
500'	-13916
66))	-13917
RIST	-13918
Seat	-13919
ULAR	-13920
_143	-13921
_153	-13922
_219	-13923
appy	-13924
auer	-13925
iler	-13926
jama	-13927
josh	-13928
mune	-13929
rane	-13930
ween	-13931
yang	-13932
▁"#_	-13933
▁"+1	-13934
▁(17	-13935
▁1),	-13936
▁115	-13937
▁213	-13938
▁267	-13939
▁498	-13940
▁499	-13941
▁5))	-13942
▁Bay	-13943
▁Des	-13944
▁cro	-13945
▁gil	-13946
▁hba	-13947
▁how	-13948
▁kno	-13949
▁ngc	-13950
▁rec	-13951
▁rnd	-13952
▁udn	-13953
(100)	-13954
04'))	-13955
32'))	-13956
38035	-13957
91'))	-13958
Asian	-13959
Bonus	-13960
Perth	-13961
Since	-13962
_2182	-13963
_2504	-13964
abuse	-13965
debut	-13966
esoph	-13967
fiber	-13968
igina	-13969
lavia	-13970
milan	-13971
punch	-13972
ragon	-13973
rella	-13974
ricks	-13975
stamp	-13976
▁'191	-13977
▁'25,	-13978
▁'75'	-13979
▁(7)"	-13980
▁1960	-13981
▁1965	-13982
▁1969	-13983
▁1973	-13984
▁2518	-13985
▁Port	-13986
▁Rock	-13987
▁bats	-13988
▁dame	-13989
▁guid	-13990
▁hire	-13991
▁ivpb	-13992
▁jerk	-13993
▁only	-13994
▁pate	-13995
▁shot	-13996
▁stom	-13997
▁stop	-13998
Former	-13999
_23292	-14000
athens	-14001
cardia	-14002
derick	-14003
graham	-14004
igures	-14005
joseph	-14006
kinson	-14007
packed	-14008
riders	-14009
sample	-14010
sville	-14011
tenure	-14012
tonnes	-14013
totals	-14014
▁'3-2'	-14015
▁(2009	-14016
▁1964'	-14017
▁Badge	-14018
▁Dates	-14019
▁tachy	-14020
▁width	-14021
▁wound	-14022
Claimed	-14023
LLATION	-14024
Stephen	-14025
Trainer	-14026
_197449	-14027
_203_17	-14028
_203_74	-14029
_204_48	-14030
albumid	-14031
beijing	-14032
grapher	-14033
invoice	-14034
johnson	-14035
lostomy	-14036
mediate	-14037
ousands	-14038
profile	-14039
rington	-14040
running	-14041
swimmer	-14042
vehicle	-14043
▁'1961'	-14044
▁'1973'	-14045
▁'2008-	-14046
▁Europe	-14047
▁Finals	-14048
▁excess	-14049
▁murphy	-14050
▁palmer	-14051
▁seated	-14052
COLUMBUS	-14053
Channels	-14054
Delegate	-14055
_1341663	-14056
_1342233	-14057
hamilton	-14058
luconate	-14059
tificate	-14060
zimbabwe	-14061
▁Founded	-14062
▁awarded	-14063
▁blocker	-14064
▁causing	-14065
▁cowboys	-14066
▁effects	-14067
▁netflix	-14068
▁nuclear	-14069
▁process	-14070
▁surname	-14071
Charlotte	-14072
Suppliers	-14073
_10015132	-14074
_11734041	-14075
_12962773	-14076
_28138035	-14077
iginalair	-14078
principal	-14079
wrestlers	-14080
▁Champion	-14081
▁embolism	-14082
▁internet	-14083
▁virginia	-14084
arrhythmic	-14085
utritional	-14086
▁aggregate	-14087
▁appointed	-14088
▁performed	-14089
Prothrombin	-14090
▁birthplace	-14091
vasopressors	-14092
▁settlements	-14093
▁LOCATIONalias	-14094
▁semifinalists	-14095
INSTRUCTORalias	-14096
▁ReviewTaskTypes	-14097
(5	-14098
Ot	-14099
WR	-14100
bd	-14101
cp	-14102
dx	-14103
mj	-14104
sm	-14105
sn	-14106
wi	-14107
–0	-14108
/02	-14109
/12	-14110
19)	-14111
21'	-14112
241	-14113
25)	-14114
659	-14115
674	-14116
75'	-14117
771	-14118
8%'	-14119
Act	-14120
CUL	-14121
Did	-14122
NEO	-14123
RBC	-14124
RIP	-14125
Rec	-14126
SEP	-14127
USD	-14128
aga	-14129
amy	-14130
bai	-14131
bos	-14132
hay	-14133
hma	-14134
hur	-14135
iii	-14136
iji	-14137
irr	-14138
isk	-14139
nat	-14140
oor	-14141
sar	-14142
–11	-14143
▁AA	-14144
▁AB	-14145
▁FI	-14146
▁az	-14147
12))	-14148
14_2	-14149
2.5'	-14150
27_1	-14151
45_2	-14152
48_1	-14153
57_2	-14154
66_1	-14155
70_1	-14156
85_1	-14157
ACID	-14158
Adam	-14159
BIOL	-14160
Brad	-14161
CIFI	-14162
ICAT	-14163
ISBN	-14164
REPA	-14165
acin	-14166
acob	-14167
auto	-14168
coed	-14169
gend	-14170
html	-14171
lead	-14172
marc	-14173
need	-14174
occo	-14175
stao	-14176
trig	-14177
turn	-14178
umin	-14179
unar	-14180
vans	-14181
vens	-14182
yaar	-14183
▁"0:	-14184
▁"87	-14185
▁'6,	-14186
▁(2-	-14187
▁0.1	-14188
▁122	-14189
▁134	-14190
▁141	-14191
▁207	-14192
▁275	-14193
▁282	-14194
▁296	-14195
▁32"	-14196
▁ARM	-14197
▁Bra	-14198
▁Cla	-14199
▁Cre	-14200
▁JUG	-14201
▁Mag	-14202
▁SPE	-14203
▁Two	-14204
▁bes	-14205
▁hip	-14206
▁lav	-14207
▁ntv	-14208
▁tot	-14209
▁tun	-14210
1415'	-14211
99'))	-14212
Clean	-14213
Metro	-14214
River	-14215
_1657	-14216
allel	-14217
carlo	-14218
denis	-14219
eddie	-14220
egypt	-14221
ffirm	-14222
flash	-14223
genic	-14224
lable	-14225
lyers	-14226
nicks	-14227
odiac	-14228
onard	-14229
pedro	-14230
phill	-14231
ssell	-14232
swift	-14233
thard	-14234
▁"10.	-14235
▁"12-	-14236
▁"13.	-14237
▁'25.	-14238
▁'68-	-14239
▁2500	-14240
▁400)	-14241
▁8016	-14242
▁Aust	-14243
▁DRIP	-14244
▁INFE	-14245
▁TONG	-14246
▁VEIN	-14247
▁acid	-14248
▁adhe	-14249
▁coul	-14250
▁male	-14251
▁supp	-14252
▁tart	-14253
0,000'	-14254
CIFIED	-14255
COLANG	-14256
Church	-14257
Indian	-14258
POSTER	-14259
SEPSIS	-14260
UNICAT	-14261
alliga	-14262
braska	-14263
dience	-14264
editor	-14265
engals	-14266
gameid	-14267
ifying	-14268
iggins	-14269
lazers	-14270
livery	-14271
nights	-14272
plants	-14273
reland	-14274
▁12775	-14275
▁1983'	-14276
▁ACTOR	-14277
▁EDEMA	-14278
▁WOUND	-14279
▁fight	-14280
▁irwin	-14281
▁lives	-14282
▁perth	-14283
▁trial	-14284
▁wells	-14285
Heparin	-14286
STERNAL	-14287
_204_36	-14288
animous	-14289
hamburg	-14290
ideline	-14291
issions	-14292
itchell	-14293
izabeth	-14294
jacques	-14295
madison	-14296
morrhag	-14297
thyroid	-14298
▁"2152"	-14299
▁"2155"	-14300
▁"2174"	-14301
▁"2178"	-14302
▁"2198"	-14303
▁"2203"	-14304
▁'1958'	-14305
▁'2004-	-14306
▁Artist	-14307
▁Bounty	-14308
▁access	-14309
▁canada	-14310
▁palace	-14311
▁spinal	-14312
▁tweets	-14313
ACIDOSIS	-14314
AsstProf	-14315
COMPLETE	-14316
clerosis	-14317
jonathan	-14318
patients	-14319
personal	-14320
swimsuit	-14321
▁'006-14	-14322
▁'006-47	-14323
▁America	-14324
▁Channel	-14325
▁JUGULAR	-14326
▁america	-14327
▁ireland	-14328
▁questao	-14329
▁roberts	-14330
▁trainer	-14331
▁vikings	-14332
Challenge	-14333
Furniture	-14334
POSTERIOR	-14335
UNICATING	-14336
_23292220	-14337
requested	-14338
singapore	-14339
▁"2148.0"	-14340
▁"2168.0"	-14341
▁"2180.0"	-14342
▁Broadway	-14343
▁Database	-14344
▁INTERNAL	-14345
▁circuits	-14346
▁hospital	-14347
COLANGITIS	-14348
Calculated	-14349
Creatinine	-14350
auguration	-14351
dependence	-14352
exhibition	-14353
ffirmative	-14354
▁INFECTION	-14355
▁SPECIFIED	-14356
▁September	-14357
▁placement	-14358
▁recipient	-14359
mississippi	-14360
▁australian	-14361
▁ultrasound	-14362
ircumstances	-14363
▁gastrostomy	-14364
▁prothrombin	-14365
registrations	-14366
▁'006-161415'	-14367
▁AIRCRAFTalias	-14368
▁COMMUNICATING	-14369
▁entertainment	-14370
Am	-14371
EA	-14372
Ra	-14373
fk	-14374
kk	-14375
("%	-14376
("2	-14377
01.	-14378
10)	-14379
16.	-14380
24,	-14381
509	-14382
550	-14383
6%"	-14384
60'	-14385
66'	-14386
660	-14387
861	-14388
870	-14389
95)	-14390
:59	-14391
AND	-14392
Adv	-14393
CTE	-14394
Cur	-14395
FCC	-14396
Ice	-14397
Ins	-14398
KER	-14399
adv	-14400
bri	-14401
dfp	-14402
fax	-14403
gas	-14404
occ	-14405
sip	-14406
www	-14407
ysm	-14408
–19	-14409
▁Ri	-14410
▁Vt	-14411
▁nc	-14412
▁ps	-14413
-23"	-14414
13')	-14415
1652	-14416
31_1	-14417
Hand	-14418
NODE	-14419
Sets	-14420
_10_	-14421
_190	-14422
ablo	-14423
atus	-14424
bens	-14425
chie	-14426
fuel	-14427
holm	-14428
jerk	-14429
kees	-14430
lett	-14431
micu	-14432
nets	-14433
noun	-14434
orab	-14435
pens	-14436
peru	-14437
rics	-14438
robo	-14439
rous	-14440
seiz	-14441
sent	-14442
sold	-14443
step	-14444
ulli	-14445
vino	-14446
wolf	-14447
zhou	-14448
▁"98	-14449
▁'+1	-14450
▁'04	-14451
▁'0:	-14452
▁'96	-14453
▁'98	-14454
▁(27	-14455
▁112	-14456
▁13.	-14457
▁15-	-14458
▁301	-14459
▁548	-14460
▁Cle	-14461
▁Ken	-14462
▁Lin	-14463
▁VOT	-14464
▁ang	-14465
▁ant	-14466
▁fcc	-14467
▁mis	-14468
▁nde	-14469
▁she	-14470
▁syn	-14471
▁tap	-14472
▁url	-14473
47'))	-14474
>%'))	-14475
Found	-14476
Tracy	-14477
Tyres	-14478
_1708	-14479
_2318	-14480
aaron	-14481
angul	-14482
apter	-14483
atian	-14484
aturn	-14485
avier	-14486
broad	-14487
cents	-14488
check	-14489
cogni	-14490
ental	-14491
found	-14492
gress	-14493
ianza	-14494
iving	-14495
loven	-14496
odila	-14497
phils	-14498
ronun	-14499
ughes	-14500
urysm	-14501
vival	-14502
▁"18-	-14503
▁"185	-14504
▁"63"	-14505
▁'%')	-14506
▁'13,	-14507
▁'29.	-14508
▁1972	-14509
▁2100	-14510
▁Clar	-14511
▁Greg	-14512
▁John	-14513
▁dome	-14514
▁item	-14515
▁plas	-14516
▁span	-14517
▁syst	-14518
▁vein	-14519
Brazil	-14520
Modern	-14521
_202_1	-14522
_21436	-14523
_26375	-14524
_28974	-14525
aneiro	-14526
atinum	-14527
dances	-14528
ercise	-14529
igeria	-14530
injury	-14531
keeper	-14532
minees	-14533
porter	-14534
spring	-14535
writer	-14536
ysical	-14537
▁"1-1"	-14538
▁"1999	-14539
▁"2-0"	-14540
▁'200'	-14541
▁1964"	-14542
▁1981'	-14543
▁1988'	-14544
▁500))	-14545
▁Gross	-14546
▁Track	-14547
▁beare	-14548
▁began	-14549
▁cache	-14550
▁image	-14551
▁spain	-14552
▁urban	-14553
Anthony	-14554
Banking	-14555
Keyword	-14556
Liberal	-14557
Profits	-14558
_172888	-14559
_203_16	-14560
_203_35	-14561
_204_46	-14562
awasaki	-14563
entries	-14564
hepatic	-14565
olation	-14566
popular	-14567
runners	-14568
sembled	-14569
▁"1846"	-14570
▁"1987"	-14571
▁'027-8	-14572
▁Thomas	-14573
▁french	-14574
▁genres	-14575
▁german	-14576
▁issued	-14577
▁marrow	-14578
▁moscow	-14579
▁norman	-14580
▁pancre	-14581
▁target	-14582
▁tenure	-14583
Altitude	-14584
Canadian	-14585
Edmonton	-14586
Graphics	-14587
ashville	-14588
essional	-14589
families	-14590
invasive	-14591
lactated	-14592
memorial	-14593
odilator	-14594
semantic	-14595
vastatin	-14596
▁'006-10	-14597
▁(2012)"	-14598
▁England	-14599
▁Kingdom	-14600
▁browser	-14601
▁comment	-14602
▁degrees	-14603
▁largest	-14604
▁mintage	-14605
▁ndecore	-14606
▁seating	-14607
▁shooter	-14608
▁trevino	-14609
▁vessels	-14610
▁village	-14611
Recipient	-14612
adventure	-14613
pithelial	-14614
▁'013-338	-14615
▁delegate	-14616
▁overdose	-14617
▁solution	-14618
Simplified	-14619
▁Residents	-14620
▁arteriogr	-14621
▁celebrity	-14622
▁endowment	-14623
▁gluconate	-14624
▁hepatitis	-14625
▁Medication	-14626
▁Statements	-14627
intracranial	-14628
ronunciation	-14629
▁instruments	-14630
iginalairdate	-14631
▁'2018-01-01'	-14632
▁TotalAnswers	-14633
▁ndecoreexcel	-14634
▁Headquartered	-14635
*'	-14636
+'	-14637
BW	-14638
DW	-14639
Da	-14640
bb	-14641
nh	-14642
("3	-14643
-6,	-14644
279	-14645
28,	-14646
5%'	-14647
651	-14648
9_9	-14649
Ear	-14650
Fri	-14651
Gru	-14652
HOL	-14653
MOD	-14654
NCO	-14655
Opn	-14656
Roy	-14657
SQU	-14658
STD	-14659
Sky	-14660
War	-14661
abs	-14662
agh	-14663
bet	-14664
blo	-14665
bug	-14666
dno	-14667
flo	-14668
ily	-14669
kil	-14670
lbs	-14671
mur	-14672
oba	-14673
rak	-14674
saw	-14675
ssl	-14676
uno	-14677
ups	-14678
yel	-14679
–7)	-14680
▁6.	-14681
▁Bu	-14682
▁TU	-14683
▁kg	-14684
-70-	-14685
012"	-14686
0711	-14687
1432	-14688
200'	-14689
53_1	-14690
85_2	-14691
94_3	-14692
ANSI	-14693
BREA	-14694
BUCC	-14695
Bats	-14696
HDTV	-14697
IRUS	-14698
Iron	-14699
SALE	-14700
Tier	-14701
_139	-14702
_189	-14703
anga	-14704
ases	-14705
aves	-14706
fael	-14707
hind	-14708
idad	-14709
indi	-14710
just	-14711
onas	-14712
riff	-14713
thai	-14714
tons	-14715
umul	-14716
urea	-14717
wayn	-14718
▁'–'	-14719
▁(40	-14720
▁(5-	-14721
▁114	-14722
▁148	-14723
▁2),	-14724
▁227	-14725
▁398	-14726
▁96+	-14727
▁Hor	-14728
▁cli	-14729
▁cop	-14730
▁fem	-14731
▁hem	-14732
▁mad	-14733
▁nba	-14734
▁ops	-14735
▁ros	-14736
▁roy	-14737
▁vin	-14738
▁wil	-14739
36'))	-14740
AMOUS	-14741
Andre	-14742
HOLIC	-14743
HUMAN	-14744
Hydro	-14745
Intra	-14746
KFAST	-14747
Monte	-14748
Organ	-14749
Percu	-14750
Royal	-14751
Short	-14752
_1195	-14753
_1494	-14754
_1710	-14755
_2248	-14756
_2753	-14757
avant	-14758
damon	-14759
derby	-14760
dited	-14761
domin	-14762
farin	-14763
icard	-14764
lback	-14765
linda	-14766
nchez	-14767
quest	-14768
small	-14769
ssels	-14770
stein	-14771
unist	-14772
▁"518	-14773
▁(0),	-14774
▁(5)'	-14775
▁1930	-14776
▁1958	-14777
▁6–1,	-14778
▁CELL	-14779
▁Fore	-14780
▁HANG	-14781
▁IMMU	-14782
▁ORAL	-14783
▁Room	-14784
▁trig	-14785
Albert	-14786
Atrial	-14787
Austin	-14788
BERCUL	-14789
BUCCAL	-14790
Blocks	-14791
CINOMA	-14792
Cardio	-14793
FIENCY	-14794
Lowest	-14795
MITRAL	-14796
REPAIR	-14797
Russia	-14798
SEPTAL	-14799
Sawayn	-14800
analog	-14801
bolton	-14802
cester	-14803
chanan	-14804
degree	-14805
fourth	-14806
groups	-14807
inogen	-14808
kaline	-14809
labour	-14810
lected	-14811
micole	-14812
ometry	-14813
puties	-14814
puting	-14815
quebec	-14816
sloven	-14817
stants	-14818
suzuki	-14819
verted	-14820
wedish	-14821
ynamic	-14822
▁"3–6,	-14823
▁'1.0'	-14824
▁'1–0'	-14825
▁'2009	-14826
▁'3–6,	-14827
▁92788	-14828
▁Texas	-14829
▁VIRUS	-14830
▁Whole	-14831
▁claim	-14832
▁clean	-14833
▁david	-14834
▁floyd	-14835
▁grant	-14836
▁india	-14837
▁lacer	-14838
▁reign	-14839
▁relay	-14840
▁sites	-14841
▁tyres	-14842
▁yacht	-14843
Janessa	-14844
Surname	-14845
Tuesday	-14846
Voltage	-14847
_203_75	-14848
_203_77	-14849
alberto	-14850
cortico	-14851
digital	-14852
icillin	-14853
lacings	-14854
llision	-14855
phritis	-14856
regular	-14857
testing	-14858
ticemia	-14859
ukraine	-14860
▁"2009-	-14861
▁"2058"	-14862
▁"2060"	-14863
▁"2065"	-14864
▁"2087"	-14865
▁"2089"	-14866
▁"2166"	-14867
▁"2177"	-14868
▁"2179"	-14869
▁'012-2	-14870
▁'022-6	-14871
▁'1955'	-14872
▁'1969'	-14873
▁'1975'	-14874
▁'2007-	-14875
▁'2009-	-14876
▁ATRIAL	-14877
▁Active	-14878
▁SEPTAL	-14879
▁TONGUE	-14880
▁Taylor	-14881
▁ethnic	-14882
▁junior	-14883
▁strike	-14884
CATHOLIC	-14885
Composer	-14886
European	-14887
Finished	-14888
SQUAMOUS	-14889
Southern	-14890
_1341472	-14891
_1342256	-14892
_2226817	-14893
iseconds	-14894
ogastric	-14895
ological	-14896
volution	-14897
▁"18480"	-14898
▁'004-64	-14899
▁'031-22	-14900
▁'035-24	-14901
▁HANGING	-14902
▁Protein	-14903
▁Raceway	-14904
▁bedtype	-14905
▁greater	-14906
▁players	-14907
▁removal	-14908
▁ventric	-14909
▁wedding	-14910
Appointed	-14911
BREAKFAST	-14912
Bilirubin	-14913
UnitPrice	-14914
_21436373	-14915
_26375386	-14916
charlotte	-14917
petitions	-14918
▁"2133.0"	-14919
▁"2179.0"	-14920
▁(2010)")	-14921
▁IMMUNODE	-14922
▁National	-14923
▁TUBERCUL	-14924
▁composer	-14925
▁hemicole	-14926
▁internal	-14927
▁research	-14928
▁resident	-14929
▁tartrate	-14930
▁wildcats	-14931
QuestionId	-14932
retirement	-14933
▁'027-2034	-14934
▁'2105-02'	-14935
▁'2105-09'	-14936
▁CARCINOMA	-14937
▁coulthard	-14938
▁operation	-14939
connections	-14940
ircumcision	-14941
maintenance	-14942
transferase	-14943
▁Complaints	-14944
▁mechanical	-14945
▁interaction	-14946
▁motorsports	-14947
▁RevisionGUID	-14948
▁TUBERCULOSIS	-14949
▁participants	-14950
thromboplastin	-14951
▁'005-77687'))	-14952
▁TargetTagName	-14953
▁IMMUNODEFIENCY	-14954
▁thromboplastin	-14955
DF	-14956
FM	-14957
Wk	-14958
sv	-14959
/10	-14960
06)	-14961
20'	-14962
21"	-14963
260	-14964
3)'	-14965
36)	-14966
39"	-14967
40'	-14968
623	-14969
63'	-14970
661	-14971
663	-14972
882	-14973
884	-14974
892	-14975
90"	-14976
DVD	-14977
ITV	-14978
KNO	-14979
LIN	-14980
Ray	-14981
Ren	-14982
VAL	-14983
Wim	-14984
_1)	-14985
dds	-14986
dfl	-14987
dur	-14988
elu	-14989
ffy	-14990
gie	-14991
ogs	-14992
pra	-14993
rap	-14994
sir	-14995
sti	-14996
vit	-14997
▁(>	-14998
▁RT	-14999
▁SH	-15000
▁dx	-15001
▁et	-15002
▁fp	-15003
▁hm	-15004
▁lt	-15005
-69-	-15006
0500	-15007
2592	-15008
25_1	-15009
49_1	-15010
75_1	-15011
82_1	-15012
HOUR	-15013
Legs	-15014
Sign	-15015
Solo	-15016
_230	-15017
_311	-15018
_3__	-15019
_411	-15020
_511	-15021
_611	-15022
_711	-15023
abri	-15024
aulo	-15025
beth	-15026
cale	-15027
dest	-15028
dmii	-15029
engu	-15030
iani	-15031
iled	-15032
illo	-15033
imus	-15034
into	-15035
leng	-15036
lows	-15037
namo	-15038
okie	-15039
ourg	-15040
rade	-15041
sant	-15042
sier	-15043
skip	-15044
ucla	-15045
wiki	-15046
▁"94	-15047
▁'40	-15048
▁(29	-15049
▁0.2	-15050
▁20-	-15051
▁266	-15052
▁308	-15053
▁6.5	-15054
▁Bru	-15055
▁Bur	-15056
▁Exp	-15057
▁Ham	-15058
▁LOG	-15059
▁Mer	-15060
▁PRO	-15061
▁afc	-15062
▁boy	-15063
▁cmp	-15064
▁ing	-15065
▁mes	-15066
▁mhz	-15067
▁sam	-15068
▁sev	-15069
▁sox	-15070
▁tan	-15071
▁tel	-15072
("199	-15073
01'))	-15074
2019-	-15075
46'))	-15076
Heart	-15077
Henry	-15078
Intro	-15079
Jamie	-15080
KNOWN	-15081
Night	-15082
Paper	-15083
Story	-15084
_1731	-15085
_2417	-15086
adult	-15087
ailey	-15088
arone	-15089
based	-15090
chief	-15091
clean	-15092
ische	-15093
ishes	-15094
jamin	-15095
minus	-15096
motor	-15097
moyer	-15098
nosis	-15099
paldi	-15100
queen	-15101
stown	-15102
terry	-15103
▁"40"	-15104
▁''))	-15105
▁'90'	-15106
▁(5)"	-15107
▁100,	-15108
▁12.0	-15109
▁1975	-15110
▁3–6"	-15111
▁3–6'	-15112
▁JSON	-15113
▁real	-15114
▁soap	-15115
988'))	-15116
Colors	-15117
Finale	-15118
Metres	-15119
Months	-15120
_18051	-15121
_19753	-15122
angers	-15123
bayern	-15124
codone	-15125
ermany	-15126
lowers	-15127
madrid	-15128
moorab	-15129
ouglas	-15130
periph	-15131
stable	-15132
terior	-15133
turkey	-15134
uation	-15135
ulitis	-15136
wegian	-15137
▁'1-2'	-15138
▁'1-3'	-15139
▁1,000	-15140
▁1976'	-15141
▁1981"	-15142
▁1983"	-15143
▁1987'	-15144
▁MinId	-15145
▁Short	-15146
▁about	-15147
▁bolus	-15148
▁edits	-15149
▁execu	-15150
▁royal	-15151
▁upper	-15152
▁watts	-15153
00,000'	-15154
Borough	-15155
Contact	-15156
Radical	-15157
UNKNOWN	-15158
_203_46	-15159
_204_47	-15160
belarus	-15161
evening	-15162
icester	-15163
lactate	-15164
leyball	-15165
matthew	-15166
numbers	-15167
partial	-15168
reactjs	-15169
surgery	-15170
tickets	-15171
zheimer	-15172
▁'1963'	-15173
▁'1965'	-15174
▁10855)	-15175
▁Valley	-15176
▁brazil	-15177
▁former	-15178
▁morris	-15179
▁native	-15180
▁stolen	-15181
▁tongue	-15182
Jonathan	-15183
Released	-15184
_2679061	-15185
atlantic	-15186
carolina	-15187
channels	-15188
cultures	-15189
igration	-15190
loplasty	-15191
seizures	-15192
timeslot	-15193
williams	-15194
▁'013-38	-15195
▁'017-16	-15196
▁LATERAL	-15197
▁VARCHAR	-15198
▁canucks	-15199
▁checkin	-15200
▁details	-15201
▁monitor	-15202
_22815568	-15203
_25042332	-15204
americana	-15205
downvotes	-15206
iterature	-15207
ittipaldi	-15208
moorabbin	-15209
presenter	-15210
scientist	-15211
tizenship	-15212
▁'007-165	-15213
▁'031-196	-15214
▁'031-245	-15215
▁LastName	-15216
▁PostType	-15217
▁abnormal	-15218
▁aneurysm	-15219
▁canadian	-15220
▁moderate	-15221
▁nitrogen	-15222
▁response	-15223
▁supplier	-15224
▁timeslot	-15225
additional	-15226
opposition	-15227
▁'027-1652	-15228
▁malignant	-15229
▁satellite	-15230
allergytype	-15231
▁FirstPosts	-15232
▁instrument	-15233
▁withdrawal	-15234
Agricultural	-15235
▁engineering	-15236
▁programming	-15237
▁therapeutic	-15238
Registrations	-15239
▁UserReputation	-15240
GN	-15241
LB	-15242
RR	-15243
kb	-15244
lj	-15245
uj	-15246
vp	-15247
xt	-15248
'."	-15249
.5"	-15250
.8'	-15251
/03	-15252
/08	-15253
256	-15254
4%"	-15255
549	-15256
69'	-15257
7)"	-15258
7)'	-15259
77"	-15260
=13	-15261
Ask	-15262
CON	-15263
DWE	-15264
Hor	-15265
Off	-15266
One	-15267
PPP	-15268
Ron	-15269
SDH	-15270
Who	-15271
ake	-15272
bah	-15273
cbs	-15274
cht	-15275
fcd	-15276
fib	-15277
got	-15278
hot	-15279
kir	-15280
kon	-15281
lli	-15282
lus	-15283
ngo	-15284
odd	-15285
sim	-15286
tsu	-15287
uto	-15288
you	-15289
–14	-15290
▁".	-15291
▁CV	-15292
▁FM	-15293
▁HD	-15294
▁hp	-15295
▁rr	-15296
▁sm	-15297
(4))	-15298
-71-	-15299
12')	-15300
1227	-15301
14_3	-15302
30_2	-15303
47_2	-15304
81_1	-15305
84_1	-15306
9597	-15307
98')	-15308
Alan	-15309
Fore	-15310
Hist	-15311
Jerk	-15312
Milk	-15313
PROT	-15314
Phil	-15315
Poli	-15316
RUSS	-15317
TELE	-15318
THER	-15319
adow	-15320
bham	-15321
bird	-15322
boro	-15323
bush	-15324
cold	-15325
dean	-15326
eing	-15327
ello	-15328
ibbe	-15329
ible	-15330
iers	-15331
ious	-15332
ishi	-15333
jeld	-15334
juno	-15335
loon	-15336
mera	-15337
moto	-15338
mslm	-15339
mund	-15340
ndan	-15341
neil	-15342
ples	-15343
rscl	-15344
stem	-15345
unis	-15346
utah	-15347
vian	-15348
witt	-15349
ysts	-15350
▁"3,	-15351
▁"96	-15352
▁'7,	-15353
▁'92	-15354
▁(25	-15355
▁(4-	-15356
▁(68	-15357
▁(77	-15358
▁(84	-15359
▁-10	-15360
▁212	-15361
▁214	-15362
▁216	-15363
▁268	-15364
▁280	-15365
▁310	-15366
▁50)	-15367
▁867	-15368
▁CTE	-15369
▁III	-15370
▁Men	-15371
▁Pop	-15372
▁QUA	-15373
▁Rad	-15374
▁ace	-15375
▁alf	-15376
▁bad	-15377
▁hot	-15378
▁sab	-15379
▁usr	-15380
##'))	-15381
00109	-15382
2020"	-15383
Balls	-15384
Brown	-15385
Clara	-15386
FEMOR	-15387
METRY	-15388
Miami	-15389
Mount	-15390
NCOPE	-15391
Table	-15392
_2772	-15393
after	-15394
ament	-15395
antic	-15396
arton	-15397
cious	-15398
danny	-15399
espan	-15400
essel	-15401
gover	-15402
grape	-15403
ifier	-15404
lermo	-15405
multi	-15406
onaco	-15407
pName	-15408
rayed	-15409
recap	-15410
skins	-15411
smith	-15412
there	-15413
thora	-15414
valve	-15415
velty	-15416
xemia	-15417
▁"509	-15418
▁'106	-15419
▁'24,	-15420
▁'28.	-15421
▁'39.	-15422
▁'88'	-15423
▁(4)'	-15424
▁Blue	-15425
▁Dill	-15426
▁Orig	-15427
▁Size	-15428
▁arth	-15429
▁auto	-15430
▁gran	-15431
▁hard	-15432
▁more	-15433
▁vssl	-15434
Astrid	-15435
ESTANT	-15436
Edward	-15437
Europe	-15438
Howard	-15439
Trofeo	-15440
Walter	-15441
atches	-15442
coccal	-15443
edward	-15444
ielder	-15445
iseach	-15446
itions	-15447
jackie	-15448
jordan	-15449
letter	-15450
lombia	-15451
manuel	-15452
mussen	-15453
native	-15454
parate	-15455
psycho	-15456
tition	-15457
▁"0-1"	-15458
▁"2005	-15459
▁"3-2"	-15460
▁1979'	-15461
▁1984'	-15462
▁1986'	-15463
▁COLON	-15464
▁Clean	-15465
▁Field	-15466
▁James	-15467
▁SHARE	-15468
▁allen	-15469
▁blues	-15470
▁later	-15471
▁latin	-15472
▁lewis	-15473
▁natve	-15474
▁tuser	-15475
Bowling	-15476
Control	-15477
FEMORAL	-15478
Lactate	-15479
Phoenix	-15480
SYNCOPE	-15481
Scorers	-15482
_203_28	-15483
_204_15	-15484
_204_65	-15485
brabham	-15486
derland	-15487
desliga	-15488
enguins	-15489
example	-15490
highest	-15491
lations	-15492
paratus	-15493
podiums	-15494
private	-15495
related	-15496
tropium	-15497
vietnam	-15498
▁"1986"	-15499
▁"2007-	-15500
▁"2007\	-15501
▁"2071"	-15502
▁"8968"	-15503
▁'004-2	-15504
▁Capita	-15505
▁QUAKER	-15506
▁Snatch	-15507
▁colors	-15508
▁graham	-15509
▁jordan	-15510
▁mitral	-15511
▁social	-15512
▁thomas	-15513
▁trache	-15514
Diabetes	-15515
Payments	-15516
Required	-15517
_1341930	-15518
_1342149	-15519
_1342218	-15520
__2010_)	-15521
ampshire	-15522
artistid	-15523
bookings	-15524
canadian	-15525
cardinal	-15526
catheter	-15527
composer	-15528
estimate	-15529
external	-15530
hardware	-15531
itecture	-15532
latelets	-15533
ortheast	-15534
previous	-15535
projects	-15536
▁"18372"	-15537
▁"21796"	-15538
▁'006-18	-15539
▁'027-85	-15540
▁Classic	-15541
▁Ratings	-15542
▁Studies	-15543
▁Toronto	-15544
▁athrscl	-15545
▁feature	-15546
▁founder	-15547
▁members	-15548
▁reports	-15549
▁western	-15550
Cleveland	-15551
Malignant	-15552
Principal	-15553
TELEMETRY	-15554
Withdrawn	-15555
arrowhead	-15556
cientific	-15557
magnitude	-15558
▁"2154.0"	-15559
▁"2164.0"	-15560
▁"2165.0"	-15561
▁(2011)")	-15562
▁Chloride	-15563
▁Rankings	-15564
▁TagCount	-15565
▁altitude	-15566
▁clinical	-15567
▁dolphins	-15568
▁elevated	-15569
▁nicklaus	-15570
▁pictures	-15571
Bangladesh	-15572
Continuous	-15573
Exhibition	-15574
PROTESTANT	-15575
Qualifying	-15576
Restaurant	-15577
commercial	-15578
▁'2104-08'	-15579
▁'2105-05'	-15580
▁AccountId	-15581
▁Operating	-15582
▁alternate	-15583
▁circuitId	-15584
▁direction	-15585
▁freestyle	-15586
▁inhibitor	-15587
▁qualifier	-15588
▁reporters	-15589
▁sportname	-15590
Preliminary	-15591
▁discipline	-15592
▁prominence	-15593
▁thrombosis	-15594
Transmission	-15595
▁subcutaneous	-15596
▁organizations	-15597
,1	-15598
,3	-15599
CM	-15600
Ko	-15601
WO	-15602
WS	-15603
_,	-15604
04)	-15605
1.4	-15606
11)	-15607
240	-15608
261	-15609
271	-15610
437	-15611
47'	-15612
47)	-15613
540	-15614
57)	-15615
601	-15616
649	-15617
67'	-15618
670	-15619
85'	-15620
876	-15621
Bin	-15622
Dec	-15623
Len	-15624
Sol	-15625
alk	-15626
avi	-15627
caa	-15628
chl	-15629
div	-15630
eet	-15631
eva	-15632
geo	-15633
iah	-15634
iop	-15635
irl	-15636
jus	-15637
kot	-15638
nem	-15639
ptt	-15640
raj	-15641
sid	-15642
sri	-15643
uet	-15644
zek	-15645
▁bb	-15646
▁gb	-15647
▁hu	-15648
▁tg	-15649
-72-	-15650
090"	-15651
11_2	-15652
14))	-15653
28))	-15654
37_2	-15655
37_3	-15656
480'	-15657
67_2	-15658
94_1	-15659
Cath	-15660
Drop	-15661
Form	-15662
Gary	-15663
Glen	-15664
Java	-15665
_331	-15666
_391	-15667
_431	-15668
_491	-15669
_531	-15670
_591	-15671
_631	-15672
_691	-15673
_731	-15674
_791	-15675
__$_	-15676
alla	-15677
allo	-15678
anto	-15679
arks	-15680
both	-15681
chia	-15682
csru	-15683
dall	-15684
deep	-15685
igel	-15686
nacl	-15687
nout	-15688
phyl	-15689
raig	-15690
sand	-15691
seat	-15692
secu	-15693
shal	-15694
stic	-15695
sunk	-15696
umph	-15697
vasc	-15698
ways	-15699
wrex	-15700
york	-15701
▁"08	-15702
▁"1-	-15703
▁"–"	-15704
▁'%.	-15705
▁(21	-15706
▁(65	-15707
▁10.	-15708
▁109	-15709
▁119	-15710
▁165	-15711
▁232	-15712
▁295	-15713
▁3.0	-15714
▁407	-15715
▁599	-15716
▁698	-15717
▁968	-15718
▁Bul	-15719
▁DFL	-15720
▁Fer	-15721
▁Haw	-15722
▁LEN	-15723
▁MAR	-15724
▁Ran	-15725
▁SCI	-15726
▁Sud	-15727
▁Ten	-15728
▁bon	-15729
▁bou	-15730
▁bus	-15731
▁fel	-15732
▁fox	-15733
▁hiv	-15734
▁jen	-15735
▁mam	-15736
▁yan	-15737
03'))	-15738
42'))	-15739
42217	-15740
44'))	-15741
Blank	-15742
Chord	-15743
Overs	-15744
Tally	-15745
Voice	-15746
_1036	-15747
_1976	-15748
aging	-15749
amber	-15750
aorto	-15751
arynx	-15752
asian	-15753
athle	-15754
avior	-15755
duate	-15756
dural	-15757
frame	-15758
iasis	-15759
ierce	-15760
kenny	-15761
lboro	-15762
mysql	-15763
nergy	-15764
onvul	-15765
ponin	-15766
talia	-15767
▁"69"	-15768
▁"82"	-15769
▁'-15	-15770
▁'09-	-15771
▁'105	-15772
▁'26.	-15773
▁'41,	-15774
▁'82'	-15775
▁(9)"	-15776
▁(9)'	-15777
▁Clay	-15778
▁Qual	-15779
▁Road	-15780
▁coll	-15781
▁deli	-15782
▁gown	-15783
▁have	-15784
▁mass	-15785
▁sand	-15786
▁tons	-15787
▁your	-15788
Duplex	-15789
Philip	-15790
_13417	-15791
_25800	-15792
accept	-15793
azolam	-15794
brough	-15795
darren	-15796
dennis	-15797
giants	-15798
invent	-15799
israel	-15800
mother	-15801
norate	-15802
reason	-15803
tenham	-15804
tigers	-15805
typeid	-15806
▁"1–0"	-15807
▁'101'	-15808
▁'4-0'	-15809
▁(%)")	-15810
▁1965'	-15811
▁1967"	-15812
▁1968'	-15813
▁1984"	-15814
▁1987"	-15815
▁1991"	-15816
▁23070	-15817
▁25696	-15818
▁Chief	-15819
▁Peter	-15820
▁Point	-15821
▁aired	-15822
▁feeds	-15823
▁liber	-15824
▁login	-15825
▁panel	-15826
▁short	-15827
▁tubes	-15828
▁wales	-15829
2013100	-15830
Arizona	-15831
Matthew	-15832
Sponsor	-15833
_232858	-15834
abscess	-15835
advisor	-15836
akhstan	-15837
clemson	-15838
failure	-15839
hampton	-15840
mclaren	-15841
musical	-15842
peptide	-15843
process	-15844
quality	-15845
rolimus	-15846
spanish	-15847
wrexham	-15848
▁"2008-	-15849
▁"2011/	-15850
▁"5:00"	-15851
▁'002-2	-15852
▁'021-8	-15853
▁'029-2	-15854
▁'1957'	-15855
▁'5:00'	-15856
▁Market	-15857
▁chiefs	-15858
▁dances	-15859
▁mening	-15860
▁profit	-15861
▁reserv	-15862
▁tablet	-15863
▁trofeo	-15864
Audition	-15865
Domestic	-15866
Incident	-15867
Provider	-15868
Thursday	-15869
_1341577	-15870
_1341690	-15871
_1566852	-15872
ctrolyte	-15873
portugal	-15874
sedative	-15875
winnipeg	-15876
▁'027-15	-15877
▁28443))	-15878
▁Roberts	-15879
▁Science	-15880
▁academy	-15881
▁adverse	-15882
▁borough	-15883
▁concent	-15884
▁example	-15885
▁express	-15886
▁hosting	-15887
▁purpose	-15888
Cancelled	-15889
Downvotes	-15890
Political	-15891
StartDate	-15892
Wisconsin	-15893
_19744915	-15894
_26842217	-15895
countries	-15896
▁(2009)")	-15897
▁Behavior	-15898
▁Illinois	-15899
▁answerer	-15900
▁comments	-15901
▁complete	-15902
▁diabetes	-15903
▁diseases	-15904
▁excision	-15905
▁finished	-15906
▁function	-15907
▁mitchell	-15908
▁robinson	-15909
▁roomname	-15910
Bodyweight	-15911
Medication	-15912
anticonvul	-15913
▁	-15914
e	-15915
t	-15916
a	-15917
E	-15918
i	-15919
s	-15920
r	-15921
o	-15922
n	-15923
R	-15924
d	-15925
_	-15926
T	-15927
c	-15928
m	-15929
"	-15930
O	-15931
S	-15932
l	-15933
C	-15934
N	-15935
.	-15936
p	-15937
A	-15938
I	-15939
u	-15940
M	-15941
'	-15942
D	-15943
L	-15944
=	-15945
h	-15946
1	-15947
F	-15948
g	-15949
b	-15950
H	-15951
y	-15952
W	-15953
(	-15954
)	-15955
2	-15956
0	-15957
,	-15958
f	-15959
U	-15960
P	-15961
3	-15962
4	-15963
Y	-15964
5	-15965
9	-15966
6	-15967
v	-15968
7	-15969
B	-15970
8	-15971
k	-15972
G	-15973
w	-15974
V	-15975
J	-15976
-	-15977
j	-15978
%	-15979
<	-15980
>	-15981
q	-15982
*	-15983
K	-15984
#	-15985
/	-15986
X	-15987
x	-15988
z	-15989
:	-15990
–	-15991
+	-15992
Q	-15993
\	-15994
$	-15995
