<pad>	0
<unk>	0
<s>	0
</s>	0
▁t	-0
▁th	-1
▁a	-2
▁the	-3
at	-4
▁w	-5
er	-6
▁i	-7
▁o	-8
en	-9
▁of	-10
re	-11
an	-12
▁p	-13
▁W	-14
st	-15
▁h	-16
▁is	-17
on	-18
▁Wh	-19
ar	-20
in	-21
▁m	-22
▁c	-23
or	-24
▁f	-25
▁d	-26
it	-27
as	-28
▁wh	-29
nd	-30
▁s	-31
▁b	-32
al	-33
es	-34
▁What	-35
▁l	-36
▁and	-37
▁n	-38
am	-39
ent	-40
ed	-41
▁in	-42
ou	-43
ow	-44
ic	-45
ion	-46
▁1	-47
um	-48
is	-49
▁2	-50
os	-51
om	-52
ber	-53
▁for	-54
▁g	-55
▁was	-56
▁to	-57
ith	-58
▁with	-59
ay	-60
umber	-61
ame	-62
ing	-63
▁e	-64
▁number	-65
ati	-66
▁than	-67
atient	-68
▁patient	-69
le	-70
ac	-71
ve	-72
ri	-73
▁what	-74
▁di	-75
ag	-76
▁man	-77
▁ha	-78
00	-79
art	-80
▁S	-81
ore	-82
ro	-83
▁re	-84
▁by	-85
est	-86
ich	-87
▁has	-88
▁y	-89
▁when	-90
▁many	-91
ver	-92
ll	-93
▁ch	-94
ig	-95
ate	-96
▁r	-97
et	-98
nt	-99
ct	-100
▁H	-101
ir	-102
ation	-103
ear	-104
▁v	-105
ur	-106
im	-107
▁A	-108
▁that	-109
▁T	-110
▁C	-111
▁patients	-112
ce	-113
▁P	-114
▁F	-115
igh	-116
th	-117
de	-118
▁on	-119
▁te	-120
▁N	-121
▁Which	-122
lay	-123
▁are	-124
ol	-125
ose	-126
▁st	-127
rom	-128
ere	-129
▁year	-130
il	-131
▁chart	-132
ut	-133
▁or	-134
▁as	-135
ount	-136
▁me	-137
ers	-138
▁sc	-139
▁pro	-140
▁from	-141
▁at	-142
▁u	-143
ot	-144
▁3	-145
▁D	-146
▁la	-147
▁bar	-148
▁have	-149
ul	-150
end	-151
▁R	-152
▁team	-153
▁?	-154
▁How	-155
age	-156
tal	-157
ist	-158
▁who	-159
▁how	-160
▁had	-161
how	-162
ess	-163
▁M	-164
▁total	-165
▁be	-166
▁(	-167
▁play	-168
▁name	-169
ts	-170
ch	-171
▁an	-172
ost	-173
▁I	-174
▁4	-175
▁0	-176
▁19	-177
ach	-178
▁B	-179
▁L	-180
▁score	-181
id	-182
▁high	-183
▁200	-184
▁ag	-185
ode	-186
▁5	-187
▁less	-188
der	-189
rib	-190
ter	-191
▁whose	-192
qu	-193
oc	-194
▁tim	-195
▁G	-196
ra	-197
▁were	-198
▁de	-199
verage	-200
▁Name	-201
▁com	-202
pe	-203
▁did	-204
▁Who	-205
ive	-206
▁average	-207
ure	-208
▁6	-209
▁po	-210
all	-211
ue	-212
▁each	-213
ank	-214
ital	-215
10	-216
ity	-217
irst	-218
▁low	-219
our	-220
▁order	-221
▁count	-222
ment	-223
▁O	-224
ad	-225
▁date	-226
▁first	-227
osp	-228
pp	-229
ord	-230
us	-231
res	-232
agn	-233
▁hosp	-234
el	-235
out	-236
ort	-237
▁'	-238
▁j	-239
ase	-240
▁ab	-241
▁20	-242
▁diagn	-243
▁hospital	-244
▁se	-245
ru	-246
▁diagnos	-247
arg	-248
▁time	-249
▁att	-250
ames	-251
▁show	-252
ary	-253
▁more	-254
ome	-255
lo	-256
▁7	-257
xis	-258
ribut	-259
ain	-260
ound	-261
▁game	-262
ition	-263
▁cl	-264
ass	-265
▁ad	-266
▁all	-267
▁last	-268
▁rank	-269
ast	-270
▁dis	-271
▁,	-272
▁For	-273
ints	-274
op	-275
ee	-276
cord	-277
ub	-278
mp	-279
un	-280
▁8	-281
▁le	-282
du	-283
▁tit	-284
ff	-285
ong	-286
ire	-287
ance	-288
▁which	-289
ie	-290
▁test	-291
▁vis	-292
em	-293
iv	-294
ind	-295
▁dist	-296
▁gr	-297
▁code	-298
▁most	-299
od	-300
ult	-301
and	-302
▁about	-303
ions	-304
▁produ	-305
▁id	-306
ace	-307
▁E	-308
ze	-309
▁J	-310
▁des	-311
▁win	-312
▁adm	-313
▁ty	-314
ant	-315
▁larg	-316
▁Show	-317
▁do	-318
ry	-319
▁comp	-320
▁points	-321
▁desc	-322
▁fl	-323
▁record	-324
sion	-325
ard	-326
▁title	-327
▁Y	-328
als	-329
ia	-330
▁product	-331
ap	-332
ending	-333
▁res	-334
▁list	-335
▁9	-336
ies	-337
ced	-338
▁mon	-339
ine	-340
▁k	-341
reat	-342
▁sm	-343
oup	-344
ric	-345
ly	-346
rug	-347
▁af	-348
loy	-349
▁U	-350
▁drug	-351
ak	-352
▁type	-353
▁emp	-354
▁asc	-355
osition	-356
▁us	-357
▁employ	-358
▁lab	-359
▁after	-360
▁V	-361
▁loc	-362
ill	-363
▁not	-364
▁10	-365
▁pres	-366
ince	-367
▁larger	-368
ge	-369
1?	-370
ip	-371
▁group	-372
▁those	-373
5?	-374
ission	-375
act	-376
onent	-377
▁there	-378
▁he	-379
▁player	-380
fore	-381
pponent	-382
2?	-383
▁visit	-384
axis	-385
▁before	-386
eek	-387
ick	-388
▁day	-389
▁names	-390
pis	-391
▁sh	-392
▁month	-393
4?	-394
cedure	-395
▁procedure	-396
▁highest	-397
way	-398
▁am	-399
▁since	-400
ld	-401
▁played	-402
▁Te	-403
▁home	-404
▁per	-405
ight	-406
part	-407
▁epis	-408
▁ma	-409
▁small	-410
ud	-411
▁great	-412
▁When	-413
▁where	-414
▁con	-415
3?	-416
▁en	-417
▁over	-418
▁smaller	-419
lease	-420
ason	-421
▁presc	-422
▁St	-423
▁val	-424
ees	-425
▁12	-426
ack	-427
▁years	-428
are	-429
og	-430
ab	-431
vi	-432
▁ne	-433
ali	-434
ribution	-435
▁position	-436
▁class	-437
▁21	-438
▁you	-439
▁employees	-440
▁age	-441
imum	-442
ans	-443
▁greater	-444
0?	-445
endance	-446
▁distribution	-447
-1	-448
▁sum	-449
▁result	-450
we	-451
partment	-452
pt	-453
▁hire	-454
)?	-455
ob	-456
ated	-457
ner	-458
▁location	-459
inal	-460
ust	-461
▁week	-462
▁med	-463
raw	-464
▁qu	-465
8?	-466
ates	-467
▁pl	-468
▁lowest	-469
▁episode	-470
▁201	-471
-2	-472
▁go	-473
ect	-474
▁199	-475
ainst	-476
ish	-477
▁diagnosed	-478
ribed	-479
ffer	-480
▁does	-481
▁ar	-482
▁attribut	-483
AN	-484
▁prescribed	-485
▁Find	-486
▁give	-487
▁admission	-488
▁been	-489
▁pri	-490
▁attribute	-491
▁tr	-492
▁department	-493
6?	-494
ents	-495
urn	-496
oss	-497
▁bet	-498
'?	-499
ourn	-500
7?	-501
▁-	-502
▁their	-503
▁opponent	-504
▁dur	-505
lect	-506
date	-507
ween	-508
▁diagnoses	-509
ens	-510
▁un	-511
▁differ	-512
up	-513
ool	-514
▁part	-515
▁value	-516
▁between	-517
if	-518
▁210	-519
▁ago	-520
▁round	-521
▁unt	-522
▁K	-523
▁until	-524
▁ic	-525
ail	-526
▁please	-527
orm	-528
ours	-529
▁against	-530
▁rece	-531
▁Sc	-532
ron	-533
old	-534
ory	-535
day	-536
▁attendance	-537
ould	-538
mber	-539
itt	-540
▁ac	-541
9?	-542
▁season	-543
▁days	-544
▁during	-545
▁axis	-546
uali	-547
enue	-548
▁away	-549
▁this	-550
▁them	-551
▁Re	-552
atch	-553
000	-554
▁18	-555
▁amount	-556
▁want	-557
ian	-558
▁11	-559
▁comm	-560
▁al	-561
ath	-562
ualize	-563
atus	-564
▁ser	-565
▁top	-566
▁x	-567
cent	-568
▁job	-569
▁min	-570
ph	-571
▁won	-572
play	-573
ork	-574
▁dise	-575
▁int	-576
ors	-577
wers	-578
own	-579
▁sort	-580
▁times	-581
estions	-582
▁disease	-583
ond	-584
▁long	-585
▁same	-586
fer	-587
▁ascending	-588
ous	-589
▁status	-590
▁descending	-591
cy	-592
▁fre	-593
▁Score	-594
▁Ch	-595
▁In	-596
ights	-597
▁ro	-598
ium	-599
ning	-600
▁mar	-601
▁Date	-602
/2	-603
▁Team	-604
▁country	-605
▁receiv	-606
▁any	-607
uf	-608
▁prim	-609
▁rep	-610
▁max	-611
▁air	-612
ject	-613
les	-614
▁15	-615
▁flights	-616
▁different	-617
ps	-618
ufact	-619
▁it	-620
ok	-621
▁could	-622
▁sub	-623
ther	-624
ournam	-625
▁manag	-626
▁elect	-627
▁out	-628
ational	-629
▁display	-630
nder	-631
▁icd	-632
▁sch	-633
▁List	-634
ufactur	-635
▁sal	-636
▁stud	-637
rig	-638
ft	-639
▁primary	-640
rid	-641
one	-642
▁least	-643
▁being	-644
ufacturer	-645
ake	-646
▁frequ	-647
ial	-648
ence	-649
▁100	-650
▁under	-651
ency	-652
vide	-653
▁14	-654
▁draw	-655
▁col	-656
▁X	-657
▁cours	-658
▁ex	-659
▁they	-660
rent	-661
amp	-662
▁products	-663
▁received	-664
av	-665
▁ass	-666
-7	-667
▁stay	-668
▁place	-669
▁met	-670
▁manufacturer	-671
▁ev	-672
ew	-673
▁par	-674
▁match	-675
ang	-676
count	-677
ove	-678
rect	-679
▁pre	-680
ournament	-681
▁pe	-682
▁00	-683
▁Se	-684
▁inc	-685
▁maximum	-686
-0	-687
▁pop	-688
ale	-689
▁direct	-690
▁provide	-691
ations	-692
▁games	-693
▁cor	-694
▁goals	-695
▁198	-696
ov	-697
ik	-698
ug	-699
▁short	-700
▁pick	-701
ange	-702
▁popul	-703
▁ans	-704
▁school	-705
ured	-706
▁Play	-707
urrent	-708
▁Th	-709
pec	-710
te	-711
▁13	-712
▁25	-713
▁trans	-714
ON	-715
ilver	-716
▁Q	-717
▁16	-718
▁bin	-719
▁ids	-720
ER	-721
▁current	-722
.1	-723
▁city	-724
land	-725
ey	-726
▁tell	-727
-6	-728
li	-729
ronze	-730
orn	-731
▁Year	-732
ice	-733
▁salary	-734
▁.	-735
▁/	-736
▁pric	-737
▁minimum	-738
eld	-739
river	-740
▁Ret	-741
▁meas	-742
mer	-743
itted	-744
▁wins	-745
▁medals	-746
0,	-747
ople	-748
▁post	-749
port	-750
▁Return	-751
▁17	-752
▁Count	-753
▁within	-754
hip	-755
put	-756
▁months	-757
ite	-758
▁loss	-759
▁subject	-760
▁admitted	-761
▁#	-762
▁cap	-763
▁one	-764
▁Give	-765
▁people	-766
▁tag	-767
▁Pl	-768
▁other	-769
▁1?	-770
▁bu	-771
▁run	-772
ited	-773
▁listed	-774
▁questions	-775
▁population	-776
▁we	-777
▁ret	-778
1,	-779
AL	-780
▁records	-781
▁Win	-782
rict	-783
▁measured	-784
ree	-785
per	-786
▁work	-787
ison	-788
▁students	-789
AS	-790
▁venue	-791
▁Vis	-792
▁bo	-793
.5	-794
▁gold	-795
▁ent	-796
▁laps	-797
HI	-798
▁02	-799
AT	-800
▁frequent	-801
ired	-802
▁users	-803
▁final	-804
▁price	-805
▁cont	-806
12	-807
▁ph	-808
pen	-809
▁ins	-810
▁De	-811
uch	-812
tt	-813
▁vot	-814
iven	-815
.0	-816
▁find	-817
etition	-818
ries	-819
▁orig	-820
ide	-821
▁Un	-822
▁no	-823
ript	-824
▁ear	-825
▁scored	-826
30	-827
ST	-828
▁2?	-829
▁vie	-830
▁co	-831
/210	-832
▁club	-833
▁Player	-834
?,	-835
ication	-836
ateg	-837
▁given	-838
▁All	-839
ustom	-840
ign	-841
lege	-842
wo	-843
▁visualize	-844
▁fin	-845
▁shows	-846
ision	-847
▁rout	-848
▁Cl	-849
▁custom	-850
form	-851
▁Qu	-852
▁1,	-853
▁2010	-854
▁series	-855
▁driver	-856
▁Po	-857
ram	-858
▁silver	-859
ationality	-860
▁197	-861
val	-862
▁found	-863
OR	-864
▁tournament	-865
row	-866
wer	-867
ague	-868
ton	-869
irth	-870
▁reg	-871
uc	-872
▁inter	-873
alc	-874
▁Top	-875
ock	-876
otal	-877
▁percent	-878
▁On	-879
13	-880
▁route	-881
▁common	-882
ving	-883
▁Tell	-884
erm	-885
ell	-886
xt	-887
counter	-888
ward	-889
▁compar	-890
▁encounter	-891
▁courses	-892
ng	-893
anc	-894
▁eng	-895
▁Where	-896
IT	-897
▁22	-898
▁classes	-899
int	-900
▁comparison	-901
▁Draw	-902
▁buil	-903
▁equ	-904
▁Com	-905
▁dates	-906
vel	-907
ral	-908
▁car	-909
ress	-910
▁Opponent	-911
io	-912
▁Total	-913
▁district	-914
nic	-915
umb	-916
▁Visualize	-917
▁30	-918
▁head	-919
▁24	-920
▁much	-921
▁spec	-922
ists	-923
▁0?	-924
▁)	-925
olog	-926
▁categ	-927
▁grid	-928
cl	-929
oh	-930
▁bronze	-931
15	-932
',	-933
▁bel	-934
▁disch	-935
▁Rank	-936
▁party	-937
ating	-938
ober	-939
▁sp	-940
▁mill	-941
red	-942
EN	-943
raft	-944
▁manager	-945
▁return	-946
vers	-947
ns	-948
▁start	-949
▁50	-950
ender	-951
▁get	-952
▁birth	-953
eng	-954
20	-955
▁Points	-956
ruct	-957
▁sur	-958
▁Us	-959
▁finish	-960
vious	-961
ilm	-962
▁discharg	-963
▁3?	-964
▁care	-965
▁race	-966
▁state	-967
▁Res	-968
▁three	-969
▁death	-970
able	-971
▁area	-972
ical	-973
▁app	-974
ime	-975
▁196	-976
▁ind	-977
▁four	-978
▁equal	-979
▁departments	-980
▁Mar	-981
▁previous	-982
ID	-983
▁flight	-984
-3	-985
eb	-986
▁winner	-987
.9	-988
▁competition	-989
▁line	-990
▁act	-991
▁end	-992
let	-993
atter	-994
ib	-995
▁ur	-996
roll	-997
CC	-998
▁The	-999
▁pie	-1000
14	-1001
▁players	-1002
uid	-1003
▁gender	-1004
▁eth	-1005
▁diagnosis	-1006
adium	-1007
odes	-1008
IS	-1009
-4	-1010
.2	-1011
.4	-1012
▁answers	-1013
ril	-1014
▁23	-1015
▁27	-1016
▁Sch	-1017
▁WH	-1018
▁winning	-1019
ett	-1020
▁Le	-1021
80	-1022
ys	-1023
16	-1024
ovember	-1025
alcul	-1026
▁viewers	-1027
ester	-1028
▁fluid	-1029
▁category	-1030
▁lat	-1031
ormal	-1032
struct	-1033
▁4?	-1034
▁ethnic	-1035
lish	-1036
arter	-1037
ampions	-1038
▁two	-1039
▁bl	-1040
LAN	-1041
▁Can	-1042
▁directed	-1043
▁employee	-1044
.7	-1045
omin	-1046
▁production	-1047
▁Record	-1048
▁can	-1049
outh	-1050
▁five	-1051
ription	-1052
▁TH	-1053
17	-1054
ctober	-1055
▁arter	-1056
ments	-1057
▁wr	-1058
pril	-1059
▁Bar	-1060
▁2008	-1061
▁song	-1062
▁sec	-1063
▁made	-1064
iz	-1065
▁event	-1066
ane	-1067
▁2,	-1068
▁03	-1069
.6	-1070
ull	-1071
▁ACC	-1072
50	-1073
▁hy	-1074
19	-1075
ular	-1076
▁5?	-1077
▁weekday	-1078
▁26	-1079
▁sy	-1080
.8	-1081
▁Time	-1082
▁film	-1083
aw	-1084
odel	-1085
▁scatter	-1086
▁rate	-1087
ings	-1088
ah	-1089
▁new	-1090
▁cost	-1091
alle	-1092
STON	-1093
ann	-1094
▁ever	-1095
▁percentage	-1096
erson	-1097
▁sing	-1098
▁managers	-1099
ology	-1100
▁posts	-1101
▁To	-1102
▁college	-1103
▁open	-1104
▁having	-1105
▁Position	-1106
ike	-1107
▁gra	-1108
alculate	-1109
ile	-1110
▁200,	-1111
to	-1112
face	-1113
orth	-1114
▁Home	-1115
ied	-1116
son	-1117
▁%	-1118
▁headqu	-1119
rowd	-1120
umbent	-1121
its	-1122
▁rev	-1123
▁School	-1124
▁+	-1125
▁ed	-1126
▁2002	-1127
ican	-1128
any	-1129
▁BO	-1130
▁held	-1131
▁losses	-1132
.3	-1133
▁29	-1134
▁Result	-1135
▁Pro	-1136
ember	-1137
urance	-1138
▁commission	-1139
▁member	-1140
▁tests	-1141
▁output	-1142
▁det	-1143
ensive	-1144
cc	-1145
▁fem	-1146
▁Round	-1147
▁2009	-1148
▁insurance	-1149
▁6?	-1150
5,	-1151
cember	-1152
ets	-1153
▁fo	-1154
ased	-1155
▁engine	-1156
VER	-1157
ampionship	-1158
▁meter	-1159
▁art	-1160
▁born	-1161
▁BOSTON	-1162
ities	-1163
00?	-1164
anu	-1165
atal	-1166
▁original	-1167
▁votes	-1168
▁few	-1169
uth	-1170
▁28	-1171
▁doc	-1172
ina	-1173
▁hist	-1174
▁incumbent	-1175
▁If	-1176
▁FR	-1177
28	-1178
27	-1179
ht	-1180
▁runner	-1181
▁second	-1182
uit	-1183
▁ordered	-1184
▁SAN	-1185
11	-1186
anuary	-1187
▁off	-1188
amed	-1189
oci	-1190
ons	-1191
▁mic	-1192
▁enroll	-1193
ues	-1194
4,	-1195
▁mov	-1196
▁Number	-1197
▁Col	-1198
▁largest	-1199
▁teams	-1200
▁Att	-1201
▁Plot	-1202
allest	-1203
▁docum	-1204
▁3,	-1205
▁nationality	-1206
98	-1207
▁take	-1208
▁rating	-1209
ark	-1210
normal	-1211
-5	-1212
olic	-1213
▁DEN	-1214
andid	-1215
▁2011	-1216
▁crowd	-1217
▁million	-1218
▁6,	-1219
ier	-1220
▁user	-1221
▁lost	-1222
▁used	-1223
▁earli	-1224
▁higher	-1225
ger	-1226
▁discharge	-1227
mat	-1228
▁Go	-1229
▁2007	-1230
▁item	-1231
ails	-1232
une	-1233
▁DENVER	-1234
ative	-1235
▁Questions	-1236
CO	-1237
3,	-1238
rob	-1239
▁calculate	-1240
▁Gr	-1241
▁answer	-1242
▁drugs	-1243
▁league	-1244
▁associ	-1245
UR	-1246
▁unit	-1247
lation	-1248
18	-1249
ins	-1250
▁ethnicity	-1251
2,	-1252
▁Al	-1253
▁elected	-1254
▁hours	-1255
▁United	-1256
%?	-1257
icip	-1258
▁av	-1259
▁Users	-1260
▁candid	-1261
▁medic	-1262
▁Ar	-1263
ptember	-1264
itu	-1265
▁mg	-1266
▁model	-1267
▁course	-1268
ction	-1269
▁if	-1270
▁attend	-1271
▁headquarter	-1272
aps	-1273
estion	-1274
▁el	-1275
▁Game	-1276
▁serv	-1277
6-2	-1278
▁195	-1279
▁rac	-1280
▁tra	-1281
▁weight	-1282
▁difference	-1283
ne	-1284
▁Post	-1285
▁Country	-1286
▁Attendance	-1287
▁4,	-1288
ebru	-1289
▁heart	-1290
60	-1291
▁Sp	-1292
▁inf	-1293
ANC	-1294
ebruary	-1295
▁named	-1296
▁height	-1297
▁AT	-1298
▁overall	-1299
az	-1300
▁range	-1301
▁br	-1302
▁nomin	-1303
ared	-1304
▁THE	-1305
▁using	-1306
▁hem	-1307
▁his	-1308
▁blo	-1309
ourne	-1310
▁associated	-1311
gency	-1312
ict	-1313
bourne	-1314
▁female	-1315
EL	-1316
▁icu	-1317
ivers	-1318
ck	-1319
assis	-1320
▁county	-1321
▁smallest	-1322
▁customers	-1323
▁only	-1324
▁offer	-1325
enn	-1326
▁stadium	-1327
▁pay	-1328
▁emer	-1329
irc	-1330
▁WHAT	-1331
▁blood	-1332
▁perform	-1333
▁US	-1334
▁fr	-1335
ification	-1336
▁emergency	-1337
▁call	-1338
▁microb	-1339
se	-1340
atalog	-1341
95	-1342
▁7?	-1343
▁Comp	-1344
▁microbi	-1345
▁40	-1346
▁room	-1347
▁Away	-1348
ified	-1349
▁inv	-1350
▁tak	-1351
▁past	-1352
▁2012	-1353
hod	-1354
ines	-1355
▁FRANC	-1356
6,	-1357
ix	-1358
▁Week	-1359
▁award	-1360
bum	-1361
▁intake	-1362
ohn	-1363
ISCO	-1364
▁rel	-1365
▁person	-1366
▁FRANCISCO	-1367
▁sem	-1368
ats	-1369
AR	-1370
ield	-1371
▁gen	-1372
dress	-1373
cess	-1374
ounds	-1375
iss	-1376
ley	-1377
▁next	-1378
oad	-1379
▁located	-1380
▁bars	-1381
ern	-1382
vision	-1383
gh	-1384
▁change	-1385
angu	-1386
▁kn	-1387
▁dec	-1388
24	-1389
acity	-1390
▁book	-1391
ody	-1392
ugust	-1393
▁male	-1394
▁auth	-1395
▁fe	-1396
).	-1397
▁build	-1398
pond	-1399
▁pap	-1400
▁New	-1401
LA	-1402
▁cup	-1403
▁card	-1404
TA	-1405
▁November	-1406
▁nec	-1407
/0	-1408
SB	-1409
▁Loc	-1410
▁mean	-1411
57	-1412
▁Sh	-1413
name	-1414
ength	-1415
respond	-1416
▁correspond	-1417
come	-1418
▁Venue	-1419
ains	-1420
▁reb	-1421
ults	-1422
▁founder	-1423
ics	-1424
pl	-1425
man	-1426
▁teach	-1427
▁marital	-1428
200	-1429
gan	-1430
cept	-1431
ring	-1432
▁big	-1433
itten	-1434
ex	-1435
▁Gold	-1436
29	-1437
att	-1438
37	-1439
nes	-1440
▁will	-1441
▁abnormal	-1442
▁above	-1443
),	-1444
osed	-1445
▁surface	-1446
▁Part	-1447
▁Tournament	-1448
▁up	-1449
ercent	-1450
ubl	-1451
▁mor	-1452
▁draft	-1453
▁assists	-1454
▁nation	-1455
▁8?	-1456
▁every	-1457
▁customer	-1458
▁region	-1459
67	-1460
uly	-1461
▁level	-1462
ALL	-1463
▁my	-1464
▁su	-1465
▁pass	-1466
▁enrollment	-1467
▁z	-1468
▁written	-1469
ke	-1470
-8	-1471
44	-1472
▁album	-1473
▁details	-1474
ally	-1475
▁fac	-1476
ogram	-1477
▁corre	-1478
▁2006	-1479
fl	-1480
orld	-1481
iew	-1482
▁0,	-1483
▁ATLAN	-1484
▁episodes	-1485
▁offered	-1486
▁ver	-1487
▁into	-1488
▁term	-1489
▁ATLANTA	-1490
▁fewer	-1491
▁spe	-1492
erg	-1493
▁Is	-1494
▁pr	-1495
▁Eng	-1496
:00	-1497
▁October	-1498
▁correlation	-1499
▁60	-1500
▁draws	-1501
▁account	-1502
54	-1503
iversity	-1504
▁IS	-1505
▁below	-1506
▁sw	-1507
pper	-1508
▁intensive	-1509
8,	-1510
▁Con	-1511
last	-1512
▁High	-1513
▁40,	-1514
-10	-1515
ORE	-1516
pes	-1517
▁rele	-1518
da	-1519
URG	-1520
▁gu	-1521
eter	-1522
ino	-1523
ize	-1524
ards	-1525
▁frequency	-1526
co	-1527
▁006	-1528
omy	-1529
eral	-1530
▁5,	-1531
▁langu	-1532
▁December	-1533
▁capacity	-1534
SBURG	-1535
▁Location	-1536
▁hired	-1537
▁director	-1538
▁frequently	-1539
vot	-1540
▁ID	-1541
onary	-1542
▁requ	-1543
ircuit	-1544
▁events	-1545
▁Car	-1546
▁def	-1547
-06-2	-1548
atory	-1549
▁ranked	-1550
▁numbers	-1551
ower	-1552
▁got	-1553
97	-1554
alif	-1555
33	-1556
▁leg	-1557
▁He	-1558
▁attended	-1559
▁method	-1560
▁12000	-1561
▁States	-1562
26	-1563
▁sk	-1564
▁ship	-1565
ator	-1566
etters	-1567
IN	-1568
▁prof	-1569
▁showing	-1570
▁April	-1571
▁letters	-1572
▁Cup	-1573
ural	-1574
▁cath	-1575
▁cred	-1576
▁null	-1577
ALT	-1578
com	-1579
100	-1580
▁rebounds	-1581
▁microbiology	-1582
ks	-1583
34	-1584
96	-1585
enter	-1586
▁championship	-1587
58	-1588
ave	-1589
bin	-1590
led	-1591
▁release	-1592
▁chassis	-1593
▁May	-1594
itude	-1595
▁8000	-1596
structor	-1597
▁matches	-1598
▁members	-1599
▁earliest	-1600
Home	-1601
▁Ag	-1602
▁ta	-1603
Road	-1604
inist	-1605
▁Class	-1606
▁graph	-1607
▁2002-06-2	-1608
ute	-1609
▁compared	-1610
▁2002-06-21,	-1611
▁Place	-1612
▁election	-1613
▁Tag	-1614
25	-1615
▁PIT	-1616
ash	-1617
▁classification	-1618
IM	-1619
af	-1620
▁ri	-1621
▁artist	-1622
▁origin	-1623
▁stayed	-1624
'.	-1625
rist	-1626
rit	-1627
▁PITT	-1628
SBURGH	-1629
▁PITTSBURGH	-1630
▁like	-1631
▁Pick	-1632
▁tags	-1633
▁released	-1634
▁2008?	-1635
23	-1636
▁took	-1637
ference	-1638
99	-1639
ade	-1640
▁titles	-1641
lor	-1642
ALLAS	-1643
▁char	-1644
▁DALLAS	-1645
▁length	-1646
▁size	-1647
▁papers	-1648
▁Fr	-1649
▁Mon	-1650
▁inst	-1651
▁left	-1652
▁Nationality	-1653
40	-1654
▁revenue	-1655
21	-1656
sh	-1657
PHI	-1658
▁interval	-1659
inct	-1660
▁types	-1661
▁Posts	-1662
yl	-1663
▁best	-1664
▁January	-1665
au	-1666
ific	-1667
lete	-1668
▁Mel	-1669
▁station	-1670
▁language	-1671
▁avail	-1672
ures	-1673
▁jo	-1674
▁track	-1675
▁both	-1676
▁author	-1677
▁ant	-1678
▁nos	-1679
ots	-1680
▁Goals	-1681
▁countries	-1682
▁histogram	-1683
km	-1684
▁iv	-1685
▁Ind	-1686
▁description	-1687
ved	-1688
▁black	-1689
▁9?	-1690
▁City	-1691
▁Bronze	-1692
▁Are	-1693
▁incl	-1694
cer	-1695
vent	-1696
▁10?	-1697
ution	-1698
▁host	-1699
▁among	-1700
▁Season	-1701
eth	-1702
ried	-1703
▁question	-1704
▁Co	-1705
ances	-1706
▁upper	-1707
atic	-1708
55	-1709
uss	-1710
▁Ans	-1711
▁ath	-1712
▁may	-1713
ior	-1714
▁but	-1715
36	-1716
ners	-1717
▁word	-1718
▁lap	-1719
sy	-1720
ars	-1721
▁mark	-1722
resent	-1723
▁South	-1724
iam	-1725
▁gl	-1726
jor	-1727
▁procedures	-1728
tain	-1729
▁available	-1730
▁catalog	-1731
ena	-1732
ges	-1733
ony	-1734
▁stage	-1735
▁results	-1736
▁use	-1737
70	-1738
rd	-1739
Percent	-1740
▁February	-1741
ves	-1742
ered	-1743
▁2104?	-1744
▁candidates	-1745
▁194	-1746
▁transact	-1747
▁mus	-1748
mi	-1749
owns	-1750
▁2005	-1751
▁organ	-1752
IMORE	-1753
ret	-1754
uro	-1755
work	-1756
▁BALT	-1757
▁2105?	-1758
▁BALTIMORE	-1759
▁office	-1760
aff	-1761
▁died	-1762
▁fast	-1763
air	-1764
▁body	-1765
AM	-1766
▁ml	-1767
▁2000	-1768
▁prov	-1769
▁Silver	-1770
▁1:	-1771
cepted	-1772
asc	-1773
ual	-1774
▁races	-1775
▁administ	-1776
ox	-1777
ari	-1778
▁PHI	-1779
he	-1780
DEL	-1781
ole	-1782
annel	-1783
▁some	-1784
▁bigger	-1785
▁single	-1786
▁urine	-1787
▁em	-1788
▁rounds	-1789
7,	-1790
▁aired	-1791
56	-1792
90	-1793
gent	-1794
ross	-1795
▁lead	-1796
ka	-1797
▁March	-1798
▁September	-1799
off	-1800
PHIA	-1801
▁non	-1802
LADEL	-1803
LADELPHIA	-1804
▁commonly	-1805
▁PHILADELPHIA	-1806
▁College	-1807
pir	-1808
▁Bl	-1809
▁lower	-1810
ration	-1811
▁company	-1812
▁particip	-1813
▁Melbourne	-1814
aced	-1815
▁sign	-1816
▁united	-1817
▁transfer	-1818
ird	-1819
ris	-1820
ouse	-1821
▁Wins	-1822
ran	-1823
▁via	-1824
▁10,	-1825
eel	-1826
ney	-1827
▁invol	-1828
9,	-1829
reen	-1830
▁built	-1831
▁documents	-1832
▁bp	-1833
▁circuit	-1834
▁receive	-1835
argin	-1836
▁Club	-1837
▁site	-1838
▁base	-1839
oub	-1840
▁repl	-1841
▁syst	-1842
46	-1843
this	-1844
ham	-1845
▁Ser	-1846
omet	-1847
▁belong	-1848
▁building	-1849
▁opponents	-1850
▁12?	-1851
▁main	-1852
ene	-1853
▁32	-1854
▁back	-1855
▁would	-1856
▁division	-1857
▁pol	-1858
▁white	-1859
▁format	-1860
▁arterial	-1861
▁corresponding	-1862
38	-1863
spec	-1864
AA	-1865
▁creat	-1866
ha	-1867
▁report	-1868
▁semester	-1869
▁7,	-1870
▁prescription	-1871
vil	-1872
ites	-1873
▁occ	-1874
odium	-1875
osing	-1876
▁tries	-1877
ata	-1878
▁No	-1879
▁027	-1880
▁Aust	-1881
▁nominated	-1882
ility	-1883
NG	-1884
▁arri	-1885
48	-1886
urs	-1887
ery	-1888
ough	-1889
▁June	-1890
▁allerg	-1891
?.	-1892
ada	-1893
▁elective	-1894
ival	-1895
▁WAS	-1896
▁distinct	-1897
▁taken	-1898
▁35	-1899
ught	-1900
▁aged	-1901
go	-1902
▁11?	-1903
▁know	-1904
ven	-1905
ices	-1906
▁North	-1907
47	-1908
▁aff	-1909
▁trend	-1910
▁70	-1911
▁project	-1912
▁km	-1913
ones	-1914
▁bro	-1915
▁goal	-1916
▁Pri	-1917
ta	-1918
owed	-1919
level	-1920
▁Against	-1921
aily	-1922
▁airport	-1923
▁ow	-1924
▁Loss	-1925
▁role	-1926
▁hyper	-1927
▁student	-1928
so	-1929
▁31	-1930
imen	-1931
portion	-1932
▁old	-1933
ination	-1934
▁League	-1935
iver	-1936
orts	-1937
osis	-1938
▁channel	-1939
con	-1940
ism	-1941
▁bill	-1942
ITH	-1943
/2105?	-1944
▁april	-1945
▁proportion	-1946
rote	-1947
▁14?	-1948
▁John	-1949
▁notes	-1950
▁founded	-1951
66	-1952
flow	-1953
▁fail	-1954
by	-1955
bur	-1956
▁states	-1957
45	-1958
▁At	-1959
ians	-1960
▁monthly	-1961
▁che	-1962
▁service	-1963
ants	-1964
▁Park	-1965
▁WITH	-1966
▁daily	-1967
88	-1968
apan	-1969
▁need	-1970
▁world	-1971
▁taught	-1972
aul	-1973
▁45	-1974
▁8,	-1975
▁As	-1976
ages	-1977
leted	-1978
▁specimen	-1979
▁2010?	-1980
▁codes	-1981
▁Ph	-1982
▁let	-1983
▁feat	-1984
▁oper	-1985
▁August	-1986
▁october	-1987
▁031	-1988
▁net	-1989
acter	-1990
▁Oval	-1991
▁represent	-1992
▁ob	-1993
▁foll	-1994
amil	-1995
▁artery	-1996
▁2004	-1997
▁yes	-1998
▁scor	-1999
utation	-2000
▁38	-2001
▁south	-2002
▁Open	-2003
▁wrote	-2004
▁fri	-2005
▁State	-2006
▁cities	-2007
▁36	-2008
▁Over	-2009
▁amer	-2010
▁address	-2011
avid	-2012
▁2011?	-2013
▁require	-2014
ES	-2015
ca	-2016
▁Tit	-2017
▁movie	-2018
▁includ	-2019
▁Mc	-2020
-9	-2021
▁previously	-2022
erry	-2023
CA	-2024
osc	-2025
lev	-2026
▁latest	-2027
ml	-2028
LAND	-2029
▁vict	-2030
▁mount	-2031
ago	-2032
inc	-2033
oph	-2034
▁ste	-2035
▁tri	-2036
▁1000	-2037
▁ranking	-2038
ocr	-2039
Games	-2040
39	-2041
ili	-2042
▁dl	-2043
▁reputation	-2044
ND	-2045
reg	-2046
▁share	-2047
▁urgent	-2048
mm	-2049
abet	-2050
▁sol	-2051
▁medication	-2052
▁fa	-2053
▁500	-2054
▁mal	-2055
▁outcome	-2056
cast	-2057
oubles	-2058
▁scores	-2059
▁document	-2060
ax	-2061
▁217	-2062
▁Stack	-2063
▁point	-2064
▁Winter	-2065
▁swim	-2066
▁2007?	-2067
▁payment	-2068
specified	-2069
ai	-2070
ki	-2071
▁its	-2072
▁cons	-2073
▁37	-2074
▁13?	-2075
▁airc	-2076
▁profess	-2077
▁lane	-2078
ublish	-2079
▁money	-2080
▁speed	-2081
-70	-2082
itor	-2083
▁bad	-2084
ality	-2085
▁July	-2086
▁labor	-2087
▁instit	-2088
▁stations	-2089
of	-2090
▁Run	-2091
▁closed	-2092
aid	-2093
▁view	-2094
▁appear	-2095
▁passed	-2096
ott	-2097
pan	-2098
▁sodium	-2099
▁vol	-2100
▁singles	-2101
▁apartment	-2102
eg	-2103
ler	-2104
▁november	-2105
▁discharged	-2106
▁est	-2107
▁down	-2108
oy	-2109
ype	-2110
▁Man	-2111
▁rider	-2112
▁unspecified	-2113
▁80	-2114
▁recent	-2115
▁entry	-2116
▁coronary	-2117
ned	-2118
▁credits	-2119
▁treat	-2120
22	-2121
▁drawn	-2122
▁label	-2123
▁performed	-2124
▁CO	-2125
ville	-2126
ym	-2127
ael	-2128
▁ext	-2129
▁With	-2130
ington	-2131
▁Grid	-2132
▁refer	-2133
▁qualif	-2134
▁tie	-2135
ident	-2136
35	-2137
enal	-2138
unch	-2139
▁Laps	-2140
▁2009?	-2141
▁publish	-2142
▁american	-2143
▁conference	-2144
▁constructor	-2145
4.	-2146
EC	-2147
-71	-2148
eor	-2149
atio	-2150
vern	-2151
▁And	-2152
▁Int	-2153
▁Pop	-2154
iac	-2155
ert	-2156
▁fastest	-2157
▁16?	-2158
▁2013	-2159
▁contain	-2160
▁visitor	-2161
mond	-2162
87	-2163
ater	-2164
▁nick	-2165
▁phys	-2166
▁respir	-2167
▁married	-2168
▁comments	-2169
▁Competition	-2170
ush	-2171
bert	-2172
▁Par	-2173
▁acc	-2174
▁006-1	-2175
▁34	-2176
▁Ed	-2177
▁morning	-2178
itz	-2179
▁OF	-2180
▁power	-2181
▁margin	-2182
mph	-2183
▁mil	-2184
lling	-2185
▁Stadium	-2186
▁University	-2187
▁laboratory	-2188
sda	-2189
▁030	-2190
▁Out	-2191
▁came	-2192
ensity	-2193
▁without	-2194
no	-2195
▁mm	-2196
▁Pre	-2197
▁Reg	-2198
▁also	-2199
▁acute	-2200
riptions	-2201
AK	-2202
rant	-2203
wood	-2204
▁park	-2205
000?	-2206
onus	-2207
▁compan	-2208
▁Average	-2209
oint	-2210
▁leav	-2211
di	-2212
ise	-2213
lex	-2214
▁wom	-2215
▁Title	-2216
▁press	-2217
ension	-2218
5.	-2219
▁(7	-2220
ball	-2221
itis	-2222
▁come	-2223
ense	-2224
▁Fre	-2225
▁68	-2226
▁ve	-2227
▁vs	-2228
▁companies	-2229
FL	-2230
ao	-2231
ays	-2232
leg	-2233
ung	-2234
▁temp	-2235
▁march	-2236
▁accepted	-2237
TON	-2238
▁15?	-2239
▁music	-2240
▁plays	-2241
▁lo	-2242
▁grand	-2243
▁doubles	-2244
la	-2245
▁Per	-2246
unction	-2247
▁history	-2248
ico	-2249
32	-2250
ulty	-2251
▁bra	-2252
▁fly	-2253
gment	-2254
ama	-2255
ford	-2256
ening	-2257
▁happ	-2258
▁Played	-2259
▁referral	-2260
uts	-2261
▁08	-2262
▁tick	-2263
▁Grand	-2264
▁third	-2265
▁values	-2266
ray	-2267
ffic	-2268
iter	-2269
▁Event	-2270
▁called	-2271
▁hyp	-2272
▁Dist	-2273
▁intern	-2274
otes	-2275
▁2003	-2276
▁Lost	-2277
▁coach	-2278
que	-2279
▁medal	-2280
▁ground	-2281
-68	-2282
-69	-2283
▁del	-2284
▁2001	-2285
▁Mich	-2286
▁ward	-2287
▁failure	-2288
▁46	-2289
retired	-2290
▁Nation	-2291
▁English	-2292
HING	-2293
vate	-2294
ume	-2295
▁57	-2296
HINGTON	-2297
▁WASHINGTON	-2298
br	-2299
uck	-2300
▁Or	-2301
▁Sur	-2302
ature	-2303
ednes	-2304
▁Rich	-2305
▁dest	-2306
ednesday	-2307
▁locations	-2308
▁Championship	-2309
31	-2310
▁09	-2311
▁11,	-2312
▁bud	-2313
▁set	-2314
▁pole	-2315
OS	-2316
ev	-2317
▁47	-2318
▁49	-2319
▁cla	-2320
▁vote	-2321
unt	-2322
emia	-2323
▁dri	-2324
▁across	-2325
▁system	-2326
ulf	-2327
▁We	-2328
0000	-2329
▁north	-2330
▁january	-2331
3.	-2332
▁9,	-2333
▁002	-2334
▁14,	-2335
▁mel	-2336
▁cere	-2337
▁major	-2338
▁rooms	-2339
▁visiting	-2340
right	-2341
▁hard	-2342
▁density	-2343
itive	-2344
▁went	-2345
earch	-2346
▁deli	-2347
-1?	-2348
▁contest	-2349
▁finished	-2350
▁pressure	-2351
rew	-2352
▁private	-2353
ara	-2354
▁FA	-2355
ource	-2356
▁bron	-2357
address	-2358
▁schools	-2359
ampion	-2360
iod	-2361
▁Sex	-2362
▁surv	-2363
▁Games	-2364
▁faculty	-2365
▁bonus	-2366
▁govern	-2367
▁drafted	-2368
..	-2369
oma	-2370
▁Do	-2371
▁12,	-2372
▁administration	-2373
LE	-2374
bo	-2375
▁cy	-2376
vest	-2377
▁ven	-2378
2.	-2379
65	-2380
▁Most	-2381
verflow	-2382
▁september	-2383
▁48	-2384
▁Dis	-2385
unicip	-2386
▁young	-2387
acement	-2388
▁Please	-2389
▁Spring	-2390
▁Be	-2391
▁20,	-2392
antity	-2393
▁broad	-2394
▁tub	-2395
▁homet	-2396
ulation	-2397
ood	-2398
▁58	-2399
▁MI	-2400
▁so	-2401
▁dem	-2402
94	-2403
ep	-2404
▁produced	-2405
lem	-2406
und	-2407
▁staff	-2408
▁appoint	-2409
rate	-2410
▁vac	-2411
▁cell	-2412
▁90	-2413
ined	-2414
▁20?	-2415
▁done	-2416
▁supp	-2417
▁2006?	-2418
▁leaving	-2419
▁receiving	-2420
RE	-2421
▁tou	-2422
▁Height	-2423
▁select	-2424
CH	-2425
ify	-2426
roy	-2427
▁05	-2428
ctor	-2429
lymp	-2430
▁First	-2431
▁network	-2432
_100	-2433
▁Set	-2434
▁bed	-2435
▁opp	-2436
▁Fall	-2437
▁gluc	-2438
ston	-2439
view	-2440
▁phone	-2441
▁titled	-2442
▁seasons	-2443
dom	-2444
▁(1	-2445
▁rem	-2446
▁kind	-2447
bs	-2448
▁Rep	-2449
▁ang	-2450
uring	-2451
▁underg	-2452
▁december	-2453
▁province	-2454
ota	-2455
▁71	-2456
▁hemat	-2457
▁character	-2458
err	-2459
ita	-2460
▁gas	-2461
▁chlor	-2462
▁today	-2463
▁partner	-2464
▁55	-2465
ralia	-2466
▁User	-2467
▁tech	-2468
▁professors	-2469
pct	-2470
▁ratio	-2471
▁songs	-2472
▁requirement	-2473
-20	-2474
▁Tr	-2475
▁vent	-2476
▁Party	-2477
▁picked	-2478
ationship	-2479
▁Am	-2480
▁17?	-2481
▁Get	-2482
▁suc	-2483
acked	-2484
▁john	-2485
▁56	-2486
▁NE	-2487
▁sl	-2488
▁along	-2489
-72	-2490
phy	-2491
▁16,	-2492
▁flo	-2493
▁happen	-2494
imin	-2495
quis	-2496
▁18?	-2497
▁Cre	-2498
▁june	-2499
ocratic	-2500
▁august	-2501
▁duration	-2502
▁relationship	-2503
sf	-2504
alth	-2505
gram	-2506
unior	-2507
▁airl	-2508
▁occur	-2509
▁entries	-2510
OL	-2511
Ret	-2512
▁bal	-2513
stack	-2514
▁field	-2515
▁later	-2516
▁medications	-2517
gr	-2518
elf	-2519
▁inj	-2520
icago	-2521
▁playing	-2522
▁q	-2523
▁ap	-2524
▁016	-2525
▁evening	-2526
▁victory	-2527
get	-2528
ink	-2529
▁mo	-2530
▁actor	-2531
▁Surface	-2532
▁athlete	-2533
ma	-2534
rop	-2535
ient	-2536
▁elev	-2537
me	-2538
▁San	-2539
acing	-2540
usion	-2541
ij	-2542
▁07	-2543
▁Series	-2544
▁friend	-2545
ese	-2546
panic	-2547
▁weeks	-2548
astolic	-2549
▁tested	-2550
▁ticket	-2551
▁institution	-2552
rh	-2553
▁44	-2554
▁15,	-2555
▁relig	-2556
▁invest	-2557
▁originally	-2558
my	-2559
-0?	-2560
ani	-2561
mia	-2562
▁Br	-2563
▁mc	-2564
▁table	-2565
▁inform	-2566
▁Winning	-2567
▁decision	-2568
▁melbourne	-2569
▁transactions	-2570
ild	-2571
uel	-2572
▁33	-2573
▁76	-2574
▁App	-2575
▁Prof	-2576
Retired	-2577
ization	-2578
▁depart	-2579
▁Answers	-2580
▁specific	-2581
▁ol	-2582
▁national	-2583
▁_	-2584
▁39	-2585
▁42	-2586
▁An	-2587
▁fare	-2588
▁claim	-2589
▁temper	-2590
els	-2591
▁Tie	-2592
▁launch	-2593
▁visited	-2594
▁aircraft	-2595
uper	-2596
▁compet	-2597
▁catheter	-2598
▁Ne	-2599
oston	-2600
▁guest	-2601
▁seats	-2602
:0	-2603
10?	-2604
▁GP	-2605
▁sat	-2606
▁York	-2607
▁distance	-2608
reet	-2609
▁Fin	-2610
▁Lab	-2611
ether	-2612
▁67	-2613
▁Of	-2614
back	-2615
▁make	-2616
▁oval	-2617
▁2103?	-2618
oscop	-2619
▁movies	-2620
onn	-2621
yle	-2622
▁69	-2623
▁period	-2624
▁captain	-2625
▁recorded	-2626
▁candidate	-2627
eff	-2628
ona	-2629
▁06	-2630
▁chloride	-2631
yn	-2632
ula	-2633
urope	-2634
▁Overall	-2635
▁accounts	-2636
▁millions	-2637
▁broadcast	-2638
rie	-2639
▁41	-2640
▁19,	-2641
igned	-2642
▁grouped	-2643
▁parties	-2644
▁february	-2645
but	-2646
ized	-2647
quency	-2648
▁2012?	-2649
▁hometown	-2650
▁By	-2651
ancy	-2652
▁25?	-2653
▁exp	-2654
▁tor	-2655
▁rest	-2656
▁tube	-2657
▁earlier	-2658
▁popular	-2659
75	-2660
US	-2661
be	-2662
▁54	-2663
ache	-2664
▁Will	-2665
▁const	-2666
▁house	-2667
▁Frequency	-2668
▁university	-2669
.?	-2670
68	-2671
ected	-2672
▁valve	-2673
▁43	-2674
▁adv	-2675
iency	-2676
ummer	-2677
▁Japan	-2678
ublican	-2679
▁comment	-2680
▁positions	-2681
aur	-2682
gin	-2683
▁add	-2684
olina	-2685
ermany	-2686
60?	-2687
use	-2688
rest	-2689
▁july	-2690
▁right	-2691
1.	-2692
▁prob	-2693
▁survival	-2694
▁information	-2695
▁(8	-2696
▁El	-2697
imal	-2698
▁005	-2699
▁ple	-2700
ators	-2701
▁aort	-2702
▁wines	-2703
▁Winner	-2704
ana	-2705
▁wid	-2706
anding	-2707
rol	-2708
_200	-2709
oice	-2710
▁prere	-2711
▁earned	-2712
▁taking	-2713
ty	-2714
ica	-2715
▁FOR	-2716
▁try	-2717
yd	-2718
/19	-2719
▁300	-2720
▁elaps	-2721
▁temperature	-2722
pr	-2723
ract	-2724
▁Haw	-2725
▁NEW	-2726
nings	-2727
▁apps	-2728
▁side	-2729
▁2005?	-2730
▁income	-2731
▁market	-2732
▁elapsed	-2733
▁facility	-2734
born	-2735
▁190	-2736
ascot	-2737
▁Elect	-2738
▁ended	-2739
59	-2740
Cl	-2741
den	-2742
▁015	-2743
▁way	-2744
ories	-2745
votes	-2746
▁Prix	-2747
▁deleg	-2748
▁County	-2749
//	-2750
pm	-2751
://	-2752
mon	-2753
▁Af	-2754
aces	-2755
ouis	-2756
▁17,	-2757
▁hep	-2758
▁pot	-2759
ublic	-2760
▁027-1	-2761
▁center	-2762
▁sorted	-2763
▁Display	-2764
uk	-2765
ero	-2766
sue	-2767
▁Cap	-2768
▁form	-2769
▁pleural	-2770
ury	-2771
▁ca	-2772
card	-2773
▁19?	-2774
▁liv	-2775
▁clin	-2776
cessor	-2777
▁train	-2778
▁scorer	-2779
ida	-2780
icles	-2781
estern	-2782
▁TO	-2783
▁Type	-2784
icense	-2785
▁Drawn	-2786
▁drivers	-2787
▁entrant	-2788
DP	-2789
▁72	-2790
onto	-2791
inine	-2792
▁color	-2793
▁Question	-2794
unicipality	-2795
-2?	-2796
▁022	-2797
▁13,	-2798
▁18,	-2799
ridge	-2800
ronic	-2801
▁roll	-2802
▁films	-2803
▁health	-2804
▁opened	-2805
enc	-2806
▁51	-2807
ible	-2808
▁Ste	-2809
atform	-2810
change	-2811
▁booking	-2812
▁followed	-2813
▁prerequis	-2814
RP	-2815
▁Ac	-2816
▁ST	-2817
Name	-2818
▁22?	-2819
▁htt	-2820
apest	-2821
▁alph	-2822
▁affili	-2823
EG	-2824
OM	-2825
oll	-2826
gest	-2827
▁218	-2828
rb	-2829
lin	-2830
▁Ex	-2831
▁pan	-2832
▁leave	-2833
▁fewest	-2834
▁greatest	-2835
rick	-2836
▁don	-2837
amily	-2838
▁wind	-2839
▁2004?	-2840
▁watch	-2841
▁prices	-2842
▁Population	-2843
▁04	-2844
▁SO	-2845
rial	-2846
▁div	-2847
▁Tags	-2848
▁Final	-2849
▁renal	-2850
▁Answer	-2851
▁undergone	-2852
-25	-2853
▁(2	-2854
▁men	-2855
▁runs	-2856
rad	-2857
▁es	-2858
club	-2859
▁bow	-2860
▁star	-2861
▁input	-2862
▁Catalog	-2863
▁Outcome	-2864
▁wednesday	-2865
cut	-2866
rac	-2867
▁Bu	-2868
iana	-2869
▁peak	-2870
▁town	-2871
▁general	-2872
ournaments	-2873
▁:	-2874
▁Sw	-2875
▁eas	-2876
▁road	-2877
▁2102?	-2878
▁placed	-2879
▁volume	-2880
▁champion	-2881
▁includes	-2882
-11	-2883
leed	-2884
▁ord	-2885
/2104?	-2886
▁organism	-2887
CS	-2888
▁stro	-2889
▁liver	-2890
▁007	-2891
▁squ	-2892
▁tom	-2893
▁active	-2894
▁segment	-2895
▁transaction	-2896
42	-2897
gen	-2898
▁(10	-2899
endon	-2900
▁genre	-2901
▁version	-2902
▁winners	-2903
iop	-2904
▁97	-2905
urch	-2906
ection	-2907
▁Group	-2908
▁ships	-2909
▁regular	-2910
▁started	-2911
▁nickname	-2912
69	-2913
ema	-2914
▁Area	-2915
▁budget	-2916
▁source	-2917
▁tracks	-2918
-67	-2919
▁Ad	-2920
▁Ang	-2921
▁1990	-2922
▁mich	-2923
▁yards	-2924
49	-2925
ask	-2926
icle	-2927
▁021	-2928
▁25,	-2929
▁kil	-2930
▁ment	-2931
▁poll	-2932
▁tele	-2933
▁delta	-2934
▁letter	-2935
▁chronic	-2936
▁alphabet	-2937
▁creatinine	-2938
▁Me	-2939
▁dev	-2940
▁local	-2941
▁Losses	-2942
ATA	-2943
rain	-2944
ying	-2945
▁27?	-2946
▁1996	-2947
▁email	-2948
▁normal	-2949
-12	-2950
.0?	-2951
oot	-2952
▁30?	-2953
▁Weight	-2954
▁hispanic	-2955
ba	-2956
▁mid	-2957
ander	-2958
eason	-2959
▁1999	-2960
▁happened	-2961
▁OAK	-2962
▁dep	-2963
▁trip	-2964
▁block	-2965
-73	-2966
field	-2967
▁prix	-2968
ground	-2969
ological	-2970
)-	-2971
11?	-2972
riz	-2973
lant	-2974
▁san	-2975
▁Mark	-2976
▁prior	-2977
▁stacked	-2978
▁religion	-2979
amin	-2980
▁ERP	-2981
ensus	-2982
▁Amer	-2983
▁heat	-2984
▁David	-2985
▁Create	-2986
▁bookings	-2987
▁government	-2988
ams	-2989
▁ul	-2990
eles	-2991
▁Air	-2992
▁sao	-2993
▁West	-2994
▁cuts	-2995
▁FI	-2996
▁Pe	-2997
▁21?	-2998
▁Met	-2999
▁red	-3000
▁stop	-3001
▁2003?	-3002
▁throm	-3003
▁cheapest	-3004
▁replacement	-3005
ED	-3006
OU	-3007
ald	-3008
▁24?	-3009
▁Race	-3010
▁ends	-3011
▁prem	-3012
eelong	-3013
▁Years	-3014
▁bleed	-3015
▁clubs	-3016
▁mountains	-3017
bc	-3018
xas	-3019
▁65	-3020
▁74	-3021
▁88	-3022
▁sn	-3023
ania	-3024
▁Min	-3025
▁Pol	-3026
▁Carl	-3027
▁magn	-3028
▁Driver	-3029
▁Racing	-3030
HS	-3031
pass	-3032
▁Ent	-3033
▁sex	-3034
▁exact	-3035
▁family	-3036
▁OAKLAND	-3037
▁championships	-3038
chd	-3039
▁66	-3040
▁kg	-3041
▁ly	-3042
▁025	-3043
▁Tor	-3044
▁sett	-3045
▁vers	-3046
▁Match	-3047
▁allergy	-3048
▁leading	-3049
▁District	-3050
▁international	-3051
ET	-3052
▁23?	-3053
▁GDP	-3054
▁regist	-3055
▁completed	-3056
met	-3057
▁52	-3058
ider	-3059
▁24,	-3060
▁IATA	-3061
▁hold	-3062
▁thera	-3063
▁floors	-3064
▁indust	-3065
=28	-3066
▁01	-3067
cont	-3068
ench	-3069
thorn	-3070
▁1998	-3071
▁russ	-3072
▁cover	-3073
▁specify	-3074
▁quantity	-3075
▁transport	-3076
▁descriptions	-3077
▁AA	-3078
▁her	-3079
▁tab	-3080
going	-3081
▁theme	-3082
▁newborn	-3083
na	-3084
▁2:	-3085
▁TV	-3086
omas	-3087
▁017	-3088
ansas	-3089
▁west	-3090
▁59	-3091
ales	-3092
rill	-3093
icate	-3094
▁gast	-3095
assium	-3096
▁64	-3097
▁22,	-3098
▁kid	-3099
▁glucose	-3100
bor	-3101
▁rad	-3102
ornia	-3103
▁then	-3104
ameter	-3105
asters	-3106
▁racing	-3107
alifornia	-3108
▁Australia	-3109
▁potassium	-3110
▁published	-3111
ocy	-3112
▁188	-3113
▁mass	-3114
▁2001?	-3115
▁thromb	-3116
▁watched	-3117
las	-3118
anch	-3119
▁playoff	-3120
▁construct	-3121
▁background	-3122
▁containing	-3123
▁77	-3124
▁Jo	-3125
went	-3126
▁imp	-3127
▁oth	-3128
alian	-3129
ivity	-3130
▁journ	-3131
52	-3132
53	-3133
hold	-3134
ling	-3135
▁21,	-3136
▁THAN	-3137
▁dose	-3138
▁2000?	-3139
▁World	-3140
▁400	-3141
▁Dem	-3142
ersey	-3143
▁2101?	-3144
:00?	-3145
▁Bin	-3146
▁sim	-3147
▁Char	-3148
▁Rober	-3149
▁contains	-3150
ya	-3151
ives	-3152
▁veh	-3153
▁Paul	-3154
▁asian	-3155
▁license	-3156
▁30,	-3157
▁AND	-3158
▁king	-3159
lement	-3160
▁Award	-3161
hz	-3162
▁er	-3163
ided	-3164
ixed	-3165
omot	-3166
▁Dec	-3167
▁Fri	-3168
▁fig	-3169
unity	-3170
▁2105	-3171
▁prize	-3172
▁During	-3173
rica	-3174
▁see	-3175
ancer	-3176
ancis	-3177
utral	-3178
▁2104	-3179
▁cast	-3180
62	-3181
athy	-3182
pect	-3183
▁013	-3184
▁Compare	-3185
▁contestant	-3186
kg	-3187
▁73	-3188
▁Sm	-3189
utes	-3190
velo	-3191
▁Tom	-3192
▁fee	-3193
▁Geor	-3194
▁cent	-3195
▁subm	-3196
chdowns	-3197
▁writer	-3198
▁authority	-3199
▁transportation	-3200
ano	-3201
▁Red	-3202
▁eff	-3203
▁1995	-3204
action	-3205
answer	-3206
▁Model	-3207
▁golds	-3208
▁Partner	-3209
▁capital	-3210
▁english	-3211
▁involves	-3212
▁latitude	-3213
64	-3214
KE	-3215
erv	-3216
lph	-3217
Club	-3218
oria	-3219
▁clay	-3220
▁2002?	-3221
▁query	-3222
▁exactly	-3223
▁platform	-3224
63	-3225
raz	-3226
▁12/	-3227
▁IHS	-3228
▁thr	-3229
▁Phil	-3230
▁self	-3231
▁based	-3232
▁Runner	-3233
▁yearly	-3234
▁cardiac	-3235
▁passeng	-3236
▁involved	-3237
CAO	-3238
ria	-3239
▁ii	-3240
▁2560?	-3241
▁program	-3242
llingwood	-3243
▁ce	-3244
▁hyd	-3245
▁Jack	-3246
▁appe	-3247
▁fight	-3248
▁interview	-3249
ss	-3250
▁=	-3251
roit	-3252
▁23,	-3253
erman	-3254
▁1991	-3255
▁gross	-3256
▁delegates	-3257
ogra	-3258
ored	-3259
▁Bob	-3260
lphia	-3261
▁1994	-3262
▁data	-3263
▁older	-3264
▁storm	-3265
adelphia	-3266
▁teaching	-3267
▁competitions	-3268
%,	-3269
sc	-3270
imb	-3271
▁she	-3272
▁ages	-3273
▁meet	-3274
▁Michael	-3275
ko	-3276
va	-3277
za	-3278
▁62	-3279
aska	-3280
neum	-3281
▁1997	-3282
▁hypert	-3283
▁review	-3284
▁underwent	-3285
Hz	-3286
iro	-3287
cray	-3288
▁Ital	-3289
▁live	-3290
itions	-3291
ursday	-3292
▁1999?	-3293
▁IHSAA	-3294
otscray	-3295
▁credit	-3296
▁assigned	-3297
51	-3298
kn	-3299
ipp	-3300
osh	-3301
berg	-3302
▁28?	-3303
▁vir	-3304
bined	-3305
lands	-3306
rican	-3307
▁Best	-3308
▁owner	-3309
▁pneum	-3310
▁services	-3311
▁appearances	-3312
ado	-3313
ajor	-3314
▁ask	-3315
▁cre	-3316
▁rich	-3317
▁divor	-3318
▁enter	-3319
▁stand	-3320
▁clinic	-3321
▁william	-3322
▁Opponents	-3323
gia	-3324
orrh	-3325
uman	-3326
▁rec	-3327
urday	-3328
▁ICAO	-3329
letion	-3330
▁olymp	-3331
▁technic	-3332
▁airlines	-3333
▁arriving	-3334
92	-3335
rt	-3336
12?	-3337
:30	-3338
arr	-3339
▁004	-3340
▁512	-3341
▁land	-3342
▁port	-3343
▁sales	-3344
▁Summer	-3345
ae	-3346
oun	-3347
▁OR	-3348
ases	-3349
itch	-3350
▁good	-3351
▁pain	-3352
▁vill	-3353
itzroy	-3354
▁prote	-3355
▁Intern	-3356
overflow	-3357
▁treated	-3358
▁respiratory	-3359
kes	-3360
▁78	-3361
onia	-3362
▁Bill	-3363
▁Epis	-3364
▁http	-3365
▁swims	-3366
▁Comments	-3367
41	-3368
WA	-3369
pa	-3370
yth	-3371
ysis	-3372
▁cle	-3373
▁Long	-3374
▁chem	-3375
▁Chassis	-3376
ITY	-3377
uer	-3378
iber	-3379
ohns	-3380
▁extra	-3381
▁women	-3382
▁Region	-3383
▁created	-3384
▁Di	-3385
▁im	-3386
-200	-3387
ader	-3388
ster	-3389
▁Orig	-3390
▁fest	-3391
▁york	-3392
uesday	-3393
ategory	-3394
▁heartrate	-3395
TH	-3396
ops	-3397
▁My	-3398
▁PH	-3399
▁Pr	-3400
▁ng	-3401
▁010	-3402
▁Pat	-3403
▁den	-3404
▁soln	-3405
▁your	-3406
ralian	-3407
▁badge	-3408
▁insert	-3409
▁versus	-3410
▁appointment	-3411
-74	-3412
ming	-3413
▁dead	-3414
▁fall	-3415
stolic	-3416
▁orders	-3417
▁section	-3418
▁Category	-3419
SI	-3420
the	-3421
▁(20	-3422
▁Bel	-3423
▁Los	-3424
▁key	-3425
▁pod	-3426
▁1998?	-3427
diastolic	-3428
▁Richmond	-3429
DA	-3430
.12	-3431
▁26?	-3432
▁pos	-3433
arters	-3434
▁ranks	-3435
putation	-3436
▁through	-3437
▁replaced	-3438
43	-3439
ini	-3440
▁96	-3441
igan	-3442
reak	-3443
room	-3444
▁Cent	-3445
▁native	-3446
▁afterno	-3447
▁silvers	-3448
▁featured	-3449
77	-3450
ji	-3451
500	-3452
ocard	-3453
▁gown	-3454
▁afternoon	-3455
DE	-3456
▁tv	-3457
▁Med	-3458
▁cit	-3459
▁imm	-3460
ports	-3461
▁(200	-3462
▁East	-3463
▁compl	-3464
▁index	-3465
▁james	-3466
▁spons	-3467
▁sport	-3468
▁indian	-3469
▁answered	-3470
▁divorced	-3471
▁tournaments	-3472
-3?	-3473
from	-3474
▁far	-3475
inese	-3476
known	-3477
▁Month	-3478
▁Boston	-3479
▁alphabetical	-3480
AP	-3481
▁53	-3482
▁75	-3483
▁85	-3484
oglo	-3485
rome	-3486
ockey	-3487
▁CITY	-3488
nesota	-3489
ohnson	-3490
▁Draws	-3491
▁poles	-3492
▁bypass	-3493
▁industry	-3494
ten	-3495
▁31?	-3496
▁End	-3497
▁hcl	-3498
▁1992	-3499
▁Hill	-3500
▁dorm	-3501
▁paul	-3502
▁census	-3503
▁living	-3504
▁attract	-3505
▁support	-3506
89	-3507
ext	-3508
ged	-3509
hib	-3510
oul	-3511
▁83	-3512
▁89	-3513
burg	-3514
sych	-3515
▁avg	-3516
▁Call	-3517
▁Smith	-3518
▁graft	-3519
▁starts	-3520
exchange	-3521
▁counties	-3522
▁swimsuit	-3523
▁elevation	-3524
▁specified	-3525
▁television	-3526
ava	-3527
000,	-3528
arin	-3529
sign	-3530
▁Mor	-3531
ither	-3532
mature	-3533
▁david	-3534
▁known	-3535
▁mascot	-3536
alo	-3537
cin	-3538
ova	-3539
pre	-3540
rab	-3541
stop	-3542
▁Peter	-3543
▁Visitor	-3544
▁minutes	-3545
▁opposing	-3546
iet	-3547
ides	-3548
▁193	-3549
▁agg	-3550
ondon	-3551
▁free	-3552
▁poss	-3553
Ne	-3554
▁CH	-3555
▁250	-3556
▁1996?	-3557
▁Label	-3558
ituency	-3559
▁podium	-3560
▁hypertension	-3561
uz	-3562
=27	-3563
oth	-3564
win	-3565
▁Av	-3566
▁ep	-3567
▁Art	-3568
▁Bro	-3569
▁pul	-3570
ceded	-3571
leges	-3572
▁edit	-3573
▁just	-3574
▁brand	-3575
▁infar	-3576
▁hemorrh	-3577
cor	-3578
iki	-3579
mar	-3580
▁SE	-3581
▁192	-3582
▁29?	-3583
▁due	-3584
▁pat	-3585
voted	-3586
▁store	-3587
▁atrial	-3588
▁follow	-3589
▁worksh	-3590
answered	-3591
▁respiration	-3592
py	-3593
rs	-3594
▁0.9	-3595
▁26,	-3596
▁Ass	-3597
▁cop	-3598
▁pil	-3599
▁Vict	-3600
▁camp	-3601
▁insu	-3602
▁tour	-3603
▁Canada	-3604
▁totals	-3605
▁yester	-3606
▁artists	-3607
▁yesterday	-3608
.5?	-3609
=14	-3610
▁Bru	-3611
▁Nor	-3612
▁aud	-3613
▁exc	-3614
▁Film	-3615
▁east	-3616
▁Other	-3617
▁offic	-3618
▁capita	-3619
▁elimin	-3620
▁longitude	-3621
73	-3622
▁Mo	-3623
rian	-3624
ulin	-3625
▁012	-3626
▁mem	-3627
▁mot	-3628
▁From	-3629
▁foot	-3630
▁tall	-3631
▁aortic	-3632
▁combined	-3633
▁friendly	-3634
ms	-3635
-4?	-3636
ste	-3637
▁Ant	-3638
▁cal	-3639
▁ran	-3640
elect	-3641
ricts	-3642
▁This	-3643
▁Wash	-3644
▁cond	-3645
▁Louis	-3646
▁chest	-3647
olution	-3648
▁Center	-3649
▁Europe	-3650
▁diabet	-3651
▁physic	-3652
▁nations	-3653
▁present	-3654
▁ratings	-3655
▁Original	-3656
▁destination	-3657
-16	-3658
ONT	-3659
ids	-3660
urt	-3661
ials	-3662
roid	-3663
▁29,	-3664
▁log	-3665
berry	-3666
▁anal	-3667
▁fract	-3668
▁Chicago	-3669
▁municipality	-3670
FC	-3671
ief	-3672
open	-3673
▁27,	-3674
▁les	-3675
▁geor	-3676
▁qual	-3677
▁well	-3678
▁Black	-3679
▁plate	-3680
▁Christ	-3681
▁colleges	-3682
OT	-3683
dy	-3684
ker	-3685
▁IN	-3686
▁ben	-3687
▁bus	-3688
▁pur	-3689
▁sus	-3690
▁prom	-3691
▁microbiological	-3692
aj	-3693
-66	-3694
▁#1	-3695
oney	-3696
vote	-3697
ocial	-3698
▁hand	-3699
▁mult	-3700
ablish	-3701
ivision	-3702
▁groups	-3703
▁locomot	-3704
▁vehicle	-3705
▁ventric	-3706
▁fracture	-3707
▁districts	-3708
▁Washington	-3709
▁passengers	-3710
stackexchange	-3711
▁hospitalized	-3712
78	-3713
amb	-3714
▁+1	-3715
ample	-3716
plant	-3717
▁capt	-3718
▁screen	-3719
▁quarter	-3720
▁infection	-3721
alt	-3722
▁CS	-3723
▁La	-3724
atin	-3725
orse	-3726
▁aust	-3727
▁full	-3728
▁mens	-3729
▁jerry	-3730
▁places	-3731
▁mention	-3732
▁restaur	-3733
▁complete	-3734
▁directors	-3735
74	-3736
MB	-3737
iger	-3738
▁Bad	-3739
▁byes	-3740
▁oral	-3741
▁rock	-3742
onnage	-3743
▁William	-3744
▁balance	-3745
premature	-3746
.14	-3747
iest	-3748
▁McC	-3749
thern	-3750
▁synd	-3751
Season	-3752
▁carri	-3753
▁Street	-3754
▁either	-3755
▁Percent	-3756
▁journal	-3757
▁problem	-3758
▁completion	-3759
▁transplant	-3760
▁headquarters	-3761
▁81	-3762
llino	-3763
▁1989	-3764
▁gain	-3765
▁admit	-3766
▁sever	-3767
oglobin	-3768
▁Toronto	-3769
▁authors	-3770
▁measure	-3771
▁unknown	-3772
Reg	-3773
det	-3774
ilt	-3775
ump	-3776
zes	-3777
▁63	-3778
▁Dr	-3779
ience	-3780
iopsy	-3781
ister	-3782
extram	-3783
▁guard	-3784
▁biopsy	-3785
▁Angeles	-3786
▁Reputation	-3787
▁hemorrhage	-3788
▁affiliation	-3789
RST	-3790
emp	-3791
▁Gu	-3792
▁du	-3793
akes	-3794
unit	-3795
▁MIL	-3796
order	-3797
▁Green	-3798
▁joint	-3799
▁ending	-3800
▁protein	-3801
▁younger	-3802
▁democratic	-3803
ky	-3804
raf	-3805
▁hc	-3806
word	-3807
▁Ath	-3808
▁Mart	-3809
▁cong	-3810
▁miss	-3811
▁rail	-3812
▁close	-3813
llinois	-3814
▁Episode	-3815
▁builder	-3816
▁starting	-3817
▁technicians	-3818
ORK	-3819
inn	-3820
tic	-3821
▁ox	-3822
▁215	-3823
▁los	-3824
▁Brit	-3825
▁FIRST	-3826
▁estim	-3827
▁anemia	-3828
▁trains	-3829
ablished	-3830
▁resulted	-3831
▁infarction	-3832
tre	-3833
cape	-3834
▁Cle	-3835
▁Den	-3836
▁Gen	-3837
▁jim	-3838
▁nor	-3839
aries	-3840
▁Sing	-3841
▁super	-3842
ancisco	-3843
▁awards	-3844
▁scient	-3845
questions	-3846
▁household	-3847
▁Fl	-3848
psis	-3849
▁Mil	-3850
▁You	-3851
▁har	-3852
▁lin	-3853
Major	-3854
istry	-3855
▁Nick	-3856
Neutral	-3857
Regular	-3858
▁branch	-3859
▁joined	-3860
▁Japanese	-3861
▁PreMajor	-3862
▁outgoing	-3863
▁treatment	-3864
▁apartments	-3865
/1	-3866
hab	-3867
lot	-3868
ears	-3869
▁0.5	-3870
▁Jim	-3871
inals	-3872
▁YORK	-3873
▁fulf	-3874
▁India	-3875
▁green	-3876
▁medicaid	-3877
▁projects	-3878
▁pneumonia	-3879
91	-3880
BA	-3881
CI	-3882
hg	-3883
kw	-3884
tr	-3885
▁(0	-3886
▁Ev	-3887
ious	-3888
rows	-3889
▁bank	-3890
▁Notes	-3891
▁serum	-3892
▁Finish	-3893
▁career	-3894
▁public	-3895
▁sepsis	-3896
▁elector	-3897
▁widowed	-3898
▁earnings	-3899
▁mountain	-3900
▁Calculate	-3901
emb	-3902
▁1.	-3903
▁61	-3904
▁94	-3905
▁Gl	-3906
cond	-3907
▁sun	-3908
aster	-3909
▁Does	-3910
▁Russ	-3911
number	-3912
▁Friday	-3913
▁Robert	-3914
▁Geelong	-3915
▁fulfill	-3916
▁retired	-3917
▁additive	-3918
TE	-3919
▁79	-3920
aker	-3921
attle	-3922
redit	-3923
▁coup	-3924
errari	-3925
▁edits	-3926
▁issue	-3927
details	-3928
▁contact	-3929
82	-3930
:3	-3931
oud	-3932
▁Id	-3933
▁op	-3934
onda	-3935
repr	-3936
▁035	-3937
▁Pan	-3938
▁Dire	-3939
▁Lane	-3940
▁1997?	-3941
▁Votes	-3942
▁check	-3943
▁fares	-3944
▁ident	-3945
reprene	-3946
▁monday	-3947
▁womens	-3948
▁Hawthorn	-3949
▁activity	-3950
▁thursday	-3951
▁successor	-3952
▁touchdowns	-3953
▁International	-3954
72	-3955
fa	-3956
yr	-3957
▁SC	-3958
▁cr	-3959
dean	-3960
▁bay	-3961
▁led	-3962
uerto	-3963
▁phil	-3964
▁sulf	-3965
▁cells	-3966
▁albums	-3967
▁cancer	-3968
▁Germany	-3969
ECT	-3970
gar	-3971
iga	-3972
olf	-3973
pet	-3974
▁UA	-3975
ardo	-3976
draw	-3977
▁110	-3978
▁28,	-3979
▁Net	-3980
inces	-3981
▁doll	-3982
▁mach	-3983
▁mart	-3984
▁Format	-3985
▁decile	-3986
▁losing	-3987
▁window	-3988
▁airdate	-3989
▁diabetes	-3990
UKE	-3991
che	-3992
ware	-3993
▁Rob	-3994
▁abs	-3995
burgh	-3996
▁120,	-3997
▁badges	-3998
▁kidney	-3999
▁severe	-4000
systolic	-4001
▁medicare	-4002
HL	-4003
II	-4004
TV	-4005
ife	-4006
ness	-4007
▁2.0	-4008
▁MDE	-4009
▁cin	-4010
▁mmhg	-4011
▁hosted	-4012
▁reason	-4013
▁served	-4014
▁compare	-4015
▁entered	-4016
▁enrolled	-4017
.,	-4018
wh	-4019
▁Sl	-4020
UKEE	-4021
elly	-4022
▁150	-4023
▁216	-4024
▁ann	-4025
▁jud	-4026
▁Port	-4027
WAUKEE	-4028
▁athlet	-4029
▁phones	-4030
▁Circuit	-4031
▁therapy	-4032
▁MILWAUKEE	-4033
▁hematology	-4034
UL	-4035
▁CD	-4036
atab	-4037
▁009	-4038
▁King	-4039
▁bronch	-4040
▁podiums	-4041
▁attractions	-4042
61	-4043
IL	-4044
.11	-4045
arb	-4046
▁Ro	-4047
▁UK	-4048
bers	-4049
gery	-4050
▁lot	-4051
▁Mike	-4052
▁Money	-4053
▁advis	-4054
▁shown	-4055
▁towns	-4056
▁wheel	-4057
▁wrest	-4058
▁latino	-4059
▁longest	-4060
▁nominee	-4061
▁teacher	-4062
▁tourist	-4063
fficiency	-4064
▁captains	-4065
▁prerequisites	-4066
▁prescriptions	-4067
ja	-4068
ban	-4069
for	-4070
ylv	-4071
meta	-4072
▁028	-4073
▁Des	-4074
▁Mot	-4075
▁Off	-4076
▁Wood	-4077
▁tiss	-4078
ctions	-4079
▁Mount	-4080
▁Status	-4081
▁Provide	-4082
▁American	-4083
▁carolina	-4084
▁occurred	-4085
▁payments	-4086
▁performer	-4087
79	-4088
AD	-4089
▁86	-4090
▁cd	-4091
OLIS	-4092
clud	-4093
line	-4094
▁CHI	-4095
▁bas	-4096
allen	-4097
treal	-4098
▁Spec	-4099
▁hill	-4100
oscopy	-4101
▁France	-4102
▁Search	-4103
▁gastro	-4104
▁England	-4105
▁nonstop	-4106
▁verdean	-4107
▁indicate	-4108
▁medicine	-4109
▁chemistry	-4110
▁Australian	-4111
▁performance	-4112
bit	-4113
ote	-4114
▁ft	-4115
▁ns	-4116
▁aut	-4117
▁deg	-4118
itian	-4119
▁Alex	-4120
▁Wind	-4121
/2103?	-4122
▁Frank	-4123
▁premier	-4124
▁careunit	-4125
▁conceded	-4126
▁diameter	-4127
▁qualifying	-4128
AC	-4129
azz	-4130
oug	-4131
▁95	-4132
▁HI	-4133
▁UL	-4134
anes	-4135
bral	-4136
dela	-4137
eden	-4138
tern	-4139
▁sen	-4140
▁Goal	-4141
▁Rock	-4142
▁caps	-4143
▁vess	-4144
▁2100?	-4145
▁James	-4146
▁japan	-4147
ography	-4148
▁awarded	-4149
▁Division	-4150
-13	-4151
gly	-4152
▁Fo	-4153
ocyt	-4154
very	-4155
onate	-4156
other	-4157
▁Core	-4158
▁prop	-4159
▁wick	-4160
▁voted	-4161
chester	-4162
▁develo	-4163
▁tagged	-4164
▁deleted	-4165
▁easiest	-4166
▁listing	-4167
▁nomination	-4168
chan	-4169
wards	-4170
▁flag	-4171
▁skip	-4172
APOLIS	-4173
delaide	-4174
▁insulin	-4175
▁creation	-4176
▁instruct	-4177
▁syndrome	-4178
%)	-4179
ga	-4180
enz	-4181
ius	-4182
phr	-4183
▁(5	-4184
▁Ob	-4185
wick	-4186
▁31,	-4187
▁haw	-4188
ginia	-4189
▁lact	-4190
ostomy	-4191
rental	-4192
▁2104.	-4193
ability	-4194
african	-4195
▁design	-4196
▁buildings	-4197
.13	-4198
ATE	-4199
ION	-4200
cus	-4201
avor	-4202
leet	-4203
▁ULCS	-4204
alaska	-4205
angers	-4206
oscopic	-4207
▁malign	-4208
▁ascites	-4209
▁vacancy	-4210
▁reported	-4211
▁entreprene	-4212
gn	-4213
hl	-4214
ny	-4215
ECS	-4216
aint	-4217
well	-4218
▁dro	-4219
inary	-4220
▁Comm	-4221
▁EECS	-4222
▁arch	-4223
▁ital	-4224
▁polic	-4225
▁water	-4226
▁Member	-4227
▁arrive	-4228
▁cerebr	-4229
▁hcards	-4230
▁Highest	-4231
ux	-4232
.15	-4233
AMI	-4234
umn	-4235
▁(4	-4236
▁3:	-4237
▁98	-4238
▁Lo	-4239
▁ge	-4240
oman	-4241
▁Det	-4242
▁tro	-4243
ydney	-4244
▁seat	-4245
▁debut	-4246
▁panel	-4247
▁Engine	-4248
Overflow	-4249
▁playoffs	-4250
-01	-4251
.16	-4252
=13	-4253
INN	-4254
irl	-4255
▁fc	-4256
itts	-4257
ucky	-4258
▁1.5	-4259
▁213	-4260
▁Har	-4261
aland	-4262
▁Miss	-4263
▁loan	-4264
▁1993?	-4265
▁2013?	-4266
▁abdom	-4267
▁views	-4268
haitian	-4269
▁moving	-4270
ocardial	-4271
▁related	-4272
▁launched	-4273
▁departure	-4274
▁established	-4275
84	-4276
VE	-4277
ec	-4278
erc	-4279
rem	-4280
▁DL	-4281
aine	-4282
▁Men	-4283
aniel	-4284
▁Apps	-4285
▁Town	-4286
monary	-4287
▁Length	-4288
▁assist	-4289
▁counts	-4290
▁bronzes	-4291
▁dollars	-4292
▁Footscray	-4293
▁myocardial	-4294
-22	-4295
=21	-4296
EST	-4297
bre	-4298
rey	-4299
▁99	-4300
▁102	-4301
rafts	-4302
▁FROM	-4303
▁cult	-4304
▁feet	-4305
▁span	-4306
▁chang	-4307
▁paper	-4308
▁radio	-4309
▁working	-4310
▁football	-4311
▁California	-4312
▁republican	-4313
▁Collingwood	-4314
▁nationalities	-4315
ola	-4316
▁92	-4317
erved	-4318
▁1200	-4319
▁1993	-4320
junior	-4321
▁Texas	-4322
▁Sydney	-4323
▁posted	-4324
▁deberry	-4325
▁participated	-4326
76	-4327
83	-4328
-6?	-4329
adi	-4330
awa	-4331
dle	-4332
amer	-4333
rice	-4334
▁Ben	-4335
▁MHz	-4336
▁Sem	-4337
▁ach	-4338
▁food	-4339
▁decor	-4340
▁mixed	-4341
▁actors	-4342
▁parish	-4343
articles	-4344
▁committ	-4345
▁saturday	-4346
▁standard	-4347
▁withdraw	-4348
▁restaurant	-4349
GO	-4350
do	-4351
ih	-4352
hio	-4353
ily	-4354
pro	-4355
▁pm	-4356
avis	-4357
▁Del	-4358
▁Ess	-4359
▁arr	-4360
▁ties	-4361
opathy	-4362
▁Scott	-4363
▁Trans	-4364
▁weigh	-4365
ascular	-4366
▁access	-4367
▁canada	-4368
▁investor	-4369
▁official	-4370
▁mp	-4371
aser	-4372
▁LAS	-4373
▁row	-4374
▁Jeff	-4375
▁calc	-4376
▁move	-4377
rolled	-4378
uggest	-4379
veland	-4380
▁react	-4381
▁deaths	-4382
▁Carlton	-4383
▁personal	-4384
▁following	-4385
▁Democratic	-4386
▁hemoglobin	-4387
▁instructor	-4388
=2	-4389
)'?	-4390
ips	-4391
yan	-4392
▁PLA	-4393
▁1980	-4394
▁Just	-4395
▁Lead	-4396
▁circ	-4397
▁coll	-4398
▁Crowd	-4399
▁MIAMI	-4400
▁stars	-4401
entucky	-4402
▁assets	-4403
▁finals	-4404
▁Chinese	-4405
▁tuesday	-4406
▁insufficiency	-4407
oo	-4408
=20	-4409
ENT	-4410
ymn	-4411
enns	-4412
▁Sim	-4413
▁Tim	-4414
▁fib	-4415
▁soft	-4416
▁006-2	-4417
▁Rider	-4418
▁arena	-4419
▁colon	-4420
▁rates	-4421
ylvania	-4422
▁christ	-4423
▁magnes	-4424
▁repair	-4425
▁square	-4426
▁studio	-4427
▁michael	-4428
▁strokes	-4429
▁possible	-4430
▁provided	-4431
▁Percentage	-4432
▁instructors	-4433
▁StackOverflow	-4434
sa	-4435
ala	-4436
rel	-4437
▁87	-4438
CAGO	-4439
rama	-4440
▁SEL	-4441
allas	-4442
ffalo	-4443
▁disc	-4444
weight	-4445
▁moder	-4446
▁CHICAGO	-4447
▁regions	-4448
▁airports	-4449
▁registered	-4450
mb	-4451
ces	-4452
mill	-4453
tage	-4454
▁alt	-4455
▁bob	-4456
▁ess	-4457
▁pet	-4458
▁tog	-4459
▁tur	-4460
▁web	-4461
▁2103	-4462
▁acid	-4463
enness	-4464
ymnast	-4465
▁WHich	-4466
▁whats	-4467
▁church	-4468
▁chicago	-4469
▁finding	-4470
ittsburgh	-4471
▁locomotive	-4472
/3	-4473
IX	-4474
dd	-4475
-30	-4476
cle	-4477
yst	-4478
▁)?	-4479
read	-4480
lanta	-4481
▁1986	-4482
▁carl	-4483
▁jack	-4484
▁neop	-4485
▁sput	-4486
▁Jones	-4487
▁horse	-4488
▁speak	-4489
▁couple	-4490
▁disorder	-4491
▁systemic	-4492
▁systolic	-4493
▁eliminated	-4494
05	-4495
9)	-4496
RO	-4497
fr	-4498
med	-4499
oid	-4500
opp	-4501
▁#2	-4502
▁Day	-4503
▁ast	-4504
▁dys	-4505
▁2014	-4506
▁plot	-4507
▁sund	-4508
▁agent	-4509
▁going	-4510
allenge	-4511
▁island	-4512
▁leader	-4513
▁oldest	-4514
▁railway	-4515
▁together	-4516
▁community	-4517
ennsylvania	-4518
▁administered	-4519
▁Championships	-4520
CL	-4521
su	-4522
-08	-4523
kins	-4524
omen	-4525
▁187	-4526
▁Stud	-4527
▁1994?	-4528
▁drain	-4529
▁reach	-4530
▁semif	-4531
itional	-4532
ospinal	-4533
▁Report	-4534
▁intest	-4535
▁sputum	-4536
▁germany	-4537
▁tonnage	-4538
▁Essendon	-4539
▁cerebrospinal	-4540
Id	-4541
alf	-4542
ude	-4543
▁Up	-4544
iami	-4545
▁1987	-4546
▁Belg	-4547
▁Lake	-4548
▁vanc	-4549
▁Chris	-4550
▁antib	-4551
▁intra	-4552
▁wound	-4553
▁Monday	-4554
▁SELECT	-4555
▁injury	-4556
▁stroke	-4557
▁gymnast	-4558
▁Carolina	-4559
▁obstruct	-4560
▁township	-4561
▁pulmonary	-4562
▁resolution	-4563
stackoverflow	-4564
▁constituency	-4565
▁entrepreneurs	-4566
Un	-4567
-19	-4568
han	-4569
upl	-4570
came	-4571
load	-4572
reek	-4573
▁108	-4574
▁rid	-4575
▁Last	-4576
▁tabs	-4577
ouston	-4578
▁items	-4579
atabase	-4580
▁Comput	-4581
▁Margin	-4582
uggested	-4583
▁sulfate	-4584
▁western	-4585
▁Accepted	-4586
▁cerebral	-4587
▁Minnesota	-4588
▁magnesium	-4589
▁Philadelphia	-4590
:2	-4591
acy	-4592
cel	-4593
ful	-4594
iny	-4595
▁dr	-4596
arth	-4597
▁106	-4598
▁war	-4599
ennis	-4600
▁econ	-4601
inence	-4602
▁2105.	-4603
▁Birth	-4604
▁shock	-4605
▁ulcer	-4606
cording	-4607
▁Africa	-4608
ennessee	-4609
▁defensive	-4610
▁Republican	-4611
▁settlement	-4612
▁participants	-4613
▁representative	-4614
IAN	-4615
irt	-4616
isc	-4617
lat	-4618
▁et	-4619
oper	-4620
rodu	-4621
▁(12	-4622
▁Cor	-4623
▁Mal	-4624
▁sav	-4625
atist	-4626
worth	-4627
▁Mill	-4628
▁Road	-4629
▁View	-4630
▁acet	-4631
▁band	-4632
▁clim	-4633
▁Artist	-4634
▁aggreg	-4635
▁others	-4636
▁russian	-4637
▁surgery	-4638
▁aircrafts	-4639
86	-4640
cm	-4641
GER	-4642
▁84	-4643
rose	-4644
▁Pet	-4645
▁tack	-4646
atives	-4647
▁1992?	-4648
▁Power	-4649
▁Tries	-4650
▁hydro	-4651
▁arteri	-4652
▁street	-4653
▁keyword	-4654
▁opening	-4655
▁Director	-4656
▁bleeding	-4657
▁expensive	-4658
01	-4659
FA	-4660
kee	-4661
▁(3	-4662
▁(6	-4663
▁FL	-4664
▁1.0	-4665
▁Bay	-4666
▁Jan	-4667
▁Nov	-4668
▁bru	-4669
▁lim	-4670
cemia	-4671
ences	-4672
ython	-4673
▁CHAR	-4674
▁Mary	-4675
▁flor	-4676
aneous	-4677
▁Super	-4678
percent	-4679
▁Jersey	-4680
▁sunday	-4681
▁Fitzroy	-4682
▁Release	-4683
▁allergies	-4684
▁percentile	-4685
▁commentator	-4686
93	-4687
IC	-4688
.10	-4689
unc	-4690
▁gi	-4691
000)	-4692
EGAS	-4693
ique	-4694
rett	-4695
▁033	-4696
▁125	-4697
▁bil	-4698
▁gar	-4699
▁vas	-4700
ouver	-4701
▁Flor	-4702
▁look	-4703
▁writ	-4704
▁Arena	-4705
▁VEGAS	-4706
▁Select	-4707
▁torque	-4708
▁National	-4709
▁minister	-4710
etherlands	-4711
▁abdominal	-4712
▁En	-4713
lasm	-4714
with	-4715
▁101	-4716
▁34?	-4717
▁Mus	-4718
▁zip	-4719
▁Jose	-4720
▁kick	-4721
▁1987?	-4722
▁achie	-4723
▁drove	-4724
▁picks	-4725
▁rican	-4726
coronary	-4727
▁Detroit	-4728
▁calcium	-4729
▁categories	-4730
9.	-4731
EM	-4732
sp	-4733
erk	-4734
▁DI	-4735
anie	-4736
evin	-4737
lers	-4738
side	-4739
▁207	-4740
▁Ham	-4741
▁NHL	-4742
▁deb	-4743
ivals	-4744
▁cloud	-4745
▁early	-4746
▁grade	-4747
▁psych	-4748
▁serve	-4749
cardiac	-4750
▁Method	-4751
▁guests	-4752
▁storms	-4753
▁process	-4754
▁affected	-4755
▁workshop	-4756
▁festivals	-4757
▁represented	-4758
▁ventricular	-4759
▁prerequisite	-4760
LD	-4761
-17	-4762
oen	-4763
ski	-4764
uke	-4765
mony	-4766
▁Sat	-4767
▁enz	-4768
▁que	-4769
▁sep	-4770
/2105	-4771
▁trsf	-4772
/2102?	-4773
▁miles	-4774
▁never	-4775
▁Social	-4776
▁column	-4777
▁someone	-4778
▁Victoria	-4779
▁numbered	-4780
▁platelet	-4781
▁sections	-4782
ARK	-4783
LOT	-4784
oor	-4785
por	-4786
▁fm	-4787
osph	-4788
▁Kar	-4789
▁Pal	-4790
▁oil	-4791
▁aver	-4792
▁dext	-4793
▁webs	-4794
▁022-1	-4795
▁asked	-4796
▁enzym	-4797
▁human	-4798
▁premi	-4799
▁sched	-4800
▁skill	-4801
▁Charles	-4802
▁minimal	-4803
▁scoring	-4804
cos	-4805
ien	-4806
ira	-4807
▁je	-4808
▁li	-4809
▁ru	-4810
ores	-4811
▁Gra	-4812
▁TOP	-4813
▁gpa	-4814
adian	-4815
▁Song	-4816
▁girl	-4817
▁1983?	-4818
▁Steve	-4819
▁links	-4820
▁should	-4821
▁Western	-4822
▁belongs	-4823
▁teaches	-4824
▁platforms	-4825
▁qualification	-4826
cu	-4827
.3?	-4828
DAY	-4829
qmi	-4830
▁SM	-4831
▁ir	-4832
iles	-4833
orac	-4834
▁0.0	-4835
▁140	-4836
▁Roy	-4837
▁Val	-4838
▁bol	-4839
▁sam	-4840
istan	-4841
▁1985	-4842
▁Greg	-4843
racran	-4844
▁031-3	-4845
▁Among	-4846
▁China	-4847
▁Field	-4848
▁night	-4849
aserati	-4850
▁London	-4851
▁driven	-4852
▁tissue	-4853
▁enteral	-4854
▁swimmer	-4855
▁addresses	-4856
▁aggregate	-4857
▁diastolic	-4858
OB	-4859
kl	-4860
/20	-4861
1)?	-4862
2)?	-4863
ERE	-4864
OEN	-4865
oke	-4866
▁91	-4867
▁tp	-4868
enry	-4869
▁032	-4870
▁Avg	-4871
▁IND	-4872
▁NFL	-4873
▁Reb	-4874
LOTTE	-4875
OENIX	-4876
ophen	-4877
orial	-4878
▁100,	-4879
▁SEAT	-4880
▁2008,	-4881
▁bount	-4882
▁resid	-4883
▁while	-4884
▁europe	-4885
▁lasted	-4886
▁median	-4887
▁viewed	-4888
▁PHOENIX	-4889
▁airline	-4890
▁upvotes	-4891
▁neoplasm	-4892
▁CHARLOTTE	-4893
▁Conference	-4894
.1?	-4895
.4?	-4896
inu	-4897
mit	-4898
ont	-4899
utr	-4900
▁82	-4901
apol	-4902
mers	-4903
unct	-4904
▁105	-4905
▁LOS	-4906
LANDO	-4907
arden	-4908
▁sept	-4909
acheal	-4910
credit	-4911
reland	-4912
▁Italy	-4913
▁appro	-4914
▁Second	-4915
▁calcul	-4916
▁manner	-4917
▁suffer	-4918
▁ORLANDO	-4919
racranial	-4920
▁according	-4921
85	-4922
erb	-4923
▁'1	-4924
▁AN	-4925
▁MC	-4926
▁na	-4927
ocal	-4928
phen	-4929
utic	-4930
▁127	-4931
▁514	-4932
▁Spe	-4933
▁Won	-4934
▁roy	-4935
▁ure	-4936
rated	-4937
vince	-4938
▁Auth	-4939
▁Tele	-4940
▁ball	-4941
▁Const	-4942
▁brain	-4943
▁lymph	-4944
▁around	-4945
▁france	-4946
▁uncont	-4947
▁Florida	-4948
▁billion	-4949
▁wickets	-4950
▁callsign	-4951
▁participate	-4952
▁translation	-4953
/09	-4954
15?	-4955
csf	-4956
▁Su	-4957
▁rd	-4958
▁Act	-4959
▁Kil	-4960
▁fur	-4961
ained	-4962
▁2560	-4963
cardia	-4964
▁campus	-4965
▁actress	-4966
▁heparin	-4967
▁runners	-4968
▁essendon	-4969
▁grouping	-4970
Le	-4971
alk	-4972
ila	-4973
▁Fe	-4974
▁ey	-4975
tran	-4976
▁180	-4977
▁law	-4978
▁mcg	-4979
▁ren	-4980
▁ten	-4981
limin	-4982
oenix	-4983
▁Qual	-4984
▁arab	-4985
▁link	-4986
▁once	-4987
▁030-4	-4988
▁Olymp	-4989
▁Start	-4990
▁often	-4991
▁detail	-4992
▁friday	-4993
▁writers	-4994
omination	-4995
▁president	-4996
.17	-4997
/21	-4998
eds	-4999
hal	-5000
ura	-5001
ario	-5002
pson	-5003
▁USA	-5004
brevi	-5005
oming	-5006
ption	-5007
▁2100	-5008
monton	-5009
▁031-1	-5010
▁aspir	-5011
▁defic	-5012
▁drive	-5013
▁immun	-5014
▁Indian	-5015
▁NEWARK	-5016
▁edition	-5017
▁Michigan	-5018
▁dextrose	-5019
▁required	-5020
fc	-5021
gy	-5022
300	-5023
TLE	-5024
avi	-5025
lit	-5026
lla	-5027
min	-5028
▁0.	-5029
ipal	-5030
mark	-5031
▁1.4	-5032
▁104	-5033
▁208	-5034
▁212	-5035
▁AAA	-5036
▁Sam	-5037
▁snf	-5038
▁ter	-5039
▁ton	-5040
otomy	-5041
▁2016	-5042
▁Next	-5043
▁such	-5044
▁text	-5045
ertain	-5046
▁Spain	-5047
▁fleet	-5048
cluding	-5049
▁SEATTLE	-5050
▁install	-5051
▁delivery	-5052
▁uncontrolled	-5053
ii	-5054
ni	-5055
rn	-5056
-18	-5057
ANS	-5058
ias	-5059
▁Ab	-5060
ting	-5061
▁hel	-5062
▁pac	-5063
▁Byes	-5064
▁dial	-5065
▁whom	-5066
otland	-5067
▁1990?	-5068
▁occup	-5069
▁smith	-5070
ression	-5071
▁Thomas	-5072
▁became	-5073
▁vessel	-5074
fference	-5075
▁central	-5076
▁figures	-5077
▁including	-5078
04	-5079
09	-5080
-24	-5081
ING	-5082
eme	-5083
esh	-5084
▁HD	-5085
/200	-5086
atre	-5087
onio	-5088
▁fam	-5089
iants	-5090
▁1988	-5091
▁2102	-5092
▁Blue	-5093
▁Hall	-5094
▁Matt	-5095
▁alex	-5096
▁lake	-5097
▁Coast	-5098
▁SCORE	-5099
outhern	-5100
▁George	-5101
▁Office	-5102
▁figure	-5103
▁policy	-5104
▁thomas	-5105
ellation	-5106
▁consult	-5107
▁england	-5108
cutaneous	-5109
▁finalist	-5110
▁infusion	-5111
06	-5112
fe	-5113
lrb	-5114
ora	-5115
uri	-5116
▁93	-5117
▁hx	-5118
cted	-5119
term	-5120
▁Sen	-5121
▁Vol	-5122
▁War	-5123
▁dig	-5124
▁neo	-5125
elson	-5126
epend	-5127
oplast	-5128
▁1995?	-5129
▁chris	-5130
▁hosts	-5131
▁Johnson	-5132
▁Masters	-5133
▁binning	-5134
▁forward	-5135
▁musical	-5136
▁species	-5137
▁sponsor	-5138
aminophen	-5139
▁Adelaide	-5140
▁allergic	-5141
▁electric	-5142
▁function	-5143
ublication	-5144
▁champions	-5145
1'	-5146
UMB	-5147
otr	-5148
▁gt	-5149
ivid	-5150
ivil	-5151
▁0.1	-5152
▁32?	-5153
▁hot	-5154
▁saw	-5155
arget	-5156
ather	-5157
ional	-5158
ulgar	-5159
▁Work	-5160
▁dept	-5161
▁scott	-5162
▁spain	-5163
▁union	-5164
▁french	-5165
▁phosph	-5166
▁summer	-5167
▁Richard	-5168
▁insertion	-5169
▁medicines	-5170
▁journalists	-5171
GA	-5172
-75	-5173
men	-5174
vis	-5175
▁nt	-5176
ONTO	-5177
cats	-5178
esis	-5179
fect	-5180
head	-5181
▁011	-5182
▁1.7	-5183
▁TOR	-5184
▁alc	-5185
▁bmi	-5186
▁mad	-5187
▁Pres	-5188
▁fore	-5189
▁isch	-5190
▁skin	-5191
▁1988?	-5192
▁Color	-5193
▁owned	-5194
▁these	-5195
▁Matches	-5196
▁TORONTO	-5197
08	-5198
-80	-5199
lov	-5200
uan	-5201
▁Bo	-5202
ires	-5203
over	-5204
phal	-5205
▁08/	-5206
▁600	-5207
▁CFL	-5208
▁Ext	-5209
▁Jon	-5210
▁Pos	-5211
▁Tra	-5212
▁bes	-5213
▁bye	-5214
▁mag	-5215
▁van	-5216
ilder	-5217
▁decl	-5218
▁pack	-5219
▁flush	-5220
▁sites	-5221
▁style	-5222
▁texas	-5223
▁French	-5224
▁inject	-5225
▁mechan	-5226
▁Airport	-5227
▁editors	-5228
▁website	-5229
placement	-5230
▁Illinois	-5231
▁Wednesday	-5232
▁currently	-5233
TS	-5234
-09	-5235
eur	-5236
uma	-5237
▁lu	-5238
▁0.2	-5239
▁Cal	-5240
▁Dan	-5241
▁Vir	-5242
▁dam	-5243
▁lee	-5244
idine	-5245
imore	-5246
lando	-5247
thers	-5248
▁ones	-5249
▁phen	-5250
▁resp	-5251
iberal	-5252
rizona	-5253
▁Women	-5254
▁exhib	-5255
▁grids	-5256
▁still	-5257
▁urban	-5258
▁abscess	-5259
▁running	-5260
▁prelimin	-5261
▁premiere	-5262
02	-5263
GE	-5264
ren	-5265
rrb	-5266
sen	-5267
▁sa	-5268
down	-5269
ideo	-5270
plor	-5271
year	-5272
▁185	-5273
▁2.5	-5274
▁Don	-5275
▁Mid	-5276
▁Opp	-5277
aylor	-5278
inson	-5279
liver	-5280
oices	-5281
▁Code	-5282
▁PLAY	-5283
▁bone	-5284
▁hour	-5285
▁info	-5286
▁join	-5287
▁seen	-5288
▁wash	-5289
phrine	-5290
▁WHERE	-5291
▁cardi	-5292
▁Ground	-5293
▁INDIAN	-5294
▁transl	-5295
▁Georgia	-5296
▁Station	-5297
▁arrange	-5298
▁include	-5299
▁medical	-5300
▁olympic	-5301
▁appeared	-5302
▁salaries	-5303
▁wrestlers	-5304
NT	-5305
AKE	-5306
avy	-5307
ros	-5308
utt	-5309
▁AS	-5310
pool	-5311
ques	-5312
▁160	-5313
▁GPA	-5314
▁Mad	-5315
▁nit	-5316
rieve	-5317
▁Days	-5318
▁page	-5319
▁phot	-5320
latino	-5321
▁030-5	-5322
▁1989?	-5323
▁Stock	-5324
▁foley	-5325
▁subst	-5326
▁Island	-5327
▁jersey	-5328
▁meters	-5329
▁Compute	-5330
▁albumin	-5331
▁friends	-5332
▁partial	-5333
▁gymnasts	-5334
▁selected	-5335
2'	-5336
MS	-5337
-29	-5338
600	-5339
EGO	-5340
vin	-5341
▁4:	-5342
▁TE	-5343
elle	-5344
ront	-5345
▁(%)	-5346
▁003	-5347
▁fat	-5348
▁ivp	-5349
adder	-5350
itzer	-5351
▁1984	-5352
▁Card	-5353
▁Down	-5354
▁jose	-5355
▁semi	-5356
▁Stage	-5357
ometers	-5358
▁choice	-5359
▁puerto	-5360
▁robert	-5361
▁ventil	-5362
▁feature	-5363
▁elevated	-5364
▁operation	-5365
▁submission	-5366
▁participant	-5367
▁Manufacturer	-5368
▁catheterization	-5369
bl	-5370
sl	-5371
400	-5372
isf	-5373
▁mi	-5374
▁698	-5375
▁Far	-5376
▁die	-5377
▁gol	-5378
▁now	-5379
aints	-5380
▁LAKE	-5381
▁conn	-5382
▁hall	-5383
▁mail	-5384
▁stem	-5385
▁vari	-5386
▁2011,	-5387
▁DIEGO	-5388
▁White	-5389
▁bowel	-5390
▁kilda	-5391
▁terms	-5392
elected	-5393
▁fourth	-5394
▁weekly	-5395
▁success	-5396
▁urinary	-5397
imination	-5398
▁Kentucky	-5399
▁branding	-5400
▁hypergly	-5401
▁screening	-5402
aa	-5403
aki	-5404
och	-5405
rim	-5406
ORTH	-5407
amie	-5408
illa	-5409
osem	-5410
ounc	-5411
ourt	-5412
reas	-5413
▁11/	-5414
▁Tur	-5415
▁bic	-5416
▁neb	-5417
final	-5418
rooms	-5419
▁tyre	-5420
▁verb	-5421
peutic	-5422
▁1984?	-5423
▁Found	-5424
▁hypot	-5425
▁parts	-5426
uckland	-5427
function	-5428
▁enzymes	-5429
▁qualify	-5430
▁catalogue	-5431
▁processor	-5432
▁INDIANAPOLIS	-5433
-07	-5434
-76	-5435
14?	-5436
oli	-5437
▁Ma	-5438
▁Ol	-5439
Pass	-5440
agon	-5441
olen	-5442
rizz	-5443
▁Low	-5444
▁Wat	-5445
▁bor	-5446
▁fil	-5447
razil	-5448
umbia	-5449
▁1976	-5450
▁Bang	-5451
▁SALT	-5452
▁brit	-5453
▁1964?	-5454
▁2009,	-5455
▁begin	-5456
▁exper	-5457
▁spent	-5458
▁stock	-5459
amilton	-5460
▁effect	-5461
▁primar	-5462
▁formula	-5463
▁meaning	-5464
▁toronto	-5465
▁Capacity	-5466
▁Junction	-5467
▁recently	-5468
▁winnings	-5469
▁elections	-5470
▁hospitals	-5471
▁Difference	-5472
▁classified	-5473
03	-5474
-03	-5475
-04	-5476
-05	-5477
9)?	-5478
rum	-5479
ELES	-5480
bell	-5481
east	-5482
enny	-5483
orea	-5484
▁(14	-5485
▁103	-5486
▁ANG	-5487
▁VFL	-5488
▁pal	-5489
▁syn	-5490
athan	-5491
▁1983	-5492
▁Tech	-5493
apolis	-5494
kansas	-5495
▁aneur	-5496
▁neuro	-5497
▁Author	-5498
▁defect	-5499
▁middle	-5500
00000000	-5501
▁ANGELES	-5502
▁detroit	-5503
▁profile	-5504
▁reached	-5505
▁publication	-5506
OW	-5507
dp	-5508
iy	-5509
lb	-5510
-5?	-5511
-7?	-5512
ysm	-5513
▁da	-5514
▁hg	-5515
2006	-5516
arry	-5517
lebr	-5518
lier	-5519
post	-5520
raig	-5521
▁(19	-5522
▁CLE	-5523
▁Lee	-5524
▁Wil	-5525
▁wil	-5526
anger	-5527
esity	-5528
ocket	-5529
verse	-5530
▁Body	-5531
▁Cont	-5532
▁case	-5533
▁fact	-5534
▁late	-5535
iewers	-5536
▁Great	-5537
▁Third	-5538
▁cross	-5539
▁esoph	-5540
▁kelly	-5541
▁remov	-5542
▁Brazil	-5543
▁Events	-5544
▁German	-5545
▁accept	-5546
▁bicarb	-5547
▁longer	-5548
▁parent	-5549
▁British	-5550
▁Perform	-5551
▁bladder	-5552
▁categor	-5553
▁mission	-5554
▁committee	-5555
▁electives	-5556
▁engineers	-5557
▁featuring	-5558
▁primarily	-5559
▁california	-5560
▁physicians	-5561
2)	-5562
je	-5563
po	-5564
-23	-5565
.7?	-5566
355	-5567
4)?	-5568
aha	-5569
not	-5570
ule	-5571
▁BI	-5572
cher	-5573
inda	-5574
rong	-5575
▁33?	-5576
▁Ber	-5577
ishop	-5578
itial	-5579
▁earn	-5580
▁plan	-5581
▁tier	-5582
United	-5583
▁Produ	-5584
▁drama	-5585
isation	-5586
▁Mascot	-5587
▁boston	-5588
▁commun	-5589
▁Entrant	-5590
▁Kingdom	-5591
▁obesity	-5592
rillation	-5593
▁manufact	-5594
▁investors	-5595
▁dysfunction	-5596
ble	-5597
cal	-5598
rep	-5599
ugh	-5600
uns	-5601
▁Sn	-5602
▁os	-5603
-10?	-5604
ager	-5605
aton	-5606
ubin	-5607
▁'19	-5608
▁03/	-5609
▁380	-5610
▁38?	-5611
▁HOU	-5612
▁Not	-5613
▁Web	-5614
▁hol	-5615
▁wat	-5616
ANSAS	-5617
agles	-5618
being	-5619
gress	-5620
inyin	-5621
ordan	-5622
stein	-5623
▁dupl	-5624
▁must	-5625
▁After	-5626
▁Hawks	-5627
▁House	-5628
▁Inter	-5629
▁brows	-5630
▁condu	-5631
▁judge	-5632
▁river	-5633
▁trips	-5634
▁unmar	-5635
▁KANSAS	-5636
▁bridge	-5637
▁device	-5638
▁jockey	-5639
▁content	-5640
▁12/2105?	-5641
▁appointed	-5642
▁challenge	-5643
▁suggested	-5644
▁unmarried	-5645
3'	-5646
7.	-5647
9%	-5648
-15	-5649
ACH	-5650
aut	-5651
▁Sk	-5652
▁ts	-5653
aren	-5654
ownt	-5655
▁1.2	-5656
▁mch	-5657
▁oxy	-5658
ahoma	-5659
▁1500	-5660
▁1978	-5661
▁Elev	-5662
▁acce	-5663
▁sand	-5664
aiders	-5665
utions	-5666
▁Issue	-5667
▁Langu	-5668
▁Sport	-5669
owntown	-5670
▁McCain	-5671
▁multip	-5672
▁satisf	-5673
▁struct	-5674
▁tackle	-5675
▁Assists	-5676
▁Elector	-5677
▁HOUSTON	-5678
▁Rangers	-5679
▁individ	-5680
▁introdu	-5681
▁reviews	-5682
▁richard	-5683
▁Overflow	-5684
▁washington	-5685
▁bicarbonate	-5686
▁fibrillation	-5687
gs	-5688
-28	-5689
aro	-5690
isa	-5691
oon	-5692
▁GT	-5693
▁ps	-5694
▁ze	-5695
ampa	-5696
code	-5697
hire	-5698
petr	-5699
▁1.8	-5700
▁120	-5701
▁40?	-5702
▁HAS	-5703
▁Wal	-5704
▁els	-5705
▁mac	-5706
▁nas	-5707
▁nat	-5708
▁sea	-5709
ALLER	-5710
▁1982	-5711
▁fist	-5712
▁tong	-5713
▁cards	-5714
▁civil	-5715
▁Closed	-5716
▁Sweden	-5717
▁septic	-5718
ervative	-5719
▁SMALLER	-5720
▁fasting	-5721
▁special	-5722
▁Williams	-5723
▁invoices	-5724
▁problems	-5725
▁Cleveland	-5726
▁thrombosis	-5727
19?	-5728
32?	-5729
nis	-5730
▁sr	-5731
▁800	-5732
▁Big	-5733
▁Der	-5734
▁Joe	-5735
▁Lat	-5736
▁Mac	-5737
▁Ros	-5738
▁hba	-5739
achus	-5740
clock	-5741
rogen	-5742
▁Ends	-5743
▁orth	-5744
▁wood	-5745
▁005-4	-5746
▁1991?	-5747
▁books	-5748
klahoma	-5749
mission	-5750
▁Dallas	-5751
▁finale	-5752
▁invoice	-5753
itzerland	-5754
▁carriers	-5755
▁research	-5756
▁stadiums	-5757
▁calculated	-5758
▁constructed	-5759
▁acetaminophen	-5760
oe	-5761
anda	-5762
anny	-5763
ette	-5764
gary	-5765
iate	-5766
ream	-5767
wide	-5768
▁09/	-5769
▁1.9	-5770
▁Kim	-5771
▁Que	-5772
▁Ray	-5773
▁fif	-5774
▁meq	-5775
▁mex	-5776
ested	-5777
riots	-5778
▁Jazz	-5779
▁fire	-5780
▁gall	-5781
▁neut	-5782
▁prol	-5783
▁1986?	-5784
▁chief	-5785
▁louis	-5786
ultural	-5787
▁Decile	-5788
▁attemp	-5789
▁devices	-5790
▁village	-5791
▁031-3355	-5792
▁Champion	-5793
▁Colorado	-5794
▁Election	-5795
▁Rebounds	-5796
▁aneurysm	-5797
▁intestine	-5798
▁physician	-5799
▁scientists	-5800
▁Municipality	-5801
▁consultation	-5802
▁organization	-5803
5'	-5804
.19	-5805
.6?	-5806
25?	-5807
The	-5808
owa	-5809
-1)?	-5810
-100	-5811
ties	-5812
▁118	-5813
igers	-5814
▁Java	-5815
▁crit	-5816
▁mike	-5817
▁tied	-5818
opress	-5819
rative	-5820
▁1979?	-5821
▁2560.	-5822
▁Order	-5823
▁Speed	-5824
▁gener	-5825
▁rated	-5826
▁steve	-5827
▁unaff	-5828
▁faults	-5829
▁memory	-5830
▁venous	-5831
▁Raceway	-5832
▁abbrevi	-5833
▁classic	-5834
▁accident	-5835
▁billions	-5836
▁climbers	-5837
▁incision	-5838
▁software	-5839
▁probability	-5840
BC	-5841
LS	-5842
48?	-5843
her	-5844
igm	-5845
tag	-5846
urg	-5847
zil	-5848
▁Ty	-5849
-12?	-5850
aort	-5851
band	-5852
data	-5853
dose	-5854
here	-5855
hony	-5856
sqmi	-5857
▁107	-5858
▁Inc	-5859
▁Jul	-5860
▁RFC	-5861
▁Was	-5862
▁mer	-5863
▁mig	-5864
▁neg	-5865
enfer	-5866
leans	-5867
▁Bron	-5868
▁Foot	-5869
▁Tony	-5870
acters	-5871
inuous	-5872
razole	-5873
▁Poles	-5874
▁charg	-5875
osemide	-5876
▁diffic	-5877
▁serial	-5878
▁transf	-5879
enferrie	-5880
standing	-5881
▁Italian	-5882
▁certain	-5883
▁ferrari	-5884
▁florida	-5885
▁masters	-5886
▁interact	-5887
▁musicals	-5888
▁Francisco	-5889
▁withdrawn	-5890
▁furosemide	-5891
▁mechanical	-5892
▁unaffected	-5893
ju	-5894
EAR	-5895
LDB	-5896
lad	-5897
▁pa	-5898
acht	-5899
etts	-5900
west	-5901
zing	-5902
▁0.7	-5903
▁318	-5904
▁334	-5905
▁510	-5906
▁USD	-5907
▁emb	-5908
ittle	-5909
▁0.9%	-5910
▁1950	-5911
▁TEAM	-5912
▁bike	-5913
▁blue	-5914
▁half	-5915
▁uses	-5916
/2101?	-5917
nology	-5918
▁2010,	-5919
▁femur	-5920
▁video	-5921
▁People	-5922
▁arabic	-5923
▁cinema	-5924
▁venues	-5925
atistics	-5926
cription	-5927
▁Network	-5928
▁biggest	-5929
▁tallest	-5930
▁languages	-5931
▁semifinal	-5932
▁suffering	-5933
.2?	-5934
aka	-5935
omb	-5936
opa	-5937
uki	-5938
una	-5939
▁'2	-5940
▁2)	-5941
▁Ge	-5942
▁Je	-5943
▁OP	-5944
▁Sa	-5945
-13?	-5946
fold	-5947
lies	-5948
sing	-5949
▁0.6	-5950
▁Est	-5951
▁nom	-5952
endar	-5953
stone	-5954
▁stri	-5955
Summer	-5956
VELAND	-5957
cutive	-5958
phanie	-5959
▁2007,	-5960
▁2103.	-5961
▁Album	-5962
▁Clark	-5963
▁alcoh	-5964
▁stern	-5965
▁colors	-5966
▁golfer	-5967
▁saline	-5968
▁besides	-5969
▁carrier	-5970
▁fitzroy	-5971
▁perpetr	-5972
▁downtown	-5973
▁included	-5974
▁overdose	-5975
▁positive	-5976
▁reaction	-5977
▁CLEVELAND	-5978
▁exhibitions	-5979
▁obstruction	-5980
▁philadelphia	-5981
MA	-5982
anz	-5983
des	-5984
nam	-5985
ple	-5986
van	-5987
▁pt	-5988
bury	-5989
osen	-5990
utch	-5991
▁05/	-5992
▁112	-5993
▁Law	-5994
▁MEM	-5995
▁Sub	-5996
▁cat	-5997
▁tax	-5998
ardin	-5999
arren	-6000
aukee	-6001
orter	-6002
▁1971	-6003
▁Fast	-6004
▁Sand	-6005
▁cycl	-6006
▁exam	-6007
▁grow	-6008
▁poly	-6009
▁prot	-6010
▁WORTH	-6011
▁Windy	-6012
▁chole	-6013
▁comes	-6014
▁jones	-6015
▁voice	-6016
▁pilots	-6017
▁Segment	-6018
▁compete	-6019
▁develop	-6020
▁geelong	-6021
achusetts	-6022
▁Virginia	-6023
▁festival	-6024
▁operator	-6025
▁australia	-6026
▁phosphate	-6027
▁therapeutic	-6028
▁hyperglycemia	-6029
GC	-6030
PA	-6031
'?,	-6032
.0%	-6033
ils	-6034
kal	-6035
ows	-6036
▁tw	-6037
icks	-6038
less	-6039
rees	-6040
▁130	-6041
▁219	-6042
▁45?	-6043
▁LAR	-6044
▁MCG	-6045
▁sar	-6046
estic	-6047
throm	-6048
▁12/2	-6049
▁Dave	-6050
▁FORT	-6051
▁Head	-6052
▁Mass	-6053
▁meth	-6054
raight	-6055
▁007-1	-6056
▁1978?	-6057
▁Broad	-6058
▁Tiger	-6059
▁dance	-6060
▁dated	-6061
▁peter	-6062
▁pilot	-6063
▁princ	-6064
▁Python	-6065
▁Russia	-6066
▁proper	-6067
▁snatch	-6068
▁Popular	-6069
▁fistula	-6070
▁channels	-6071
▁vascular	-6072
▁williams	-6073
▁Incumbent	-6074
▁downvotes	-6075
▁francisco	-6076
▁displacement	-6077
▁Classification	-6078
hi	-6079
ua	-6080
-65	-6081
700	-6082
AME	-6083
ANK	-6084
aya	-6085
sex	-6086
▁PO	-6087
-14?	-6088
▁Let	-6089
▁Lin	-6090
▁dom	-6091
▁joe	-6092
comes	-6093
ledon	-6094
orary	-6095
ualif	-6096
▁Ford	-6097
▁Ohio	-6098
▁Site	-6099
▁Test	-6100
▁real	-6101
League	-6102
waukee	-6103
▁015-5	-6104
▁1976?	-6105
▁Kilda	-6106
▁Miami	-6107
▁Price	-6108
▁child	-6109
▁domin	-6110
▁favor	-6111
▁spect	-6112
▁tract	-6113
▁trade	-6114
▁voters	-6115
▁acceler	-6116
▁charles	-6117
▁internal	-6118
▁shortest	-6119
▁condition	-6120
▁characters	-6121
▁Constructor	-6122
▁construction	-6123
8.	-6124
BS	-6125
oni	-6126
▁It	-6127
▁Li	-6128
▁cs	-6129
ault	-6130
▁0.4	-6131
▁018	-6132
▁157	-6133
▁35?	-6134
▁Tou	-6135
▁Tro	-6136
▁cas	-6137
▁mhz	-6138
▁mpg	-6139
works	-6140
▁2844	-6141
▁Peak	-6142
▁Pole	-6143
▁Visa	-6144
▁lose	-6145
▁wiki	-6146
▁Obama	-6147
▁grape	-6148
lebrity	-6149
▁LARGER	-6150
▁Podium	-6151
▁martin	-6152
▁spinal	-6153
▁travel	-6154
imbledon	-6155
▁Belgium	-6156
▁Buffalo	-6157
▁amounts	-6158
▁compute	-6159
▁economy	-6160
▁example	-6161
▁georgia	-6162
▁European	-6163
▁Montreal	-6164
▁schedule	-6165
▁vasopress	-6166
▁unanswered	-6167
▁ventilation	-6168
07	-6169
ci	-6170
dr	-6171
fm	-6172
wa	-6173
-14	-6174
13?	-6175
box	-6176
ted	-6177
▁+2	-6178
▁Ir	-6179
▁eg	-6180
▁ut	-6181
aron	-6182
onym	-6183
pton	-6184
type	-6185
▁06/	-6186
▁10/	-6187
▁8.7	-6188
▁Bor	-6189
▁Gar	-6190
▁Mex	-6191
▁arm	-6192
▁gdp	-6193
▁jan	-6194
_200,	-6195
amaha	-6196
obile	-6197
▁1981	-6198
▁2101	-6199
▁cups	-6200
▁fuel	-6201
icular	-6202
idence	-6203
▁Arden	-6204
▁frank	-6205
▁nickn	-6206
▁polit	-6207
▁worth	-6208
▁george	-6209
▁levels	-6210
▁Atlanta	-6211
▁Central	-6212
▁Princes	-6213
▁visuali	-6214
▁Quantity	-6215
▁athletes	-6216
▁machines	-6217
▁outcomes	-6218
▁richmond	-6219
▁households	-6220
▁kilometers	-6221
▁arrangement	-6222
▁designation	-6223
▁institutions	-6224
-87	-6225
.9?	-6226
Art	-6227
bid	-6228
ely	-6229
lav	-6230
oks	-6231
▁Ut	-6232
▁fx	-6233
▁sd	-6234
aper	-6235
heim	-6236
iano	-6237
▁01/	-6238
▁42?	-6239
▁Die	-6240
▁Oct	-6241
▁nhl	-6242
▁und	-6243
ental	-6244
▁5000	-6245
▁Oper	-6246
▁Sant	-6247
▁Term	-6248
▁YEAR	-6249
▁crew	-6250
▁note	-6251
▁spok	-6252
▁tach	-6253
▁turn	-6254
▁wall	-6255
/2105.	-6256
cephal	-6257
incinn	-6258
▁1966?	-6259
▁Prize	-6260
▁counc	-6261
▁lanes	-6262
▁Daniel	-6263
▁brazil	-6264
▁sports	-6265
▁trophy	-6266
▁winter	-6267
altimore	-6268
rizzlies	-6269
▁edwards	-6270
▁satisfy	-6271
incinnati	-6272
▁Football	-6273
▁competed	-6274
▁programs	-6275
▁President	-6276
▁attending	-6277
▁presenter	-6278
▁antibacter	-6279
▁collingwood	-6280
▁hypotension	-6281
▁constellation	-6282
▁representatives	-6283
bp	-6284
-02	-6285
-64	-6286
hol	-6287
lli	-6288
top	-6289
▁GE	-6290
ador	-6291
azol	-6292
enna	-6293
gets	-6294
offs	-6295
rime	-6296
▁(11	-6297
▁Mat	-6298
▁dan	-6299
asket	-6300
azine	-6301
score	-6302
▁1979	-6303
▁2015	-6304
▁matt	-6305
enders	-6306
estive	-6307
ewhere	-6308
▁1985?	-6309
▁Brown	-6310
▁Latin	-6311
▁honda	-6312
▁inhal	-6313
▁shops	-6314
▁works	-6315
▁Andrew	-6316
▁Before	-6317
▁models	-6318
▁target	-6319
▁visits	-6320
▁Ferrari	-6321
▁Maryland	-6322
▁checking	-6323
▁finishes	-6324
▁citations	-6325
▁elsewhere	-6326
▁Pennsylvania	-6327
▁denomination	-6328
▁performances	-6329
CT	-6330
.5,	-6331
aco	-6332
haw	-6333
ios	-6334
par	-6335
urd	-6336
▁Ow	-6337
▁TA	-6338
-17?	-6339
ised	-6340
itus	-6341
▁02/	-6342
▁07/	-6343
▁996	-6344
▁NGC	-6345
▁POS	-6346
▁box	-6347
▁dat	-6348
▁ray	-6349
▁wbc	-6350
board	-6351
lotte	-6352
▁core	-6353
▁wild	-6354
Junior	-6355
ealand	-6356
irubin	-6357
nswick	-6358
rillic	-6359
▁1981?	-6360
▁2004,	-6361
▁2104,	-6362
▁Extra	-6363
▁coast	-6364
▁italy	-6365
▁motor	-6366
▁thing	-6367
uncture	-6368
▁Martin	-6369
▁annual	-6370
▁photos	-6371
▁receip	-6372
▁tongue	-6373
Articles	-6374
▁Android	-6375
▁Podiums	-6376
▁altitude	-6377
▁arteries	-6378
▁engineer	-6379
▁teachers	-6380
▁Baltimore	-6381
▁Represent	-6382
.7%	-6383
amm	-6384
ato	-6385
cha	-6386
don	-6387
ser	-6388
▁5%	-6389
▁FC	-6390
acks	-6391
erol	-6392
inus	-6393
▁(13	-6394
▁029	-6395
▁04/	-6396
▁1.3	-6397
▁700	-6398
▁bre	-6399
▁cur	-6400
▁mit	-6401
▁ond	-6402
▁slo	-6403
abama	-6404
aysia	-6405
ctomy	-6406
reece	-6407
▁1800	-6408
▁1977	-6409
▁Bush	-6410
▁Mont	-6411
▁slam	-6412
ancell	-6413
ocytes	-6414
omycin	-6415
▁1974?	-6416
▁Perth	-6417
▁conse	-6418
▁purch	-6419
▁unopp	-6420
ardinia	-6421
issions	-6422
▁Kansas	-6423
▁extrem	-6424
▁morbid	-6425
izations	-6426
▁Scatter	-6427
▁polling	-6428
▁respons	-6429
▁univers	-6430
▁Language	-6431
▁acidosis	-6432
▁features	-6433
▁bilirubin	-6434
▁unopposed	-6435
▁appearance	-6436
▁congestive	-6437
23?	-6438
ERS	-6439
exp	-6440
ift	-6441
irm	-6442
lix	-6443
mic	-6444
onz	-6445
rin	-6446
▁BR	-6447
▁Em	-6448
▁Lu	-6449
PHIS	-6450
otic	-6451
sued	-6452
▁41,	-6453
▁8.8	-6454
▁Aug	-6455
▁Pil	-6456
▁gap	-6457
▁hrt	-6458
▁kar	-6459
▁map	-6460
▁mes	-6461
▁own	-6462
▁rfc	-6463
▁saf	-6464
▁vit	-6465
acher	-6466
itect	-6467
▁Camp	-6468
▁Gary	-6469
▁batt	-6470
▁save	-6471
▁1977?	-6472
▁Davis	-6473
▁dorms	-6474
▁shirt	-6475
▁comput	-6476
▁degree	-6477
▁growth	-6478
▁issued	-6479
▁lesion	-6480
▁neutro	-6481
▁string	-6482
▁Company	-6483
▁MEMPHIS	-6484
▁another	-6485
▁maximal	-6486
▁Province	-6487
▁achieved	-6488
▁branches	-6489
▁browsers	-6490
▁hawthorn	-6491
▁olympics	-6492
▁Community	-6493
▁corresponds	-6494
▁perpetrators	-6495
Ch	-6496
EP	-6497
Sc	-6498
/08	-6499
50?	-6500
605	-6501
aug	-6502
iat	-6503
ima	-6504
lie	-6505
log	-6506
zep	-6507
▁SP	-6508
▁lb	-6509
bill	-6510
erve	-6511
iron	-6512
ived	-6513
oser	-6514
▁(15	-6515
▁116	-6516
▁189	-6517
▁44?	-6518
▁50?	-6519
▁Bow	-6520
▁Ken	-6521
▁ber	-6522
▁ham	-6523
▁sky	-6524
athon	-6525
games	-6526
itary	-6527
onsin	-6528
phone	-6529
▁Pass	-6530
▁goes	-6531
▁sant	-6532
akland	-6533
closed	-6534
urated	-6535
▁2105,	-6536
▁Asian	-6537
▁Ratio	-6538
▁cache	-6539
▁china	-6540
▁clean	-6541
▁exist	-6542
▁pitch	-6543
▁tachy	-6544
▁vocal	-6545
▁Qualif	-6546
▁better	-6547
▁mexico	-6548
▁thorac	-6549
isconsin	-6550
▁Athlete	-6551
▁Channel	-6552
▁driving	-6553
▁hepatic	-6554
▁Auckland	-6555
▁producer	-6556
▁subjects	-6557
▁Tennessee	-6558
▁malignant	-6559
▁professor	-6560
▁consecutive	-6561
▁intracranial	-6562
yo	-6563
18?	-6564
iff	-6565
▁gp	-6566
▁hd	-6567
▁uk	-6568
▁vo	-6569
▁wo	-6570
DATE	-6571
ikes	-6572
olph	-6573
rell	-6574
▁(8)	-6575
▁0.8	-6576
▁126	-6577
▁144	-6578
▁176	-6579
▁41?	-6580
▁70?	-6581
▁Jac	-6582
▁Ter	-6583
▁clo	-6584
▁pts	-6585
▁tru	-6586
lycer	-6587
ordon	-6588
ouble	-6589
ttawa	-6590
ually	-6591
▁1967	-6592
▁1970	-6593
▁Hist	-6594
▁Serv	-6595
▁fans	-6596
▁pant	-6597
▁subd	-6598
▁trig	-6599
atitis	-6600
ically	-6601
▁025-4	-6602
▁1982?	-6603
▁Henry	-6604
▁Music	-6605
▁Seats	-6606
▁bolus	-6607
▁clear	-6608
▁reign	-6609
▁tomor	-6610
borough	-6611
ificant	-6612
ivities	-6613
▁Centre	-6614
▁Motors	-6615
▁Source	-6616
▁junior	-6617
▁streak	-6618
▁syring	-6619
▁Ireland	-6620
▁Orlando	-6621
▁Stacked	-6622
▁arrival	-6623
▁aspirin	-6624
▁carlton	-6625
▁lactate	-6626
▁staying	-6627
▁testing	-6628
▁bedrooms	-6629
▁estimated	-6630
▁Unanswered	-6631
▁postseason	-6632
▁electorates	-6633
▁percutaneous	-6634
▁antibacterials	-6635
EK	-6636
-47	-6637
44?	-6638
480	-6639
=29	-6640
gra	-6641
ito	-6642
▁BY	-6643
▁Ke	-6644
▁NC	-6645
▁ot	-6646
Date	-6647
ococ	-6648
phyl	-6649
rank	-6650
team	-6651
▁129	-6652
▁32,	-6653
▁9.6	-6654
▁Mag	-6655
▁bag	-6656
▁chr	-6657
▁der	-6658
▁fed	-6659
▁mat	-6660
▁rob	-6661
Count	-6662
ewart	-6663
ijing	-6664
ocrat	-6665
oscow	-6666
rence	-6667
▁1975	-6668
▁Cast	-6669
▁angi	-6670
▁face	-6671
▁life	-6672
▁proc	-6673
▁read	-6674
▁redu	-6675
intest	-6676
▁Badge	-6677
▁fault	-6678
▁frame	-6679
▁kevin	-6680
patient	-6681
uration	-6682
▁Rating	-6683
▁charts	-6684
▁claims	-6685
anderers	-6686
▁analges	-6687
▁innings	-6688
▁Saturday	-6689
▁negative	-6690
▁tomorrow	-6691
▁Socialist	-6692
▁footscray	-6693
▁stephanie	-6694
▁structure	-6695
▁occupation	-6696
▁Tournaments	-6697
▁enrollments	-6698
▁gastrointest	-6699
▁registration	-6700
▁organizations	-6701
▁administrative	-6702
9'	-6703
vo	-6704
/02	-6705
5)?	-6706
ape	-6707
aph	-6708
ems	-6709
ika	-6710
▁Kn	-6711
▁NO	-6712
▁TD	-6713
▁ko	-6714
anne	-6715
arch	-6716
argo	-6717
arks	-6718
ogen	-6719
pose	-6720
yota	-6721
▁3.5	-6722
▁34,	-6723
▁70,	-6724
▁8.5	-6725
▁Dam	-6726
▁Ear	-6727
▁PET	-6728
▁Use	-6729
▁Van	-6730
▁jun	-6731
▁kit	-6732
UMBER	-6733
▁MONT	-6734
▁Math	-6735
▁Vers	-6736
▁Vote	-6737
▁arth	-6738
▁conf	-6739
▁gran	-6740
ulitis	-6741
▁1961?	-6742
▁Honda	-6743
▁River	-6744
▁Water	-6745
▁areas	-6746
▁force	-6747
▁royal	-6748
▁split	-6749
osworth	-6750
▁Mexico	-6751
▁actual	-6752
▁edited	-6753
▁socket	-6754
▁stolen	-6755
▁voting	-6756
thrombin	-6757
▁Britain	-6758
▁Houston	-6759
▁changes	-6760
▁johnson	-6761
▁Decision	-6762
▁junction	-6763
▁principal	-6764
▁supporting	-6765
▁preliminary	-6766
▁visualizing	-6767
71	-6768
GS	-6769
PS	-6770
ui	-6771
.1%	-6772
.18	-6773
/05	-6774
10,	-6775
108	-6776
575	-6777
UNT	-6778
arm	-6779
elo	-6780
osa	-6781
▁AR	-6782
▁ON	-6783
▁PA	-6784
▁ij	-6785
▁nu	-6786
▁ny	-6787
▁sq	-6788
ando	-6789
ares	-6790
bane	-6791
cham	-6792
righ	-6793
▁1.6	-6794
▁410	-6795
▁513	-6796
▁9.2	-6797
▁Jun	-6798
▁Max	-6799
▁Mer	-6800
▁Sab	-6801
▁Sun	-6802
▁maj	-6803
▁mcc	-6804
▁mur	-6805
apore	-6806
atell	-6807
icard	-6808
iness	-6809
▁Ball	-6810
▁Gain	-6811
▁HIRE	-6812
▁Utah	-6813
▁boat	-6814
▁jerk	-6815
▁none	-6816
▁penn	-6817
▁sets	-6818
▁wing	-6819
iology	-6820
isions	-6821
lantic	-6822
openia	-6823
plorer	-6824
▁002-3	-6825
▁013-3	-6826
▁1971?	-6827
▁Psych	-6828
▁Valle	-6829
▁acres	-6830
▁began	-6831
▁units	-6832
▁venip	-6833
▁Enroll	-6834
▁excret	-6835
▁factor	-6836
▁mental	-6837
ancouver	-6838
▁kickoff	-6839
▁kingdom	-6840
▁montreal	-6841
▁retrieve	-6842
▁swimmers	-6843
▁Christian	-6844
▁celebrity	-6845
▁classroom	-6846
▁inpatient	-6847
▁Enrollment	-6848
▁conditions	-6849
▁opposition	-6850
▁elimination	-6851
▁transfusion	-6852
▁venipuncture	-6853
7'	-6854
tv	-6855
3)?	-6856
apt	-6857
key	-6858
▁II	-6859
▁ok	-6860
aged	-6861
dist	-6862
game	-6863
oral	-6864
▁8.9	-6865
▁NAS	-6866
▁Sol	-6867
▁aug	-6868
▁jul	-6869
▁sed	-6870
▁wal	-6871
Cards	-6872
enson	-6873
habit	-6874
iewer	-6875
occer	-6876
▁1700	-6877
▁Heat	-6878
▁Slam	-6879
▁Vill	-6880
▁dual	-6881
alcons	-6882
ompson	-6883
ungary	-6884
▁1968?	-6885
▁2006,	-6886
▁Gross	-6887
▁https	-6888
▁large	-6889
▁purse	-6890
▁roman	-6891
▁shipp	-6892
▁Median	-6893
▁depend	-6894
▁seated	-6895
oprazole	-6896
▁Austria	-6897
▁Program	-6898
▁Specify	-6899
▁Tuesday	-6900
▁culture	-6901
▁initial	-6902
▁birthday	-6903
▁calendar	-6904
▁cyrillic	-6905
▁gallardo	-6906
▁victoria	-6907
▁introduced	-6908
▁vancomycin	-6909
▁contestants	-6910
▁percentages	-6911
▁abbreviation	-6912
▁characterist	-6913
▁installation	-6914
TM	-6915
20?	-6916
akh	-6917
del	-6918
hyd	-6919
ras	-6920
▁ct	-6921
▁mv	-6922
REAL	-6923
ella	-6924
ippi	-6925
laps	-6926
thew	-6927
wich	-6928
▁113	-6929
▁9.4	-6930
▁Acc	-6931
▁Bre	-6932
▁Bur	-6933
▁unc	-6934
asive	-6935
place	-6936
raine	-6937
urtis	-6938
▁100?	-6939
▁5:00	-6940
▁caus	-6941
▁didn	-6942
▁legs	-6943
▁sunk	-6944
▁tony	-6945
adiens	-6946
ateral	-6947
enault	-6948
▁1965?	-6949
▁COUNT	-6950
▁costs	-6951
▁court	-6952
▁diver	-6953
▁virus	-6954
expired	-6955
issippi	-6956
ulgaria	-6957
▁kansas	-6958
▁search	-6959
▁tryout	-6960
unicipal	-6961
▁Results	-6962
▁heights	-6963
▁methods	-6964
▁seating	-6965
▁vacator	-6966
▁MONTREAL	-6967
▁multiple	-6968
▁regional	-6969
▁youngest	-6970
▁ascension	-6971
▁downvoted	-6972
▁involving	-6973
▁returning	-6974
▁statement	-6975
▁Manchester	-6976
▁Pittsburgh	-6977
▁competitor	-6978
▁prominence	-6979
▁Netherlands	-6980
6'	-6981
6/	-6982
81	-6983
:4	-6984
QL	-6985
SP	-6986
-21	-6987
-50	-6988
.00	-6989
.8?	-6990
/07	-6991
bar	-6992
ela	-6993
ilo	-6994
low	-6995
▁CL	-6996
▁LA	-6997
▁SU	-6998
▁cc	-6999
▁sf	-7000
Fail	-7001
airs	-7002
boro	-7003
izon	-7004
mann	-7005
outs	-7006
▁205	-7007
▁230	-7008
▁43?	-7009
▁50,	-7010
▁8.4	-7011
▁III	-7012
▁Lap	-7013
▁Luc	-7014
▁Mur	-7015
▁Sal	-7016
▁mod	-7017
▁pit	-7018
ament	-7019
andra	-7020
odial	-7021
▁1974	-7022
▁Inst	-7023
▁samp	-7024
▁sold	-7025
ential	-7026
pected	-7027
person	-7028
▁002-4	-7029
▁016-2	-7030
▁10:00	-7031
▁Jason	-7032
▁Simon	-7033
▁cinem	-7034
▁energ	-7035
▁hypox	-7036
▁limit	-7037
▁stool	-7038
▁dement	-7039
▁riders	-7040
▁routes	-7041
ependent	-7042
▁Current	-7043
▁General	-7044
▁Records	-7045
▁alcohol	-7046
▁angeles	-7047
▁jackson	-7048
▁machine	-7049
▁profits	-7050
▁syringe	-7051
▁upvoted	-7052
▁zealand	-7053
odialysis	-7054
▁Canadian	-7055
▁diagnost	-7056
▁reviewer	-7057
▁Vancouver	-7058
▁departing	-7059
▁developer	-7060
▁workshops	-7061
▁individual	-7062
▁populations	-7063
ww	-7064
ATI	-7065
TAL	-7066
afs	-7067
dds	-7068
irk	-7069
lyn	-7070
peg	-7071
vet	-7072
vey	-7073
▁ga	-7074
-199	-7075
ayne	-7076
dney	-7077
ises	-7078
omer	-7079
▁123	-7080
▁186	-7081
▁3-0	-7082
▁CAR	-7083
▁Nat	-7084
▁Rel	-7085
▁Rog	-7086
▁TAM	-7087
▁Try	-7088
▁dmi	-7089
▁ski	-7090
ilers	-7091
onged	-7092
urity	-7093
▁1960	-7094
▁1964	-7095
▁1965	-7096
▁8:00	-7097
▁Care	-7098
▁Dick	-7099
▁Rome	-7100
▁Ryan	-7101
▁Stan	-7102
▁bowl	-7103
▁copd	-7104
▁exac	-7105
▁maze	-7106
▁vial	-7107
ograph	-7108
▁1954?	-7109
▁1969?	-7110
▁1973?	-7111
▁2012,	-7112
▁Union	-7113
▁clark	-7114
▁embol	-7115
▁floor	-7116
▁light	-7117
▁endosc	-7118
▁golden	-7119
▁suchan	-7120
▁Indiana	-7121
▁Raiders	-7122
▁Ranking	-7123
▁getting	-7124
▁managed	-7125
▁Arkansas	-7126
▁virginia	-7127
▁Stockings	-7128
▁processed	-7129
▁prolonged	-7130
▁publisher	-7131
▁reference	-7132
▁triglycer	-7133
▁affiliated	-7134
▁significant	-7135
▁organisation	-7136
BI	-7137
MP	-7138
.35	-7139
aly	-7140
arn	-7141
bro	-7142
iol	-7143
usc	-7144
▁cf	-7145
▁ni	-7146
-20?	-7147
Type	-7148
acon	-7149
hard	-7150
ways	-7151
zech	-7152
▁115	-7153
▁138	-7154
▁312	-7155
▁46?	-7156
▁8.6	-7157
▁Cro	-7158
▁Jag	-7159
▁fix	-7160
illed	-7161
state	-7162
▁2111	-7163
▁Clay	-7164
▁Jets	-7165
▁Left	-7166
▁Prom	-7167
▁Scor	-7168
▁jeff	-7169
▁lect	-7170
▁neck	-7171
▁vein	-7172
celona	-7173
▁002-5	-7174
▁031-2	-7175
▁PETER	-7176
▁stack	-7177
▁whole	-7178
akistan	-7179
gentina	-7180
lements	-7181
▁disord	-7182
▁infect	-7183
▁metres	-7184
▁russia	-7185
▁Elected	-7186
▁batting	-7187
▁british	-7188
▁cinemas	-7189
▁degrees	-7190
▁seconds	-7191
habitants	-7192
▁delegate	-7193
▁dementia	-7194
▁governor	-7195
▁railways	-7196
ifications	-7197
▁Champions	-7198
▁Louisiana	-7199
▁injection	-7200
▁magnitude	-7201
▁operating	-7202
▁scientist	-7203
▁deficiency	-7204
hp	-7205
-27	-7206
OSE	-7207
mhz	-7208
uzz	-7209
▁Ba	-7210
▁Sy	-7211
▁az	-7212
▁ba	-7213
▁fs	-7214
▁td	-7215
-11?	-7216
agul	-7217
flix	-7218
hang	-7219
mary	-7220
rich	-7221
▁124	-7222
▁428	-7223
▁54,	-7224
▁737	-7225
▁Dev	-7226
▁JOB	-7227
▁Lew	-7228
▁MAN	-7229
▁opn	-7230
▁rbc	-7231
▁tum	-7232
azole	-7233
ierre	-7234
itors	-7235
phine	-7236
ritis	-7237
thing	-7238
yroid	-7239
▁Bern	-7240
▁Fred	-7241
▁Well	-7242
▁bell	-7243
▁chip	-7244
▁furn	-7245
▁lens	-7246
▁mary	-7247
▁2001,	-7248
▁2003,	-7249
▁2005,	-7250
▁Brian	-7251
▁Draft	-7252
▁Kerry	-7253
▁Lions	-7254
▁added	-7255
▁brown	-7256
▁pregn	-7257
▁space	-7258
ispanic	-7259
itation	-7260
▁Develo	-7261
▁london	-7262
▁marrow	-7263
▁senior	-7264
▁sydney	-7265
▁Captain	-7266
▁Phoenix	-7267
▁control	-7268
▁digital	-7269
▁Scotland	-7270
▁ceremony	-7271
▁encephal	-7272
▁illinois	-7273
▁partners	-7274
▁timeslot	-7275
ricultural	-7276
▁Television	-7277
▁membership	-7278
▁Distribution	-7279
▁Representative	-7280
De	-7281
mw	-7282
xx	-7283
-06	-7284
75?	-7285
EFA	-7286
MHz	-7287
amo	-7288
mol	-7289
uls	-7290
▁6:	-7291
▁ho	-7292
▁ke	-7293
▁ou	-7294
/100	-7295
ende	-7296
russ	-7297
stad	-7298
temp	-7299
▁008	-7300
▁111	-7301
▁ACL	-7302
▁Age	-7303
▁six	-7304
2000)	-7305
arian	-7306
eline	-7307
erior	-7308
ocrit	-7309
ooter	-7310
▁5080	-7311
▁Brad	-7312
▁Coll	-7313
▁Cuts	-7314
▁Euro	-7315
▁Roll	-7316
▁Sund	-7317
▁ring	-7318
venous	-7319
▁Enter	-7320
▁Races	-7321
▁bills	-7322
▁climb	-7323
▁crime	-7324
▁india	-7325
▁width	-7326
▁NUMBER	-7327
▁attack	-7328
▁blocks	-7329
▁centre	-7330
▁hCards	-7331
▁sample	-7332
▁satell	-7333
millions	-7334
poration	-7335
▁Builder	-7336
▁Classic	-7337
▁Jackson	-7338
▁Seattle	-7339
▁Viewers	-7340
▁package	-7341
▁produce	-7342
▁savings	-7343
asketball	-7344
▁Opposing	-7345
▁Southern	-7346
▁database	-7347
▁resident	-7348
▁PETERSBURG	-7349
▁Touchdowns	-7350
▁hematocrit	-7351
▁measurement	-7352
▁hemodialysis	-7353
/4	-7354
St	-7355
uj	-7356
-9?	-7357
.20	-7358
132	-7359
21?	-7360
6)?	-7361
cod	-7362
har	-7363
kin	-7364
oln	-7365
oto	-7366
udi	-7367
▁DA	-7368
▁RC	-7369
▁RO	-7370
chen	-7371
gers	-7372
hill	-7373
iang	-7374
ille	-7375
inas	-7376
▁128	-7377
▁206	-7378
▁33,	-7379
▁440	-7380
▁48?	-7381
▁HAD	-7382
▁Rad	-7383
▁Rev	-7384
▁Rom	-7385
▁hor	-7386
▁jac	-7387
▁vel	-7388
berto	-7389
etron	-7390
ifier	-7391
ought	-7392
uture	-7393
▁1-0?	-7394
▁1:00	-7395
▁Form	-7396
▁Hart	-7397
▁Hunt	-7398
▁Rate	-7399
▁bear	-7400
▁buck	-7401
▁feed	-7402
▁laid	-7403
▁mell	-7404
▁ride	-7405
backer	-7406
quired	-7407
▁10000	-7408
▁Chief	-7409
▁TAMPA	-7410
▁Woods	-7411
▁Yards	-7412
▁anion	-7413
▁brady	-7414
▁camer	-7415
▁media	-7416
buterol	-7417
effield	-7418
▁(2009)	-7419
▁Athlet	-7420
▁Studio	-7421
▁assess	-7422
▁easier	-7423
▁mitral	-7424
▁motors	-7425
▁unique	-7426
▁Version	-7427
▁debates	-7428
▁destroy	-7429
▁equival	-7430
▁Authority	-7431
▁architect	-7432
▁particular	-7433
▁manufactured	-7434
▁pantoprazole	-7435
7)?	-7436
ami	-7437
era	-7438
ims	-7439
isk	-7440
pts	-7441
roe	-7442
upp	-7443
▁),	-7444
▁DV	-7445
-25?	-7446
alom	-7447
anna	-7448
ello	-7449
iley	-7450
mate	-7451
ouri	-7452
▁1-0	-7453
▁117	-7454
▁3.0	-7455
▁35,	-7456
▁36?	-7457
▁518	-7458
▁67?	-7459
▁927	-7460
▁COL	-7461
▁LOU	-7462
▁Rod	-7463
▁csf	-7464
▁dos	-7465
iseum	-7466
iting	-7467
mouth	-7468
oprol	-7469
oslav	-7470
regon	-7471
▁Good	-7472
▁Iowa	-7473
▁Roma	-7474
▁UEFA	-7475
▁cars	-7476
▁clos	-7477
▁ford	-7478
▁help	-7479
▁nutr	-7480
▁shot	-7481
▁Block	-7482
▁Diego	-7483
▁Panel	-7484
▁Track	-7485
▁korea	-7486
▁pages	-7487
atremia	-7488
icating	-7489
▁Garden	-7490
▁Jordan	-7491
▁Sports	-7492
▁energy	-7493
▁furnit	-7494
▁minute	-7495
▁police	-7496
▁roller	-7497
▁shared	-7498
▁stores	-7499
▁strike	-7500
oplastin	-7501
▁Antonio	-7502
▁Mission	-7503
▁bowling	-7504
▁compati	-7505
▁gastric	-7506
▁mintage	-7507
▁prophyl	-7508
▁tickets	-7509
▁vitamin	-7510
▁11/2105?	-7511
▁attempts	-7512
▁builders	-7513
▁maserati	-7514
▁stopover	-7515
▁townland	-7516
▁tracheal	-7517
▁sponsored	-7518
▁inhalation	-7519
▁manufactur	-7520
▁encephalopathy	-7521
▁thromboplastin	-7522
4'	-7523
GH	-7524
PP	-7525
-49	-7526
.9%	-7527
/03	-7528
33?	-7529
arc	-7530
die	-7531
hou	-7532
iph	-7533
non	-7534
ntr	-7535
rik	-7536
▁LP	-7537
▁NY	-7538
▁SS	-7539
▁qf	-7540
ches	-7541
enzo	-7542
ixon	-7543
lied	-7544
sted	-7545
uits	-7546
▁136	-7547
▁220	-7548
▁68?	-7549
▁Tri	-7550
▁ell	-7551
▁eye	-7552
▁jon	-7553
▁ref	-7554
▁stu	-7555
ilipp	-7556
▁Case	-7557
▁Role	-7558
▁pict	-7559
▁rand	-7560
active	-7561
▁027-8	-7562
▁2102.	-7563
▁Debut	-7564
▁Offic	-7565
▁asset	-7566
▁incre	-7567
▁metab	-7568
▁minor	-7569
▁rehab	-7570
▁yacht	-7571
▁016-18	-7572
▁joseph	-7573
▁majors	-7574
▁ondans	-7575
▁profit	-7576
▁steals	-7577
▁tonnes	-7578
▁uncntr	-7579
▁worked	-7580
inations	-7581
▁America	-7582
▁claimed	-7583
▁council	-7584
▁defined	-7585
▁Hamilton	-7586
▁audience	-7587
▁dialysis	-7588
▁edmonton	-7589
▁morphine	-7590
▁remained	-7591
▁standing	-7592
▁component	-7593
▁disorders	-7594
▁malignancy	-7595
▁pittsburgh	-7596
▁ondansetron	-7597
▁outstanding	-7598
4)	-7599
Up	-7600
uy	-7601
.25	-7602
91?	-7603
Att	-7604
INC	-7605
asm	-7606
edy	-7607
rev	-7608
▁dx	-7609
▁nd	-7610
▁rt	-7611
list	-7612
uled	-7613
▁(24	-7614
▁122	-7615
▁38,	-7616
▁45,	-7617
▁49?	-7618
▁60,	-7619
▁900	-7620
▁FCC	-7621
▁Fox	-7622
▁PER	-7623
▁Rem	-7624
▁cru	-7625
▁gal	-7626
▁lif	-7627
▁pen	-7628
▁tal	-7629
Birth	-7630
inees	-7631
lovak	-7632
query	-7633
rants	-7634
stomy	-7635
ument	-7636
▁Leon	-7637
▁bull	-7638
▁euro	-7639
▁fame	-7640
▁fate	-7641
▁greg	-7642
▁love	-7643
▁panc	-7644
▁sigm	-7645
▁stat	-7646
▁ways	-7647
tality	-7648
▁(2010	-7649
▁LOUIS	-7650
▁davis	-7651
▁grant	-7652
▁penal	-7653
▁roles	-7654
earning	-7655
oprolol	-7656
▁Awards	-7657
▁Golden	-7658
▁Losing	-7659
▁Snatch	-7660
▁edward	-7661
▁useful	-7662
▁foreign	-7663
▁Maserati	-7664
▁bounties	-7665
▁european	-7666
▁incident	-7667
▁ischemia	-7668
▁michigan	-7669
▁straight	-7670
▁Grizzlies	-7671
▁minnesota	-7672
▁nicknamed	-7673
▁assessment	-7674
/5	-7675
dl	-7676
.4%	-7677
150	-7678
16?	-7679
465	-7680
SCI	-7681
ffe	-7682
iaz	-7683
lan	-7684
lip	-7685
nik	-7686
▁Ha	-7687
▁Ly	-7688
▁So	-7689
1000	-7690
calc	-7691
eria	-7692
pert	-7693
pine	-7694
site	-7695
▁1.1	-7696
▁109	-7697
▁204	-7698
▁303	-7699
▁350	-7700
▁Ice	-7701
▁cfl	-7702
▁hrs	-7703
▁ken	-7704
▁rap	-7705
▁tob	-7706
/2104	-7707
house	-7708
illin	-7709
▁1973	-7710
▁2-1?	-7711
▁MINN	-7712
▁anti	-7713
▁coin	-7714
▁infl	-7715
▁math	-7716
▁nurs	-7717
▁owns	-7718
▁poor	-7719
▁stan	-7720
/2100?	-7721
/2104.	-7722
idemia	-7723
ikings	-7724
▁1967?	-7725
▁Nomin	-7726
▁React	-7727
▁TOTAL	-7728
▁andre	-7729
▁autom	-7730
▁deput	-7731
▁holds	-7732
▁story	-7733
▁study	-7734
▁tumor	-7735
ernando	-7736
inister	-7737
▁Joseph	-7738
▁Miller	-7739
▁Norway	-7740
▁Recent	-7741
▁Valley	-7742
▁altern	-7743
▁grants	-7744
▁indoor	-7745
▁connect	-7746
▁houston	-7747
▁Database	-7748
▁mellitus	-7749
▁nominees	-7750
▁operated	-7751
▁activities	-7752
▁continuous	-7753
▁experience	-7754
▁categorized	-7755
▁netherlands	-7756
▁tachycardia	-7757
-77	-7758
.2%	-7759
.6%	-7760
.8%	-7761
105	-7762
46?	-7763
ads	-7764
ags	-7765
eva	-7766
iji	-7767
inf	-7768
liz	-7769
mel	-7770
▁Cy	-7771
▁DN	-7772
▁FM	-7773
▁aw	-7774
_500	-7775
burn	-7776
oted	-7777
time	-7778
ucks	-7779
viet	-7780
▁(18	-7781
▁135	-7782
▁4.5	-7783
▁6.5	-7784
▁Bud	-7785
▁Cub	-7786
▁Def	-7787
▁GEO	-7788
▁Gal	-7789
▁One	-7790
▁Sky	-7791
▁bur	-7792
▁exe	-7793
▁gly	-7794
▁mcv	-7795
▁tpn	-7796
▁usa	-7797
ITION	-7798
aking	-7799
cedes	-7800
share	-7801
▁1969	-7802
▁CINC	-7803
▁JOSE	-7804
▁Look	-7805
▁Mult	-7806
▁Span	-7807
▁dave	-7808
▁iron	-7809
▁labs	-7810
▁milk	-7811
▁ohio	-7812
▁trop	-7813
▁zero	-7814
INNATI	-7815
driver	-7816
incoln	-7817
sterol	-7818
umatic	-7819
▁015-9	-7820
▁10855	-7821
▁1960?	-7822
▁Proto	-7823
▁Tampa	-7824
▁brian	-7825
▁flags	-7826
▁front	-7827
▁Browns	-7828
▁Bruins	-7829
▁Launch	-7830
▁PLAYER	-7831
▁Poland	-7832
▁Taylor	-7833
▁airing	-7834
▁charge	-7835
▁dances	-7836
▁mailsh	-7837
▁miller	-7838
▁upvote	-7839
▁Olympic	-7840
▁Rockets	-7841
▁budgets	-7842
▁purpose	-7843
▁Mountain	-7844
▁Patriots	-7845
▁Transfer	-7846
▁speaking	-7847
▁Brunswick	-7848
▁clearance	-7849
▁mortality	-7850
▁CINCINNATI	-7851
▁metoprolol	-7852
▁viewership	-7853
▁bradycardia	-7854
▁cholesterol	-7855
▁conservative	-7856
▁constructors	-7857
BR	-7858
CE	-7859
OD	-7860
gi	-7861
hr	-7862
.06	-7863
.9,	-7864
136	-7865
eto	-7866
hes	-7867
iel	-7868
ipe	-7869
ken	-7870
ols	-7871
ori	-7872
uji	-7873
▁Ap	-7874
▁Hy	-7875
▁LO	-7876
▁TW	-7877
▁pb	-7878
_700	-7879
aliz	-7880
comp	-7881
orst	-7882
▁2:0	-7883
▁51,	-7884
▁69?	-7885
▁DVD	-7886
▁Hon	-7887
▁Leg	-7888
▁Mov	-7889
▁NBA	-7890
▁rhe	-7891
abeth	-7892
adish	-7893
ready	-7894
vered	-7895
▁1900	-7896
▁1966	-7897
▁2112	-7898
▁Adam	-7899
▁duct	-7900
▁gang	-7901
▁indu	-7902
▁odds	-7903
▁surg	-7904
aortic	-7905
eelers	-7906
estant	-7907
finals	-7908
idents	-7909
iliary	-7910
racuse	-7911
▁012-3	-7912
▁1970?	-7913
▁1972?	-7914
▁1980?	-7915
▁2000,	-7916
▁Craig	-7917
▁Jerry	-7918
▁Lewis	-7919
▁Roman	-7920
▁cause	-7921
▁edema	-7922
▁guill	-7923
▁lyric	-7924
▁marri	-7925
▁moved	-7926
▁stent	-7927
billion	-7928
▁Career	-7929
▁Scored	-7930
▁bounty	-7931
▁contra	-7932
▁leaves	-7933
▁modern	-7934
▁oxygen	-7935
▁sweden	-7936
▁themes	-7937
erbation	-7938
▁Arizona	-7939
▁buffalo	-7940
▁electro	-7941
▁handled	-7942
▁quality	-7943
▁rangers	-7944
▁rebound	-7945
▁tourism	-7946
▁Callsign	-7947
▁averages	-7948
▁memorial	-7949
▁030-42006	-7950
▁vancouver	-7951
▁diagnostic	-7952
▁linebacker	-7953
▁spectators	-7954
▁settlements	-7955
▁exacerbation	-7956
▁pennsylvania	-7957
▁requirements	-7958
HV	-7959
.23	-7960
/04	-7961
154	-7962
814	-7963
hem	-7964
kov	-7965
▁0:	-7966
▁SF	-7967
-2)?	-7968
HVIL	-7969
OUND	-7970
Spec	-7971
_600	-7972
base	-7973
liga	-7974
ucle	-7975
▁(6)	-7976
▁46,	-7977
▁63?	-7978
▁Ann	-7979
▁Exp	-7980
▁Flo	-7981
▁Map	-7982
▁Mem	-7983
▁Non	-7984
▁See	-7985
▁bbc	-7986
▁bul	-7987
▁kim	-7988
▁lid	-7989
▁num	-7990
▁var	-7991
agues	-7992
amine	-7993
deria	-7994
emale	-7995
ining	-7996
zepam	-7997
▁1972	-7998
▁5,00	-7999
▁Kenn	-8000
▁conv	-8001
▁gave	-8002
▁jobs	-8003
▁rush	-8004
▁trad	-8005
▁wide	-8006
HVILLE	-8007
league	-8008
ritory	-8009
stream	-8010
ulsion	-8011
▁016-3	-8012
▁021-2	-8013
▁1955?	-8014
▁Jamie	-8015
▁ROUND	-8016
▁Short	-8017
▁Under	-8018
▁perit	-8019
ressive	-8020
▁Bridge	-8021
▁Design	-8022
▁Oilers	-8023
▁appell	-8024
▁daniel	-8025
▁eagles	-8026
▁endotr	-8027
▁former	-8028
▁giants	-8029
▁hockey	-8030
▁social	-8031
distinct	-8032
▁Service	-8033
▁atlanta	-8034
▁commerc	-8035
▁excreted	-8036
▁reserved	-8037
▁reviewed	-8038
▁NASHVILLE	-8039
▁Performer	-8040
▁beginning	-8041
▁difficult	-8042
▁religious	-8043
▁satellite	-8044
▁electorate	-8045
▁endoscopic	-8046
▁thrombocyt	-8047
▁endotracheal	-8048
Me	-8049
884	-8050
▁TN	-8051
▁ak	-8052
▁df	-8053
▁dv	-8054
▁mb	-8055
_300	-8056
_400	-8057
hind	-8058
lets	-8059
loyd	-8060
owbo	-8061
rael	-8062
rene	-8063
ryst	-8064
stan	-8065
▁175	-8066
▁39?	-8067
▁47?	-8068
▁59?	-8069
▁617	-8070
▁85?	-8071
▁Alb	-8072
▁Aut	-8073
▁Did	-8074
▁Equ	-8075
▁iii	-8076
▁jew	-8077
▁mec	-8078
▁oct	-8079
▁spr	-8080
amous	-8081
antic	-8082
ellow	-8083
ocyte	-8084
▁1850	-8085
▁1958	-8086
▁1959	-8087
▁1968	-8088
▁2138	-8089
▁3000	-8090
▁Arch	-8091
▁Bris	-8092
▁DATE	-8093
▁Hard	-8094
▁Hong	-8095
▁Pict	-8096
▁Tour	-8097
▁amen	-8098
▁fent	-8099
▁fifa	-8100
▁seiz	-8101
▁zone	-8102
cision	-8103
icates	-8104
onatal	-8105
ptions	-8106
retary	-8107
urname	-8108
▁Actor	-8109
▁Clean	-8110
▁Saint	-8111
▁Wales	-8112
▁alive	-8113
▁angio	-8114
▁heads	-8115
liament	-8116
million	-8117
▁Badges	-8118
▁Denver	-8119
▁africa	-8120
▁little	-8121
▁trauma	-8122
▁winery	-8123
ancelled	-8124
▁removal	-8125
▁scorers	-8126
▁spanish	-8127
▁trained	-8128
▁undergo	-8129
▁Jagadish	-8130
▁business	-8131
▁destruct	-8132
▁divertic	-8133
▁domestic	-8134
▁effusion	-8135
▁marathon	-8136
▁Wisconsin	-8137
▁political	-8138
▁basketball	-8139
▁compatible	-8140
▁Programming	-8141
▁transferred	-8142
▁Constituency	-8143
▁commissioned	-8144
DS	-8145
SC	-8146
ho	-8147
-31	-8148
-6,	-8149
-86	-8150
-96	-8151
.45	-8152
/10	-8153
/12	-8154
40?	-8155
8)?	-8156
ICK	-8157
ULL	-8158
can	-8159
edd	-8160
hel	-8161
via	-8162
▁BE	-8163
▁Ho	-8164
▁bi	-8165
▁ih	-8166
-21?	-8167
.95?	-8168
agen	-8169
emic	-8170
esel	-8171
etal	-8172
gypt	-8173
osse	-8174
▁43,	-8175
▁54?	-8176
▁570	-8177
▁75?	-8178
▁80?	-8179
▁9.5	-8180
▁BUR	-8181
▁Cav	-8182
▁DET	-8183
▁Feb	-8184
▁Stu	-8185
▁Ten	-8186
▁Yes	-8187
▁geo	-8188
▁hum	-8189
▁lac	-8190
▁lip	-8191
▁rdw	-8192
▁som	-8193
▁tow	-8194
avier	-8195
▁6000	-8196
▁Kong	-8197
▁Semi	-8198
▁Sort	-8199
▁Syst	-8200
▁appl	-8201
▁bush	-8202
▁sail	-8203
beingt	-8204
ocaine	-8205
▁005-7	-8206
▁1953?	-8207
▁MINNE	-8208
▁Works	-8209
▁alkal	-8210
▁enrol	-8211
▁faced	-8212
▁integ	-8213
answers	-8214
pension	-8215
▁005-87	-8216
▁Census	-8217
▁Senior	-8218
▁arrest	-8219
▁assemb	-8220
▁consid	-8221
▁reserv	-8222
▁Capital	-8223
▁Leading	-8224
▁Liberal	-8225
▁Orleans	-8226
▁Returns	-8227
▁already	-8228
▁chinese	-8229
▁occured	-8230
▁POSITION	-8231
▁estimate	-8232
▁hematoma	-8233
▁property	-8234
▁survived	-8235
▁Alexander	-8236
▁Milwaukee	-8237
▁Singapore	-8238
▁answerers	-8239
▁duplicate	-8240
▁excluding	-8241
▁mailshots	-8242
▁metabolic	-8243
▁Cincinnati	-8244
▁commercial	-8245
▁MINNEAPOLIS	-8246
▁eliminations	-8247
UK	-8248
ds	-8249
rm	-8250
uh	-8251
.3%	-8252
.44	-8253
/01	-8254
0)?	-8255
733	-8256
=26	-8257
aby	-8258
aga	-8259
car	-8260
chi	-8261
eta	-8262
lon	-8263
oba	-8264
▁Cr	-8265
▁Im	-8266
▁PI	-8267
▁Rh	-8268
▁cm	-8269
▁ra	-8270
ANCE	-8271
aver	-8272
chld	-8273
ifer	-8274
indi	-8275
mean	-8276
more	-8277
▁147	-8278
▁Ash	-8279
▁alf	-8280
ademy	-8281
andro	-8282
apter	-8283
arent	-8284
edema	-8285
nipeg	-8286
ublin	-8287
▁1600	-8288
▁2168	-8289
▁7:00	-8290
▁Band	-8291
▁Cred	-8292
▁Free	-8293
▁Prem	-8294
▁Ship	-8295
▁Star	-8296
▁Wild	-8297
▁bile	-8298
▁cart	-8299
▁golf	-8300
▁hang	-8301
▁leuk	-8302
▁lung	-8303
owboys	-8304
▁025-5	-8305
▁1963?	-8306
▁Billy	-8307
▁Close	-8308
▁Cross	-8309
▁Death	-8310
▁Kings	-8311
▁Share	-8312
▁bikes	-8313
▁capac	-8314
▁ivpca	-8315
▁loans	-8316
▁scale	-8317
▁10,000	-8318
▁Carlos	-8319
▁andrew	-8320
▁births	-8321
▁booked	-8322
▁oilers	-8323
▁packed	-8324
▁plural	-8325
▁Formula	-8326
▁convent	-8327
▁females	-8328
▁genders	-8329
▁liberal	-8330
▁pitcher	-8331
ylephrine	-8332
▁Columbia	-8333
▁Edmonton	-8334
▁Minister	-8335
▁Progress	-8336
▁belonged	-8337
▁catholic	-8338
▁keywords	-8339
▁military	-8340
▁statuses	-8341
▁albuterol	-8342
▁assistant	-8343
▁hepatitis	-8344
▁hometowns	-8345
▁premiered	-8346
▁requested	-8347
▁Glenferrie	-8348
▁considered	-8349
jo	-8350
988	-8351
awn	-8352
bra	-8353
net	-8354
pur	-8355
▁7:	-8356
▁DF	-8357
▁EU	-8358
▁Es	-8359
▁PV	-8360
▁wk	-8361
,000	-8362
anka	-8363
ceed	-8364
endo	-8365
icul	-8366
ione	-8367
ista	-8368
ofol	-8369
okyo	-8370
rone	-8371
uber	-8372
▁119	-8373
▁280	-8374
▁49,	-8375
▁63,	-8376
▁64?	-8377
▁740	-8378
▁9.7	-8379
▁Ast	-8380
▁Dun	-8381
▁Gil	-8382
▁ISB	-8383
▁Key	-8384
▁Old	-8385
▁Sum	-8386
▁arg	-8387
▁cam	-8388
▁lev	-8389
▁ram	-8390
▁rom	-8391
ESDAY	-8392
akers	-8393
mphis	-8394
rolet	-8395
senal	-8396
total	-8397
ugues	-8398
▁1961	-8399
▁2179	-8400
▁Bell	-8401
▁Bull	-8402
▁HDTV	-8403
▁Land	-8404
▁able	-8405
▁carb	-8406
▁paid	-8407
▁sess	-8408
chldrn	-8409
iation	-8410
ipinas	-8411
▁035-2	-8412
▁1956?	-8413
▁1958?	-8414
▁Favor	-8415
▁Motor	-8416
▁Semif	-8417
▁grass	-8418
▁hawks	-8419
▁prime	-8420
▁raced	-8421
▁recip	-8422
▁sSpec	-8423
▁widow	-8424
umacher	-8425
▁Dennis	-8426
▁Sunday	-8427
▁Watson	-8428
▁pituit	-8429
▁replay	-8430
▁soccer	-8431
Hispanic	-8432
ications	-8433
▁Doubles	-8434
▁License	-8435
▁Stephen	-8436
▁neutral	-8437
▁replace	-8438
▁athletic	-8439
▁canadian	-8440
▁criteria	-8441
▁drainage	-8442
▁hardware	-8443
▁majority	-8444
▁playmate	-8445
▁premises	-8446
▁propofol	-8447
▁receipts	-8448
▁Mountains	-8449
▁Wanderers	-8450
▁christian	-8451
▁finishing	-8452
▁Psychology	-8453
▁angioedema	-8454
▁prothrombin	-8455
▁complication	-8456
/8	-8457
FS	-8458
.04	-8459
/11	-8460
17?	-8461
28,	-8462
586	-8463
953	-8464
970	-8465
ONG	-8466
aud	-8467
aun	-8468
eep	-8469
eno	-8470
lob	-8471
pas	-8472
▁'?	-8473
▁ec	-8474
4495	-8475
arat	-8476
eder	-8477
essa	-8478
iago	-8479
icut	-8480
loss	-8481
ocor	-8482
odox	-8483
olas	-8484
omic	-8485
vals	-8486
vils	-8487
▁(1)	-8488
▁(16	-8489
▁1-1	-8490
▁158	-8491
▁3.6	-8492
▁44,	-8493
▁48,	-8494
▁5.5	-8495
▁55?	-8496
▁64,	-8497
▁65,	-8498
▁80,	-8499
▁Dig	-8500
▁Hol	-8501
▁Rec	-8502
▁brm	-8503
▁din	-8504
▁lic	-8505
▁mis	-8506
▁por	-8507
▁put	-8508
▁twe	-8509
chest	-8510
eries	-8511
inter	-8512
▁Laur	-8513
▁Main	-8514
▁Pack	-8515
▁Runs	-8516
▁Unit	-8517
▁beat	-8518
▁belg	-8519
▁diff	-8520
▁hunt	-8521
▁ivpb	-8522
▁meds	-8523
▁ross	-8524
▁scan	-8525
▁sent	-8526
▁warf	-8527
arship	-8528
ricket	-8529
▁12775	-8530
▁Built	-8531
▁Lists	-8532
▁Query	-8533
▁Theme	-8534
▁Young	-8535
▁coron	-8536
▁greek	-8537
▁males	-8538
▁robin	-8539
▁sound	-8540
▁Austin	-8541
▁Giants	-8542
▁chosen	-8543
▁confer	-8544
▁famous	-8545
▁genres	-8546
▁images	-8547
▁incumb	-8548
▁insuff	-8549
▁serves	-8550
lizabeth	-8551
▁Roberts	-8552
▁Russian	-8553
▁Singles	-8554
▁advised	-8555
▁appears	-8556
▁phoenix	-8557
▁Distance	-8558
▁Republic	-8559
▁Thursday	-8560
▁clinical	-8561
▁excision	-8562
▁incoming	-8563
▁restrict	-8564
▁direction	-8565
▁secondary	-8566
▁worldwide	-8567
▁analgesics	-8568
▁equivalent	-8569
▁operations	-8570
▁suspension	-8571
▁authorities	-8572
▁Indianapolis	-8573
▁bronchoscopy	-8574
▁destinations	-8575
▁phenylephrine	-8576
7%	-8577
SE	-8578
SU	-8579
kh	-8580
oz	-8581
.09	-8582
.22	-8583
/06	-8584
/28	-8585
54?	-8586
AGE	-8587
abi	-8588
cul	-8589
elt	-8590
sea	-8591
uez	-8592
▁GR	-8593
▁UC	-8594
▁pi	-8595
▁rh	-8596
▁si	-8597
-15?	-8598
-6-0	-8599
BANK	-8600
COMA	-8601
anja	-8602
ansk	-8603
atar	-8604
edro	-8605
feld	-8606
seud	-8607
tion	-8608
umes	-8609
umin	-8610
umul	-8611
▁145	-8612
▁3.3	-8613
▁310	-8614
▁990	-8615
▁Bol	-8616
▁Her	-8617
▁IDs	-8618
▁Sri	-8619
▁Ver	-8620
▁hay	-8621
▁mck	-8622
▁nut	-8623
▁sab	-8624
▁sup	-8625
▁ult	-8626
Final	-8627
cause	-8628
umbus	-8629
▁Cons	-8630
▁Fire	-8631
▁ISBN	-8632
▁Jays	-8633
▁NULL	-8634
▁Rams	-8635
▁Real	-8636
▁Skip	-8637
▁alfa	-8638
▁cert	-8639
▁dick	-8640
▁diss	-8641
▁dmii	-8642
▁mild	-8643
▁mini	-8644
▁rash	-8645
▁sequ	-8646
estyle	-8647
irming	-8648
itting	-8649
ladesh	-8650
rystal	-8651
uderia	-8652
warded	-8653
▁1000)	-8654
▁3343?	-8655
▁Bobby	-8656
▁Could	-8657
▁Index	-8658
▁Kevin	-8659
▁Labor	-8660
▁Royal	-8661
▁appel	-8662
▁diego	-8663
▁kings	-8664
▁write	-8665
entials	-8666
eremony	-8667
olphins	-8668
russian	-8669
▁006-80	-8670
▁Floors	-8671
▁Headqu	-8672
▁Justin	-8673
▁Labour	-8674
▁Oliver	-8675
▁Streak	-8676
▁TACOMA	-8677
▁german	-8678
▁norway	-8679
▁pinyin	-8680
▁stress	-8681
▁BURBANK	-8682
▁Broncos	-8683
▁Founded	-8684
▁History	-8685
▁Matthew	-8686
▁biliary	-8687
▁effects	-8688
▁placing	-8689
▁preterm	-8690
▁volumes	-8691
▁Kardinia	-8692
▁Malaysia	-8693
▁Pakistan	-8694
▁acquired	-8695
▁diseases	-8696
▁revision	-8697
▁belonging	-8698
▁enrolment	-8699
▁extremity	-8700
▁pituitary	-8701
▁statistics	-8702
▁destruction	-8703
▁intravenous	-8704
▁prophylaxis	-8705
▁publications	-8706
▁Massachusetts	-8707
AY	-8708
GR	-8709
IE	-8710
MW	-8711
Te	-8712
-36	-8713
.1,	-8714
22?	-8715
61?	-8716
FOR	-8717
ahe	-8718
ety	-8719
inz	-8720
lia	-8721
rav	-8722
uda	-8723
▁5.	-8724
▁CP	-8725
▁LE	-8726
▁Rd	-8727
▁SR	-8728
▁TR	-8729
▁hp	-8730
-05?	-8731
:30?	-8732
arus	-8733
bank	-8734
havi	-8735
igen	-8736
orpe	-8737
wall	-8738
▁.9%	-8739
▁142	-8740
▁256	-8741
▁520	-8742
▁550	-8743
▁78,	-8744
▁Bry	-8745
▁Hay	-8746
▁Lam	-8747
▁Pur	-8748
▁Ron	-8749
▁dar	-8750
▁ice	-8751
▁lor	-8752
▁pct	-8753
▁rpm	-8754
▁say	-8755
▁sph	-8756
▁tac	-8757
ename	-8758
encia	-8759
iners	-8760
orman	-8761
water	-8762
▁1951	-8763
▁2155	-8764
▁2174	-8765
▁2180	-8766
▁HIGH	-8767
▁WHEN	-8768
▁Wall	-8769
▁bott	-8770
▁cyst	-8771
▁gonz	-8772
▁mile	-8773
▁mmol	-8774
▁symb	-8775
▁tend	-8776
-72=28	-8777
ocardi	-8778
ternal	-8779
▁010-3	-8780
▁6983?	-8781
▁Jimmy	-8782
▁Liver	-8783
▁Shows	-8784
▁excer	-8785
▁lived	-8786
▁loser	-8787
▁mater	-8788
lovakia	-8789
▁Howard	-8790
▁copies	-8791
▁execut	-8792
▁achieve	-8793
▁advisor	-8794
▁antonio	-8795
▁arizona	-8796
▁bedside	-8797
▁borough	-8798
▁calgary	-8799
▁changed	-8800
▁declare	-8801
▁engines	-8802
▁instrum	-8803
▁locaton	-8804
▁markets	-8805
▁parsing	-8806
irmingham	-8807
▁Oklahoma	-8808
▁aortocor	-8809
▁balances	-8810
▁download	-8811
▁response	-8812
▁conducted	-8813
▁tennessee	-8814
▁Prominence	-8815
▁australian	-8816
▁incumbents	-8817
▁manchester	-8818
▁parliament	-8819
▁publishers	-8820
▁withdrawal	-8821
▁appellations	-8822
▁systemicmean	-8823
/?	-8824
CW	-8825
IA	-8826
Re	-8827
Sp	-8828
.02	-8829
12,	-8830
990	-8831
feo	-8832
fox	-8833
icu	-8834
llo	-8835
ogs	-8836
opo	-8837
ube	-8838
▁#?	-8839
▁AP	-8840
▁CW	-8841
▁Os	-8842
▁Pa	-8843
▁Ry	-8844
ROIT	-8845
ahaw	-8846
alph	-8847
amic	-8848
ango	-8849
ante	-8850
anyl	-8851
ewan	-8852
haus	-8853
odil	-8854
okie	-8855
▁114	-8856
▁183	-8857
▁53,	-8858
▁60?	-8859
▁85,	-8860
▁995	-8861
▁Che	-8862
▁Dur	-8863
▁Mah	-8864
▁Sus	-8865
▁UFC	-8866
▁abn	-8867
▁cut	-8868
▁kaz	-8869
▁lik	-8870
▁nov	-8871
▁obs	-8872
▁phr	-8873
agons	-8874
cerin	-8875
eremy	-8876
olone	-8877
opher	-8878
orean	-8879
ortis	-8880
usate	-8881
utter	-8882
▁1955	-8883
▁9410	-8884
▁Conn	-8885
▁POIN	-8886
▁adam	-8887
▁anna	-8888
▁bins	-8889
▁burn	-8890
▁plas	-8891
▁solo	-8892
arding	-8893
ntario	-8894
ources	-8895
▁(2011	-8896
▁18-49	-8897
▁1975?	-8898
▁cycle	-8899
▁pseud	-8900
▁stamp	-8901
▁stone	-8902
askatch	-8903
ometown	-8904
▁Candid	-8905
▁Lowest	-8906
▁diesel	-8907
▁object	-8908
▁showed	-8909
▁spokes	-8910
▁stages	-8911
▁toyota	-8912
▁Anthony	-8913
▁DETROIT	-8914
▁Denmark	-8915
▁Edwards	-8916
▁Premier	-8917
▁Tonnage	-8918
▁indiana	-8919
▁italian	-8920
▁patrick	-8921
▁princes	-8922
▁systems	-8923
▁Brisbane	-8924
▁Cardinal	-8925
▁Creation	-8926
▁ischemic	-8927
▁pancreat	-8928
▁republic	-8929
▁subdural	-8930
▁vehicles	-8931
▁visitors	-8932
▁cleveland	-8933
▁offensive	-8934
▁reporters	-8935
▁suspected	-8936
▁temporary	-8937
▁undergrad	-8938
askatchewan	-8939
▁capacities	-8940
▁furnitures	-8941
▁semifinals	-8942
▁appelations	-8943
▁locomotives	-8944
▁switzerland	-8945
5)	-8946
Sh	-8947
.2,	-8948
.66	-8949
17,	-8950
18,	-8951
205	-8952
88?	-8953
AST	-8954
ILY	-8955
app	-8956
dal	-8957
igi	-8958
oft	-8959
tom	-8960
wan	-8961
▁'4	-8962
▁2.	-8963
▁3-	-8964
▁Du	-8965
▁Gi	-8966
▁oc	-8967
▁py	-8968
500?	-8969
ends	-8970
kers	-8971
odef	-8972
▁(29	-8973
▁1/2	-8974
▁133	-8975
▁159	-8976
▁2-0	-8977
▁2.6	-8978
▁314	-8979
▁360	-8980
▁37,	-8981
▁66?	-8982
▁7.5	-8983
▁71?	-8984
▁973	-8985
▁Agg	-8986
▁INT	-8987
▁Lor	-8988
▁Neb	-8989
▁Tel	-8990
▁iso	-8991
▁rnd	-8992
▁sil	-8993
▁teh	-8994
▁tko	-8995
▁wik	-8996
/2103	-8997
elial	-8998
iance	-8999
ocity	-9000
orton	-9001
owers	-9002
troll	-9003
uncan	-9004
▁1.73	-9005
▁Copa	-9006
▁Cost	-9007
▁Eric	-9008
▁Jean	-9009
▁Lisa	-9010
▁Rose	-9011
▁brad	-9012
▁brid	-9013
▁cape	-9014
▁drip	-9015
▁easy	-9016
▁hors	-9017
▁lora	-9018
▁mchc	-9019
▁okay	-9020
▁rome	-9021
▁valv	-9022
▁yard	-9023
-71=28	-9024
castle	-9025
claren	-9026
▁2111?	-9027
▁Bonus	-9028
▁DAILY	-9029
▁Dance	-9030
▁Linda	-9031
▁Teams	-9032
▁Trail	-9033
▁Whose	-9034
▁gradu	-9035
▁heavy	-9036
▁inhib	-9037
▁opera	-9038
▁squad	-9039
▁tower	-9040
onymous	-9041
▁100000	-9042
▁Morris	-9043
▁Tigers	-9044
▁animal	-9045
▁behavi	-9046
▁circum	-9047
▁dallas	-9048
▁double	-9049
▁gordon	-9050
▁periph	-9051
▁yamaha	-9052
▁Fastest	-9053
▁Indians	-9054
▁Patrick	-9055
▁Regular	-9056
▁attende	-9057
▁because	-9058
▁causing	-9059
▁femoral	-9060
▁implant	-9061
▁looking	-9062
▁sphinct	-9063
▁fentanyl	-9064
▁founding	-9065
▁internet	-9066
▁southern	-9067
endoscopic	-9068
▁alternate	-9069
▁comptroll	-9070
▁electroly	-9071
▁immunodef	-9072
▁committees	-9073
▁Switzerland	-9074
▁vasopressors	-9075
▁triglycerides	-9076
Qu	-9077
UT	-9078
WR	-9079
hu	-9080
pf	-9081
sm	-9082
yp	-9083
-95	-9084
.8,	-9085
.85	-9086
135	-9087
27,	-9088
507	-9089
ISH	-9090
Int	-9091
Net	-9092
uen	-9093
▁(#	-9094
▁5:	-9095
▁LL	-9096
▁Si	-9097
▁ju	-9098
▁ss	-9099
▁ue	-9100
Code	-9101
agle	-9102
icon	-9103
idth	-9104
ijay	-9105
imon	-9106
indu	-9107
itan	-9108
ivan	-9109
occo	-9110
utor	-9111
▁2.7	-9112
▁209	-9113
▁3-2	-9114
▁5.7	-9115
▁56?	-9116
▁9.8	-9117
▁Bet	-9118
▁HOW	-9119
▁Mun	-9120
▁Pts	-9121
▁Squ	-9122
▁Tak	-9123
▁err	-9124
▁ger	-9125
▁hur	-9126
▁lie	-9127
▁tel	-9128
-1612	-9129
ATION	-9130
elsea	-9131
illip	-9132
oster	-9133
ourth	-9134
penia	-9135
usive	-9136
▁1-3?	-9137
▁1837	-9138
▁2-0?	-9139
▁2200	-9140
▁AVER	-9141
▁Bowl	-9142
▁FIFA	-9143
▁PICK	-9144
▁bern	-9145
▁cook	-9146
▁educ	-9147
▁eyes	-9148
▁fort	-9149
▁hern	-9150
▁kenn	-9151
▁lady	-9152
▁mode	-9153
▁pens	-9154
▁punt	-9155
▁tons	-9156
lemson	-9157
mitted	-9158
pector	-9159
▁1957?	-9160
▁2101.	-9161
▁COACH	-9162
▁Coach	-9163
▁Leeds	-9164
▁Level	-9165
▁Local	-9166
▁Owner	-9167
▁Terry	-9168
▁Tokyo	-9169
▁cases	-9170
▁infus	-9171
▁nucle	-9172
▁relay	-9173
▁stops	-9174
Awarded	-9175
anskrit	-9176
▁Albert	-9177
▁Moscow	-9178
▁Ofsted	-9179
▁POINTS	-9180
▁Pinyin	-9181
▁Queens	-9182
▁Scores	-9183
▁Stakes	-9184
▁antico	-9185
▁filter	-9186
▁grapes	-9187
▁remain	-9188
▁retire	-9189
▁trache	-9190
aturated	-9191
ensitive	-9192
▁030-523	-9193
▁AVERAGE	-9194
▁Eastern	-9195
▁Nations	-9196
▁Spanish	-9197
▁citrate	-9198
▁collect	-9199
▁outputs	-9200
▁reasons	-9201
▁sigmoid	-9202
▁stories	-9203
▁weights	-9204
▁031-1612	-9205
▁Answered	-9206
▁Hometown	-9207
▁Platform	-9208
▁columbia	-9209
▁etiology	-9210
▁hematopo	-9211
▁journals	-9212
▁nitrogen	-9213
▁005-87465	-9214
▁025-44495	-9215
▁Longitude	-9216
▁Wimbledon	-9217
▁sphincter	-9218
▁Centerfold	-9219
▁neutropenia	-9220
▁nutritional	-9221
▁traditional	-9222
▁spokesperson	-9223
▁arteriography	-9224
▁manufacturers	-9225
PM	-9226
RA	-9227
gu	-9228
)',	-9229
-40	-9230
-43	-9231
-88	-9232
.3,	-9233
.7,	-9234
/24	-9235
/26	-9236
131	-9237
15,	-9238
177	-9239
24'	-9240
398	-9241
49?	-9242
52?	-9243
66?	-9244
71?	-9245
axy	-9246
bie	-9247
bot	-9248
ikh	-9249
zen	-9250
▁CA	-9251
▁cp	-9252
▁cv	-9253
▁od	-9254
▁og	-9255
bast	-9256
chez	-9257
cope	-9258
emat	-9259
inds	-9260
vian	-9261
▁'20	-9262
▁10.	-9263
▁2.9	-9264
▁61?	-9265
▁650	-9266
▁76?	-9267
▁79?	-9268
▁Nic	-9269
▁Pap	-9270
▁bmw	-9271
▁bry	-9272
▁jos	-9273
▁tun	-9274
akota	-9275
cycle	-9276
enced	-9277
enger	-9278
enham	-9279
enues	-9280
ietic	-9281
rhyth	-9282
riors	-9283
▁1-1?	-9284
▁10.5	-9285
▁1956	-9286
▁Burn	-9287
▁Lock	-9288
▁Love	-9289
▁Sean	-9290
▁VLDB	-9291
▁alan	-9292
▁bucc	-9293
▁lots	-9294
▁rick	-9295
▁safe	-9296
▁urea	-9297
-71=27	-9298
/2103.	-9299
attern	-9300
▁010-1	-9301
▁Andre	-9302
▁Jacob	-9303
▁Kelly	-9304
▁PVLDB	-9305
▁bypas	-9306
▁lines	-9307
▁means	-9308
▁miami	-9309
▁paris	-9310
▁plant	-9311
▁staph	-9312
▁turbo	-9313
000,000	-9314
entesis	-9315
itchell	-9316
ococcus	-9317
reasing	-9318
welling	-9319
▁Govern	-9320
▁Indust	-9321
▁Wilson	-9322
▁dialys	-9323
▁editor	-9324
▁libert	-9325
▁prefer	-9326
▁resusc	-9327
▁spring	-9328
▁tigers	-9329
▁watson	-9330
ashville	-9331
▁Edition	-9332
▁Natural	-9333
▁Netflix	-9334
▁Univers	-9335
▁allowed	-9336
▁correct	-9337
▁freight	-9338
▁raceway	-9339
▁serving	-9340
▁skilled	-9341
▁squared	-9342
▁stewart	-9343
▁vessels	-9344
iteration	-9345
▁Diameter	-9346
▁Olympics	-9347
▁adelaide	-9348
▁baseline	-9349
▁campbell	-9350
▁circuits	-9351
▁congress	-9352
▁contrast	-9353
▁cultures	-9354
▁evidence	-9355
▁invested	-9356
▁pregnant	-9357
▁receiver	-9358
▁revenues	-9359
▁scotland	-9360
▁training	-9361
▁velocity	-9362
reditation	-9363
▁006-80884	-9364
▁Elevation	-9365
▁passenger	-9366
▁placement	-9367
▁substring	-9368
▁technology	-9369
intracranial	-9370
▁accelerators	-9371
▁transmission	-9372
▁hematopoietic	-9373
▁diverticulitis	-9374
Ex	-9375
KO	-9376
ez	-9377
ls	-9378
mf	-9379
-32	-9380
.32	-9381
.4,	-9382
/50	-9383
34?	-9384
42?	-9385
ESS	-9386
agh	-9387
edo	-9388
▁6(	-9389
▁fb	-9390
▁lp	-9391
abel	-9392
auer	-9393
auge	-9394
furt	-9395
icsy	-9396
stra	-9397
town	-9398
uela	-9399
▁(2)	-9400
▁(68	-9401
▁(69	-9402
▁1-2	-9403
▁255	-9404
▁36,	-9405
▁52,	-9406
▁62?	-9407
▁998	-9408
▁BBC	-9409
▁Bul	-9410
▁Bus	-9411
▁Fil	-9412
▁Jud	-9413
▁PBA	-9414
▁Rub	-9415
▁abd	-9416
▁alb	-9417
▁ill	-9418
▁ron	-9419
ameth	-9420
isher	-9421
oline	-9422
retti	-9423
▁1948	-9424
▁2170	-9425
▁2197	-9426
▁Penn	-9427
▁Sign	-9428
▁cosp	-9429
▁drop	-9430
▁farm	-9431
▁file	-9432
▁filt	-9433
▁gent	-9434
▁here	-9435
▁meal	-9436
▁mont	-9437
▁nord	-9438
▁vacc	-9439
▁whit	-9440
ahawks	-9441
ansfer	-9442
ectomy	-9443
iatric	-9444
uguese	-9445
▁013-2	-9446
▁030-3	-9447
▁31854	-9448
▁5000,	-9449
▁Bount	-9450
▁Medal	-9451
▁Wayne	-9452
▁cable	-9453
▁clock	-9454
▁spend	-9455
venture	-9456
▁006-20	-9457
▁Berlin	-9458
▁Change	-9459
▁Joined	-9460
▁Prince	-9461
▁carpet	-9462
▁casual	-9463
▁except	-9464
▁nutrit	-9465
▁poison	-9466
▁rowers	-9467
▁septal	-9468
▁symbol	-9469
▁taylor	-9470
election	-9471
omectomy	-9472
▁Manager	-9473
▁Runners	-9474
▁broncos	-9475
▁colored	-9476
▁finland	-9477
▁injured	-9478
▁ireland	-9479
▁leagues	-9480
▁natural	-9481
▁nursing	-9482
lipidemia	-9483
▁Previous	-9484
▁children	-9485
▁cosworth	-9486
▁dominant	-9487
▁gangrene	-9488
▁orthodox	-9489
▁presence	-9490
▁progress	-9491
▁security	-9492
icsystolic	-9493
▁Semifinal	-9494
▁attendees	-9495
▁described	-9496
▁residents	-9497
▁Production	-9498
▁Performance	-9499
▁arteriogram	-9500
▁association	-9501
▁programming	-9502
1)	-9503
5%	-9504
CR	-9505
LB	-9506
Th	-9507
...	-9508
.21	-9509
/25	-9510
213	-9511
47?	-9512
56?	-9513
671	-9514
81?	-9515
jun	-9516
oly	-9517
rox	-9518
str	-9519
▁(9	-9520
▁MO	-9521
▁ky	-9522
▁rn	-9523
▁sv	-9524
▁xi	-9525
-18?	-9526
.1%?	-9527
amps	-9528
ardi	-9529
assi	-9530
left	-9531
rule	-9532
vity	-9533
▁#1?	-9534
▁336	-9535
▁3:0	-9536
▁427	-9537
▁458	-9538
▁72?	-9539
▁Cru	-9540
▁Mig	-9541
▁aaa	-9542
▁cef	-9543
▁cho	-9544
▁enr	-9545
▁mls	-9546
▁ply	-9547
▁typ	-9548
▁vfl	-9549
bital	-9550
cents	-9551
ensen	-9552
first	-9553
imate	-9554
immer	-9555
rogly	-9556
users	-9557
uster	-9558
▁1946	-9559
▁2121	-9560
▁2146	-9561
▁5828	-9562
▁ACCT	-9563
▁Cart	-9564
▁Data	-9565
▁Fore	-9566
▁Gall	-9567
▁Host	-9568
▁Iran	-9569
▁LONG	-9570
▁Line	-9571
▁beta	-9572
▁bout	-9573
▁else	-9574
▁gary	-9575
▁neur	-9576
▁ryan	-9577
▁symp	-9578
bridge	-9579
encies	-9580
ention	-9581
esters	-9582
ingham	-9583
▁007-8	-9584
▁035-1	-9585
▁1959?	-9586
▁Point	-9587
▁Since	-9588
▁Staff	-9589
▁abuse	-9590
▁adult	-9591
▁break	-9592
▁cyber	-9593
▁dehyd	-9594
▁depth	-9595
▁exams	-9596
▁image	-9597
▁lions	-9598
▁overs	-9599
▁pheny	-9600
▁racer	-9601
▁solar	-9602
▁twice	-9603
▁tyres	-9604
omotive	-9605
▁2006-2	-9606
▁Instit	-9607
▁Nelson	-9608
▁camera	-9609
▁denver	-9610
▁licens	-9611
▁plasma	-9612
▁thread	-9613
▁weighs	-9614
▁006-133	-9615
▁Beijing	-9616
▁Calgary	-9617
▁Falcons	-9618
▁Vikings	-9619
▁intakes	-9620
▁raymond	-9621
▁ringers	-9622
▁trainer	-9623
including	-9624
▁actually	-9625
▁fraction	-9626
▁japanese	-9627
▁lawrence	-9628
▁marriage	-9629
▁openning	-9630
▁resigned	-9631
▁solution	-9632
▁supplied	-9633
▁charlotte	-9634
▁submitted	-9635
▁architects	-9636
▁integrated	-9637
▁sternotomy	-9638
▁postseasons	-9639
▁agricultural	-9640
▁universities	-9641
FM	-9642
IO	-9643
SO	-9644
gg	-9645
kW	-9646
lt	-9647
nk	-9648
-1,	-9649
.6,	-9650
250	-9651
27?	-9652
291	-9653
69?	-9654
82?	-9655
ady	-9656
aux	-9657
fan	-9658
odd	-9659
ogn	-9660
xic	-9661
▁2%	-9662
▁CB	-9663
▁dn	-9664
▁hs	-9665
-27?	-9666
/199	-9667
atia	-9668
aude	-9669
dome	-9670
esse	-9671
etry	-9672
lock	-9673
onen	-9674
toin	-9675
▁(7)	-9676
▁141	-9677
▁47,	-9678
▁52?	-9679
▁6-3	-9680
▁Cli	-9681
▁DFL	-9682
▁GRE	-9683
▁Hal	-9684
▁Lim	-9685
▁Pac	-9686
▁Slo	-9687
▁Tai	-9688
▁amt	-9689
▁bit	-9690
▁dim	-9691
▁esp	-9692
▁feb	-9693
▁kin	-9694
▁luc	-9695
atial	-9696
night	-9697
▁2115	-9698
▁2158	-9699
▁9:00	-9700
▁Bike	-9701
▁Doug	-9702
▁Duke	-9703
▁Mean	-9704
▁Mint	-9705
▁Nord	-9706
▁Supp	-9707
▁Took	-9708
▁WHat	-9709
▁Wiki	-9710
▁Your	-9711
▁bart	-9712
▁comb	-9713
▁copa	-9714
▁expl	-9715
▁gram	-9716
▁mmse	-9717
▁pred	-9718
▁rain	-9719
▁stom	-9720
▁uefa	-9721
argers	-9722
itness	-9723
opping	-9724
rights	-9725
uchess	-9726
▁004-6	-9727
▁1,000	-9728
▁2102,	-9729
▁28443	-9730
▁BEACH	-9731
▁Bills	-9732
▁Bruce	-9733
▁Clara	-9734
▁Genre	-9735
▁Ident	-9736
▁Wheel	-9737
▁again	-9738
▁buses	-9739
▁cargo	-9740
▁datas	-9741
▁henry	-9742
▁lotus	-9743
▁schol	-9744
▁sinus	-9745
▁subar	-9746
▁tubes	-9747
angitis	-9748
izontal	-9749
▁027-14	-9750
▁Eagles	-9751
▁Finals	-9752
▁Harris	-9753
▁Junior	-9754
▁Palmer	-9755
▁Saints	-9756
▁Server	-9757
▁acting	-9758
▁excess	-9759
▁garden	-9760
▁howard	-9761
▁queens	-9762
▁things	-9763
accepted	-9764
province	-9765
ulgarian	-9766
▁Develop	-9767
▁Hungary	-9768
▁Oakland	-9769
▁anthony	-9770
▁arrives	-9771
▁carries	-9772
▁chapter	-9773
▁concent	-9774
▁eastern	-9775
▁monitor	-9776
▁renault	-9777
▁syncope	-9778
atalities	-9779
onatremia	-9780
▁Campbell	-9781
▁Chargers	-9782
▁Playoffs	-9783
▁Portland	-9784
▁behavior	-9785
▁composer	-9786
▁expector	-9787
▁oklahoma	-9788
▁pericard	-9789
▁supplier	-9790
▁villages	-9791
▁wrestler	-9792
▁Canadiens	-9793
▁bronchial	-9794
▁contacted	-9795
▁posterior	-9796
▁selection	-9797
▁transient	-9798
▁006-133605	-9799
▁Opposition	-9800
▁centerfold	-9801
▁dependence	-9802
▁retirement	-9803
▁compression	-9804
▁independent	-9805
▁expectorated	-9806
▁measurements	-9807
▁classifications	-9808
,?	-9809
He	-9810
Is	-9811
YS	-9812
js	-9813
mo	-9814
ye	-9815
-26	-9816
-97	-9817
/16	-9818
009	-9819
07?	-9820
20.	-9821
55?	-9822
703	-9823
83?	-9824
959	-9825
Mon	-9826
bay	-9827
eda	-9828
nea	-9829
olo	-9830
▁#3	-9831
▁+3	-9832
▁NA	-9833
▁NW	-9834
▁kr	-9835
-19?	-9836
USIN	-9837
abad	-9838
abwe	-9839
anga	-9840
aryn	-9841
ashi	-9842
atti	-9843
high	-9844
hood	-9845
inth	-9846
ogan	-9847
omon	-9848
onin	-9849
ovic	-9850
resh	-9851
rier	-9852
road	-9853
roke	-9854
star	-9855
▁146	-9856
▁2.4	-9857
▁327	-9858
▁37?	-9859
▁615	-9860
▁74?	-9861
▁757	-9862
▁830	-9863
▁Bas	-9864
▁Inf	-9865
▁Les	-9866
▁McG	-9867
▁Mir	-9868
▁Pay	-9869
▁ash	-9870
▁bun	-9871
▁dex	-9872
▁flu	-9873
▁fox	-9874
▁hip	-9875
▁jay	-9876
▁jug	-9877
▁mir	-9878
▁nic	-9879
▁rud	-9880
▁ruq	-9881
-9636	-9882
anned	-9883
azers	-9884
eller	-9885
ended	-9886
imous	-9887
ivier	-9888
ovest	-9889
price	-9890
roffe	-9891
▁100.	-9892
▁4-0?	-9893
▁Andy	-9894
▁Barb	-9895
▁Elsa	-9896
▁Holl	-9897
▁Luke	-9898
▁MANY	-9899
▁PAUL	-9900
▁Rand	-9901
▁Rick	-9902
▁bang	-9903
▁hous	-9904
▁mine	-9905
▁neph	-9906
▁pers	-9907
▁rect	-9908
▁secs	-9909
▁sten	-9910
▁weap	-9911
▁013-1	-9912
▁15794	-9913
▁18866	-9914
▁1962?	-9915
▁2017.	-9916
▁2103,	-9917
▁Alice	-9918
▁Bears	-9919
▁Colts	-9920
▁Larry	-9921
▁Maple	-9922
▁error	-9923
▁malig	-9924
▁phase	-9925
▁stats	-9926
▁words	-9927
▁worst	-9928
version	-9929
▁Chiefs	-9930
▁Church	-9931
▁Friend	-9932
▁Rovers	-9933
▁albert	-9934
▁barrel	-9935
▁greece	-9936
▁killed	-9937
▁methyl	-9938
▁minist	-9939
▁reject	-9940
▁rocket	-9941
▁singer	-9942
▁tenure	-9943
▁ureter	-9944
▁valley	-9945
hibition	-9946
▁Alabama	-9947
▁Raymond	-9948
▁esophag	-9949
▁whether	-9950
ovestical	-9951
unciation	-9952
▁016-9636	-9953
▁Bulgaria	-9954
▁baseball	-9955
▁coasters	-9956
▁embolism	-9957
▁failures	-9958
▁hamilton	-9959
▁panthers	-9960
▁proposed	-9961
▁studying	-9962
roglycerin	-9963
▁Interview	-9964
▁Sheffield	-9965
▁Woodroffe	-9966
▁finalists	-9967
▁organisms	-9968
▁presented	-9969
▁motorcycle	-9970
▁undergrads	-9971
▁appointments	-9972
▁colovestical	-9973
▁quarterfinals	-9974
▁stackoverflow	-9975
6)	-9976
8'	-9977
No	-9978
RL	-9979
oa	-9980
16,	-9981
293	-9982
677	-9983
ACK	-9984
agu	-9985
hat	-9986
lap	-9987
nth	-9988
oha	-9989
orf	-9990
ply	-9991
urb	-9992
▁LI	-9993
▁Ra	-9994
▁um	-9995
▁wa	-9996
-16?	-9997
SIAN	-9998
acet	-9999
bone	-10000
fall	-10001
odge	-10002
osur	-10003
ourg	-10004
ovel	-10005
pped	-10006
rium	-10007
ugal	-10008
▁(17	-10009
▁(5)	-10010
▁+1:	-10011
▁143	-10012
▁170	-10013
▁240	-10014
▁269	-10015
▁325	-10016
▁42,	-10017
▁62,	-10018
▁739	-10019
▁896	-10020
▁Dav	-10021
▁Hel	-10022
▁Hen	-10023
▁Imp	-10024
▁Lau	-10025
▁McK	-10026
▁PAR	-10027
▁Pas	-10028
▁Pie	-10029
▁Ram	-10030
▁Tun	-10031
▁cod	-10032
▁fel	-10033
▁fer	-10034
▁gab	-10035
▁lad	-10036
▁ros	-10037
▁rub	-10038
▁str	-10039
▁sud	-10040
▁wel	-10041
ageal	-10042
aging	-10043
antes	-10044
anton	-10045
asaki	-10046
astic	-10047
edish	-10048
endit	-10049
erial	-10050
iment	-10051
ipine	-10052
lboro	-10053
▁1943	-10054
▁1963	-10055
▁2110	-10056
▁Base	-10057
▁Born	-10058
▁Econ	-10059
▁Make	-10060
▁Trev	-10061
▁cash	-10062
▁drew	-10063
▁juan	-10064
▁mand	-10065
▁mole	-10066
▁oint	-10067
▁peru	-10068
▁spir	-10069
▁sung	-10070
▁tico	-10071
▁ultr	-10072
▁walk	-10073
▁wine	-10074
▁wolf	-10075
-68-70	-10076
-71=14	-10077
adores	-10078
ecided	-10079
etalol	-10080
iction	-10081
orsche	-10082
puerto	-10083
strong	-10084
▁011-5	-10085
▁Leafs	-10086
▁Maria	-10087
▁Mario	-10088
▁Wells	-10089
▁barre	-10090
▁bruce	-10091
▁catch	-10092
▁citiz	-10093
▁girls	-10094
▁queen	-10095
▁sacks	-10096
▁throw	-10097
ibining	-10098
plified	-10099
▁006-10	-10100
▁Counts	-10101
▁Graham	-10102
▁Johnny	-10103
▁Norman	-10104
▁Object	-10105
▁Parish	-10106
▁Romaji	-10107
▁Slalom	-10108
▁Stuart	-10109
▁always	-10110
▁expect	-10111
▁judges	-10112
▁poland	-10113
▁submit	-10114
▁wheels	-10115
american	-10116
▁2007-08	-10117
▁Clemson	-10118
▁Digital	-10119
▁Voltage	-10120
▁blocker	-10121
▁bridges	-10122
▁cospons	-10123
▁settled	-10124
▁shooter	-10125
▁studios	-10126
▁Nickname	-10127
▁Wildcats	-10128
▁arrivals	-10129
▁arteriog	-10130
▁artworks	-10131
▁audition	-10132
▁democrat	-10133
▁moderate	-10134
▁purchase	-10135
▁rankings	-10136
▁sequence	-10137
▁subarach	-10138
▁Construct	-10139
▁destroyed	-10140
▁governors	-10141
▁installed	-10142
▁labetalol	-10143
▁scheduled	-10144
▁wimbledon	-10145
▁generation	-10146
▁indwelling	-10147
▁competitors	-10148
▁nominations	-10149
▁restaurants	-10150
▁nitroglycerin	-10151
/9	-10152
eh	-10153
gl	-10154
iu	-10155
mg	-10156
.03	-10157
.5%	-10158
115	-10159
126	-10160
175	-10161
179	-10162
57?	-10163
806	-10164
992	-10165
ATB	-10166
EDE	-10167
apy	-10168
aza	-10169
eat	-10170
hov	-10171
igg	-10172
max	-10173
oca	-10174
ubb	-10175
wen	-10176
▁'0	-10177
▁'3	-10178
▁CC	-10179
▁EP	-10180
▁Ep	-10181
▁HP	-10182
▁Uk	-10183
▁Wy	-10184
▁ka	-10185
cker	-10186
comm	-10187
elut	-10188
enez	-10189
idad	-10190
igma	-10191
noid	-10192
ondo	-10193
orab	-10194
othy	-10195
plot	-10196
rade	-10197
▁(27	-10198
▁(66	-10199
▁(70	-10200
▁1)?	-10201
▁313	-10202
▁434	-10203
▁528	-10204
▁68,	-10205
▁81?	-10206
▁Boy	-10207
▁Deb	-10208
▁Lyn	-10209
▁Rid	-10210
▁Ski	-10211
▁ban	-10212
▁cro	-10213
▁hus	-10214
▁lav	-10215
▁mas	-10216
▁ptt	-10217
▁vic	-10218
00000	-10219
achel	-10220
aware	-10221
craft	-10222
orage	-10223
reens	-10224
tutor	-10225
▁0-1?	-10226
▁2131	-10227
▁2182	-10228
▁7:30	-10229
▁8:30	-10230
▁Juan	-10231
▁Link	-10232
▁Male	-10233
▁Ross	-10234
▁asth	-10235
▁beds	-10236
▁gear	-10237
▁gust	-10238
▁jama	-10239
▁jane	-10240
▁mess	-10241
▁pept	-10242
▁plus	-10243
▁pref	-10244
▁rang	-10245
▁virt	-10246
/2105,	-10247
cinoma	-10248
ilding	-10249
ominal	-10250
ristol	-10251
roxine	-10252
▁016-1	-10253
▁031-4	-10254
▁14467	-10255
▁1994,	-10256
▁1999,	-10257
▁2180?	-10258
▁Barry	-10259
▁Brook	-10260
▁Edits	-10261
▁Image	-10262
▁Korea	-10263
▁Tamil	-10264
▁ather	-10265
▁choke	-10266
▁donor	-10267
▁epith	-10268
▁famot	-10269
▁fifth	-10270
▁liter	-10271
▁metal	-10272
▁saint	-10273
▁simon	-10274
▁tracy	-10275
▁valid	-10276
▁wikis	-10277
imbabwe	-10278
loyment	-10279
related	-10280
▁(0-1)?	-10281
▁Israel	-10282
▁Royals	-10283
▁Volume	-10284
▁affect	-10285
▁cooper	-10286
▁soviet	-10287
▁wilson	-10288
molality	-10289
▁Arsenal	-10290
▁Cricket	-10291
▁Iceland	-10292
▁Mondays	-10293
▁Numbers	-10294
▁adverse	-10295
▁closure	-10296
▁hanging	-10297
▁monarch	-10298
▁thyroid	-10299
ovascular	-10300
▁Thompson	-10301
▁colorado	-10302
▁computer	-10303
▁contract	-10304
▁glucagon	-10305
▁guillain	-10306
▁meetings	-10307
▁Candidate	-10308
▁lidocaine	-10309
▁lorazepam	-10310
▁municipal	-10311
▁phenytoin	-10312
▁provinces	-10313
▁resulting	-10314
▁secretary	-10315
▁Bangladesh	-10316
▁depression	-10317
▁duplicates	-10318
▁epithelial	-10319
▁famotidine	-10320
▁glenferrie	-10321
▁infectious	-10322
ronunciation	-10323
▁composition	-10324
▁declination	-10325
▁gastrostomy	-10326
▁obstructive	-10327
▁scholarship	-10328
▁subarachnoid	-10329
.)	-10330
CD	-10331
EB	-10332
FT	-10333
RR	-10334
hn	-10335
lm	-10336
zz	-10337
-5,	-10338
.27	-10339
.46	-10340
.62	-10341
.96	-10342
447	-10343
59?	-10344
80?	-10345
LSA	-10346
Par	-10347
col	-10348
fin	-10349
iba	-10350
ibb	-10351
org	-10352
osm	-10353
pel	-10354
pid	-10355
rex	-10356
weg	-10357
▁7)	-10358
▁Ah	-10359
▁BP	-10360
▁CV	-10361
▁EL	-10362
▁EN	-10363
▁HA	-10364
▁aa	-10365
▁nc	-10366
▁ov	-10367
▁ry	-10368
▁wc	-10369
-22?	-10370
NAME	-10371
None	-10372
anet	-10373
case	-10374
core	-10375
days	-10376
egas	-10377
enth	-10378
iper	-10379
ogle	-10380
olar	-10381
onso	-10382
raph	-10383
rive	-10384
ycin	-10385
▁(9)	-10386
▁+1?	-10387
▁0-1	-10388
▁153	-10389
▁202	-10390
▁234	-10391
▁270	-10392
▁3)?	-10393
▁51?	-10394
▁57?	-10395
▁61,	-10396
▁ARE	-10397
▁Alt	-10398
▁Bra	-10399
▁Bye	-10400
▁Cur	-10401
▁Mic	-10402
▁Rap	-10403
▁Rav	-10404
▁Saf	-10405
▁Suz	-10406
▁VII	-10407
▁WHI	-10408
▁amp	-10409
▁cab	-10410
▁dew	-10411
▁fav	-10412
▁hon	-10413
▁ign	-10414
▁ldl	-10415
▁lis	-10416
▁mah	-10417
▁mvr	-10418
▁our	-10419
angay	-10420
aples	-10421
asone	-10422
enses	-10423
eters	-10424
force	-10425
grade	-10426
ished	-10427
olves	-10428
ropol	-10429
thard	-10430
tical	-10431
uzzle	-10432
ylase	-10433
▁(100	-10434
▁1902	-10435
▁1957	-10436
▁200?	-10437
▁2126	-10438
▁ANSI	-10439
▁Chev	-10440
▁Cong	-10441
▁Dupl	-10442
▁Fort	-10443
▁Temp	-10444
▁amin	-10445
▁andy	-10446
▁cole	-10447
▁egfr	-10448
▁fred	-10449
▁gene	-10450
▁lock	-10451
▁logs	-10452
▁ober	-10453
▁tart	-10454
▁toll	-10455
-69=28	-10456
-72=14	-10457
amicin	-10458
contin	-10459
ietnam	-10460
keeper	-10461
ocrats	-10462
reased	-10463
▁009-5	-10464
▁1942?	-10465
▁1943?	-10466
▁1951?	-10467
▁2010.	-10468
▁23070	-10469
▁Czech	-10470
▁Dutch	-10471
▁Fleet	-10472
▁Force	-10473
▁Moder	-10474
▁PLACE	-10475
▁Roger	-10476
▁Stand	-10477
▁Weeks	-10478
▁audio	-10479
▁bears	-10480
▁billy	-10481
▁chips	-10482
▁cited	-10483
▁earth	-10484
▁makes	-10485
▁maria	-10486
▁percu	-10487
▁tiger	-10488
animous	-10489
rowhead	-10490
ullivan	-10491
▁006-16	-10492
▁Ottawa	-10493
▁Walker	-10494
▁behind	-10495
▁coming	-10496
▁damage	-10497
▁flying	-10498
▁glomer	-10499
▁likely	-10500
▁master	-10501
▁oliver	-10502
▁rights	-10503
▁tablet	-10504
▁wicket	-10505
▁Memphis	-10506
▁america	-10507
▁coaster	-10508
▁hypoxia	-10509
▁orleans	-10510
▁portray	-10511
▁reticul	-10512
▁rockets	-10513
▁seattle	-10514
▁sitting	-10515
▁stephen	-10516
▁symptom	-10517
▁transit	-10518
▁turnout	-10519
ilippines	-10520
▁Exchange	-10521
▁Explorer	-10522
▁Reserved	-10523
▁contents	-10524
▁coverage	-10525
▁increase	-10526
▁invasive	-10527
▁releases	-10528
▁seizures	-10529
▁Argentina	-10530
▁Challenge	-10531
▁Chevrolet	-10532
▁Pilipinas	-10533
▁Suggested	-10534
▁freestyle	-10535
▁remaining	-10536
▁Electorate	-10537
▁bodyweight	-10538
▁fatalities	-10539
▁myomectomy	-10540
▁simplified	-10541
▁Mississippi	-10542
▁examination	-10543
▁reticulocyte	-10544
▁semifinalists	-10545
▁characteristic	-10546
/7	-10547
Ar	-10548
NY	-10549
TD	-10550
bi	-10551
16'	-10552
30?	-10553
37,	-10554
57,	-10555
89?	-10556
987	-10557
ALE	-10558
MAN	-10559
Yes	-10560
cat	-10561
dam	-10562
hai	-10563
has	-10564
leb	-10565
nos	-10566
ois	-10567
sal	-10568
vik	-10569
▁-1	-10570
▁PM	-10571
▁kw	-10572
.2%?	-10573
alam	-10574
anks	-10575
asia	-10576
auth	-10577
engu	-10578
ersh	-10579
ikos	-10580
mont	-10581
urer	-10582
uria	-10583
vast	-10584
what	-10585
yard	-10586
▁(65	-10587
▁0.3	-10588
▁151	-10589
▁3.8	-10590
▁39,	-10591
▁433	-10592
▁50%	-10593
▁50.	-10594
▁69,	-10595
▁77?	-10596
▁8.2	-10597
▁9.3	-10598
▁Edu	-10599
▁Emp	-10600
▁Jay	-10601
▁Kaz	-10602
▁Pct	-10603
▁REC	-10604
▁hiv	-10605
▁ist	-10606
▁rab	-10607
▁ric	-10608
▁tap	-10609
allel	-10610
andle	-10611
berta	-10612
human	-10613
ially	-10614
icans	-10615
idden	-10616
inion	-10617
iring	-10618
olved	-10619
ovent	-10620
pping	-10621
▁(10)	-10622
▁1-2?	-10623
▁1954	-10624
▁4-1?	-10625
▁Back	-10626
▁Coup	-10627
▁Fair	-10628
▁Full	-10629
▁Mick	-10630
▁RANK	-10631
▁Stad	-10632
▁jets	-10633
▁yank	-10634
0,000?	-10635
alized	-10636
codone	-10637
derick	-10638
ership	-10639
igible	-10640
reated	-10641
▁015-2	-10642
▁027-2	-10643
▁2015.	-10644
▁Cover	-10645
▁Lyric	-10646
▁Views	-10647
▁airpl	-10648
▁catag	-10649
▁colin	-10650
▁fiber	-10651
▁lapar	-10652
▁pacem	-10653
▁signs	-10654
▁tuber	-10655
arrhyth	-10656
certain	-10657
ennifer	-10658
eration	-10659
orabbin	-10660
oslavia	-10661
phrases	-10662
rington	-10663
segment	-10664
▁Donald	-10665
▁Dublin	-10666
▁Korean	-10667
▁Oregon	-10668
▁Square	-10669
▁Torque	-10670
▁Turkey	-10671
▁attach	-10672
▁breast	-10673
▁forces	-10674
▁manual	-10675
▁needed	-10676
▁speeds	-10677
▁steven	-10678
▁strong	-10679
rogenase	-10680
▁007-158	-10681
▁12/2105	-10682
▁Finding	-10683
▁Primary	-10684
▁Windows	-10685
▁covered	-10686
▁element	-10687
▁federal	-10688
▁jugular	-10689
▁oakland	-10690
▁pattern	-10691
▁payload	-10692
▁pennant	-10693
▁reports	-10694
▁tackles	-10695
▁voltage	-10696
ansferase	-10697
ugoslavia	-10698
▁006-1953	-10699
▁Internet	-10700
▁Latitude	-10701
▁accessed	-10702
▁analysis	-10703
▁approved	-10704
▁kentucky	-10705
▁lactated	-10706
▁lectures	-10707
▁networks	-10708
▁policies	-10709
▁squamous	-10710
▁surgical	-10711
▁Broadcast	-10712
▁amenities	-10713
▁gluconate	-10714
▁casualties	-10715
▁esophageal	-10716
▁horizontal	-10717
▁identifier	-10718
▁Christopher	-10719
▁antiarrhyth	-10720
▁electricity	-10721
▁operational	-10722
0000000000000	-10723
▁Construction	-10724
▁subcutaneous	-10725
▁Stackoverflow	-10726
▁dehydrogenase	-10727
▁transliteration	-10728
6.	-10729
UD	-10730
WS	-10731
-00	-10732
.95	-10733
/22	-10734
/29	-10735
12'	-10736
209	-10737
31?	-10738
63?	-10739
74?	-10740
753	-10741
86?	-10742
ATH	-10743
Ans	-10744
URS	-10745
irs	-10746
rog	-10747
ups	-10748
yer	-10749
▁'6	-10750
▁GA	-10751
▁MS	-10752
▁TU	-10753
▁WR	-10754
-24?	-10755
100?	-10756
acin	-10757
arab	-10758
cean	-10759
cler	-10760
dogs	-10761
iani	-10762
lake	-10763
link	-10764
miss	-10765
osin	-10766
oyer	-10767
pris	-10768
▁0-4	-10769
▁121	-10770
▁182	-10771
▁2.3	-10772
▁53?	-10773
▁56,	-10774
▁6-2	-10775
▁82?	-10776
▁956	-10777
▁AST	-10778
▁DOB	-10779
▁Dar	-10780
▁FIN	-10781
▁Fly	-10782
▁Lev	-10783
▁Lot	-10784
▁PCT	-10785
▁PGA	-10786
▁Sar	-10787
▁Sud	-10788
▁ale	-10789
▁env	-10790
▁ghz	-10791
▁gil	-10792
▁gun	-10793
▁nac	-10794
▁ntv	-10795
▁tre	-10796
/2100	-10797
=208?	-10798
UMBUS	-10799
actic	-10800
cular	-10801
light	-10802
olate	-10803
otics	-10804
owell	-10805
punch	-10806
▁1940	-10807
▁2154	-10808
▁Alfa	-10809
▁Caps	-10810
▁Gill	-10811
▁Josh	-10812
▁UCLA	-10813
▁Whit	-10814
▁coed	-10815
▁deep	-10816
▁guid	-10817
▁jury	-10818
▁luis	-10819
▁muse	-10820
▁nore	-10821
▁occl	-10822
▁phon	-10823
▁tram	-10824
▁tran	-10825
▁very	-10826
▁wedd	-10827
-69-73	-10828
-73=28	-10829
:00:00	-10830
alliga	-10831
aneers	-10832
asound	-10833
astric	-10834
engals	-10835
engers	-10836
ennett	-10837
heimer	-10838
oscler	-10839
▁006-7	-10840
▁009-1	-10841
▁15-16	-10842
▁1992,	-10843
▁2115?	-10844
▁2131?	-10845
▁71-69	-10846
▁Allen	-10847
▁Creek	-10848
▁Given	-10849
▁Radio	-10850
▁Range	-10851
▁Three	-10852
▁WHICH	-10853
▁irish	-10854
▁jason	-10855
▁jimmy	-10856
▁loses	-10857
▁multi	-10858
▁shell	-10859
▁topic	-10860
▁wales	-10861
country	-10862
station	-10863
▁013-28	-10864
▁Attend	-10865
▁Devils	-10866
▁Income	-10867
▁Lakers	-10868
▁Morgan	-10869
▁Yamaha	-10870
▁affirm	-10871
▁aspect	-10872
▁fought	-10873
▁gained	-10874
▁hotels	-10875
▁hydrox	-10876
▁inches	-10877
▁jewish	-10878
▁offers	-10879
▁ottawa	-10880
▁produc	-10881
▁sprint	-10882
▁taller	-10883
▁topics	-10884
oulthard	-10885
▁Between	-10886
▁Content	-10887
▁Cowboys	-10888
▁alabama	-10889
▁coached	-10890
▁feeding	-10891
▁hardest	-10892
▁lengths	-10893
▁origins	-10894
▁planned	-10895
▁shipped	-10896
▁sternal	-10897
▁2000-200	-10898
▁Athletic	-10899
▁Atlantic	-10900
▁Broadway	-10901
▁COLUMBUS	-10902
▁Conceded	-10903
▁Episodes	-10904
▁Finalist	-10905
▁Jonathan	-10906
▁Memorial	-10907
▁Mercedes	-10908
▁Northern	-10909
▁Official	-10910
▁allergie	-10911
▁anything	-10912
▁cardinal	-10913
▁citizens	-10914
▁detected	-10915
▁downvote	-10916
▁entrants	-10917
▁learning	-10918
▁patriots	-10919
▁tartrate	-10920
▁007-15837	-10921
▁Barcelona	-10922
▁Northeast	-10923
▁contested	-10924
▁Schumacher	-10925
▁angiocardi	-10926
▁anticoagul	-10927
▁intestinal	-10928
▁protestant	-10929
▁ultrasound	-10930
▁Headquarter	-10931
▁affirmative	-10932
▁atheroscler	-10933
▁engineering	-10934
▁insuffiency	-10935
▁lymphocytes	-10936
▁reservations	-10937
▁communicating	-10938
▁preliminaries	-10939
▁characteristics	-10940
3)	-10941
DU	-10942
MT	-10943
RY	-10944
bu	-10945
cd	-10946
-60	-10947
-8?	-10948
.07	-10949
180	-10950
19,	-10951
214	-10952
26?	-10953
281	-10954
550	-10955
900	-10956
951	-10957
ARD	-10958
ART	-10959
cop	-10960
inv	-10961
oku	-10962
▁EV	-10963
▁Kr	-10964
▁MW	-10965
▁bt	-10966
▁hr	-10967
▁ht	-10968
▁pf	-10969
.8%?	-10970
200?	-10971
5705	-10972
Male	-10973
ably	-10974
aven	-10975
etic	-10976
irrh	-10977
lett	-10978
nell	-10979
opot	-10980
ouch	-10981
uals	-10982
week	-10983
▁2)?	-10984
▁20.	-10985
▁340	-10986
▁456	-10987
▁660	-10988
▁73,	-10989
▁DEP	-10990
▁Ell	-10991
▁Gri	-10992
▁Gru	-10993
▁Hor	-10994
▁Hot	-10995
▁Jos	-10996
▁Kay	-10997
▁Lie	-10998
▁Moh	-10999
▁SQL	-11000
▁She	-11001
▁Sil	-11002
▁Und	-11003
▁gro	-11004
▁hct	-11005
▁pix	-11006
▁sbp	-11007
▁too	-11008
Graph	-11009
South	-11010
atian	-11011
ensit	-11012
espan	-11013
ianza	-11014
onyms	-11015
ospor	-11016
▁1939	-11017
▁1945	-11018
▁1952	-11019
▁2018	-11020
▁2120	-11021
▁2133	-11022
▁2156	-11023
▁6558	-11024
▁AAAA	-11025
▁Also	-11026
▁Bank	-11027
▁Life	-11028
▁Punt	-11029
▁THAT	-11030
▁Word	-11031
▁brom	-11032
▁debt	-11033
▁micu	-11034
▁news	-11035
▁seed	-11036
▁shop	-11037
▁tail	-11038
-69=27	-11039
TypeId	-11040
acings	-11041
azolam	-11042
ediate	-11043
ercise	-11044
etting	-11045
ewable	-11046
ipment	-11047
mitter	-11048
rosoft	-11049
unspec	-11050
ussels	-11051
verted	-11052
▁025-2	-11053
▁028-5	-11054
▁1000.	-11055
▁1940?	-11056
▁2014?	-11057
▁20898	-11058
▁2110?	-11059
▁2112?	-11060
▁2174?	-11061
▁AAAAA	-11062
▁Aaron	-11063
▁Dates	-11064
▁Domin	-11065
▁Evans	-11066
▁Keith	-11067
▁Milan	-11068
▁Mixed	-11069
▁Paris	-11070
▁adhes	-11071
▁canal	-11072
▁chord	-11073
▁cirrh	-11074
▁claud	-11075
▁fever	-11076
▁kerry	-11077
▁mills	-11078
▁separ	-11079
▁solid	-11080
▁usage	-11081
▁windy	-11082
awasaki	-11083
cussion	-11084
enteric	-11085
western	-11086
▁033-22	-11087
▁Active	-11088
▁Bishop	-11089
▁Dakota	-11090
▁Modern	-11091
▁Scorer	-11092
▁asthma	-11093
▁bishop	-11094
▁consum	-11095
▁horses	-11096
▁jordan	-11097
▁mening	-11098
▁mother	-11099
▁phrase	-11100
▁prefix	-11101
▁reopen	-11102
▁spouse	-11103
enezuela	-11104
invasive	-11105
nisolone	-11106
odilator	-11107
otherapy	-11108
▁027-136	-11109
▁Comment	-11110
▁Revenue	-11111
▁Species	-11112
▁complex	-11113
▁dbeingt	-11114
▁francis	-11115
▁missing	-11116
▁tryouts	-11117
▁witness	-11118
oreograph	-11119
temporary	-11120
▁09/2104?	-11121
▁Anderson	-11122
▁Friendly	-11123
▁Missouri	-11124
▁Retrieve	-11125
▁Warriors	-11126
▁advisors	-11127
▁approach	-11128
▁coliseum	-11129
▁docusate	-11130
▁fernando	-11131
▁memories	-11132
▁portland	-11133
▁semantic	-11134
▁uncntrld	-11135
▁Charlotte	-11136
▁Liverpool	-11137
▁carcinoma	-11138
▁cirrhosis	-11139
▁recipient	-11140
▁Motorsport	-11141
▁complaints	-11142
▁mesenteric	-11143
▁procedured	-11144
▁undergoing	-11145
▁Motorsports	-11146
▁Qualification	-11147
▁hyperlipidemia	-11148
▁hospitalization	-11149
cr	-11150
gm	-11151
pi	-11152
sk	-11153
.05	-11154
.40	-11155
.73	-11156
.90	-11157
.93	-11158
/27	-11159
12)	-11160
486	-11161
5'?	-11162
53?	-11163
98,	-11164
ALS	-11165
Bob	-11166
DER	-11167
INS	-11168
OME	-11169
ORY	-11170
USD	-11171
aus	-11172
ele	-11173
eri	-11174
len	-11175
lop	-11176
mad	-11177
nan	-11178
rap	-11179
rof	-11180
sep	-11181
ugu	-11182
uve	-11183
won	-11184
ych	-11185
you	-11186
▁1)	-11187
▁BB	-11188
▁EM	-11189
▁HC	-11190
▁Kh	-11191
▁QF	-11192
▁SW	-11193
▁cu	-11194
▁gb	-11195
▁gm	-11196
▁ja	-11197
▁ms	-11198
▁om	-11199
▁ud	-11200
1547	-11201
2.5?	-11202
7687	-11203
ESUL	-11204
SALE	-11205
amar	-11206
eman	-11207
ghan	-11208
ibly	-11209
illy	-11210
just	-11211
laus	-11212
onic	-11213
sues	-11214
wayn	-11215
▁#2?	-11216
▁'10	-11217
▁132	-11218
▁16:	-11219
▁268	-11220
▁302	-11221
▁548	-11222
▁55,	-11223
▁553	-11224
▁7.6	-11225
▁7.8	-11226
▁808	-11227
▁83?	-11228
▁867	-11229
▁929	-11230
▁Adm	-11231
▁Ale	-11232
▁ENG	-11233
▁Ern	-11234
▁FIS	-11235
▁Fel	-11236
▁alz	-11237
▁boy	-11238
▁crn	-11239
▁cyl	-11240
▁ery	-11241
▁fun	-11242
▁kon	-11243
=211?	-11244
afael	-11245
aghan	-11246
avant	-11247
based	-11248
close	-11249
elley	-11250
etime	-11251
eting	-11252
geria	-11253
ician	-11254
olute	-11255
onnie	-11256
quest	-11257
skins	-11258
ucati	-11259
ussen	-11260
ynamo	-11261
▁102?	-11262
▁1561	-11263
▁1953	-11264
▁2058	-11265
▁2167	-11266
▁3-0?	-11267
▁3-2?	-11268
▁4401	-11269
▁Cond	-11270
▁Dame	-11271
▁Ever	-11272
▁Hale	-11273
▁Kick	-11274
▁Live	-11275
▁Made	-11276
▁Mile	-11277
▁Prov	-11278
▁Wick	-11279
▁auto	-11280
▁chol	-11281
▁curr	-11282
▁even	-11283
▁excl	-11284
▁flex	-11285
▁leon	-11286
▁lith	-11287
▁marg	-11288
▁noon	-11289
▁oste	-11290
▁prec	-11291
▁prod	-11292
▁sqmi	-11293
▁susp	-11294
▁utah	-11295
aliers	-11296
amples	-11297
ceeded	-11298
igeria	-11299
iggins	-11300
ighter	-11301
irates	-11302
option	-11303
placed	-11304
pshire	-11305
septal	-11306
vanced	-11307
▁(10)?	-11308
▁017-4	-11309
▁021-1	-11310
▁2002,	-11311
▁2016.	-11312
▁2138?	-11313
▁25814	-11314
▁Denis	-11315
▁Lotus	-11316
▁Marsh	-11317
▁RESUL	-11318
▁Sales	-11319
▁Stars	-11320
▁Would	-11321
▁bulls	-11322
▁consc	-11323
▁disco	-11324
▁eddie	-11325
▁gloss	-11326
▁login	-11327
▁micro	-11328
▁nasal	-11329
▁nchez	-11330
▁pairs	-11331
▁techn	-11332
▁tried	-11333
▁wayne	-11334
agement	-11335
atholic	-11336
culosis	-11337
enguins	-11338
ensions	-11339
icolect	-11340
▁Appear	-11341
▁Darren	-11342
▁Flyers	-11343
▁Hunter	-11344
▁Invest	-11345
▁Leader	-11346
▁Sawayn	-11347
▁Steven	-11348
▁goalie	-11349
▁graham	-11350
▁museum	-11351
▁newest	-11352
▁planet	-11353
▁random	-11354
▁shares	-11355
▁signed	-11356
▁simple	-11357
▁stable	-11358
▁talbot	-11359
▁tennis	-11360
▁yearid	-11361
▁Density	-11362
▁Finland	-11363
▁Janessa	-11364
▁Leonard	-11365
▁Surname	-11366
▁aminotr	-11367
▁analyst	-11368
▁britain	-11369
▁earning	-11370
▁nuclear	-11371
▁options	-11372
▁prefect	-11373
▁pregame	-11374
▁radical	-11375
▁remarks	-11376
▁variant	-11377
ropolitan	-11378
▁Democrat	-11379
▁Earnings	-11380
▁Mariners	-11381
▁Reaction	-11382
▁Scuderia	-11383
▁Seahawks	-11384
▁Stanford	-11385
▁Steelers	-11386
▁consider	-11387
▁forename	-11388
▁halfback	-11389
▁material	-11390
▁neurolog	-11391
▁neutroph	-11392
▁norepine	-11393
▁reporter	-11394
▁shipping	-11395
Attendance	-11396
employment	-11397
▁005-77687	-11398
▁033-22108	-11399
▁birthdate	-11400
▁cancelled	-11401
▁delivered	-11402
▁hypoxemia	-11403
▁ministers	-11404
▁platelets	-11405
▁purchased	-11406
▁uncertain	-11407
▁colangitis	-11408
▁goalkeeper	-11409
▁hemicolect	-11410
▁interested	-11411
▁Attendances	-11412
▁tuberculosis	-11413
▁norepinephrine	-11414
▁atherosclerosis	-11415
')	-11416
++	-11417
DT	-11418
HA	-11419
TC	-11420
UN	-11421
ek	-11422
-34	-11423
-35	-11424
.24	-11425
.47	-11426
00.	-11427
14,	-11428
24,	-11429
35?	-11430
390	-11431
471	-11432
54'	-11433
572	-11434
58?	-11435
84?	-11436
97,	-11437
NER	-11438
WAY	-11439
chl	-11440
ige	-11441
isi	-11442
nel	-11443
▁'%	-11444
▁(+	-11445
▁--	-11446
▁IV	-11447
▁MP	-11448
▁Nm	-11449
▁RR	-11450
▁UN	-11451
▁WC	-11452
▁hm	-11453
▁hu	-11454
▁ku	-11455
▁mt	-11456
▁mu	-11457
▁wy	-11458
-03?	-11459
4513	-11460
755?	-11461
ablo	-11462
adal	-11463
anzi	-11464
aund	-11465
avin	-11466
dles	-11467
gart	-11468
idal	-11469
imir	-11470
imus	-11471
iors	-11472
oshi	-11473
rien	-11474
umph	-11475
uten	-11476
▁(23	-11477
▁(3)	-11478
▁(40	-11479
▁(62	-11480
▁152	-11481
▁174	-11482
▁2-1	-11483
▁239	-11484
▁266	-11485
▁297	-11486
▁509	-11487
▁590	-11488
▁594	-11489
▁6.4	-11490
▁7.9	-11491
▁86?	-11492
▁9.1	-11493
▁Aff	-11494
▁BIG	-11495
▁Bal	-11496
▁CON	-11497
▁Ger	-11498
▁Ian	-11499
▁Ips	-11500
▁LOA	-11501
▁LOW	-11502
▁Vic	-11503
▁afc	-11504
▁atl	-11505
▁ket	-11506
▁nan	-11507
▁rib	-11508
▁tan	-11509
▁tip	-11510
INNER	-11511
Votes	-11512
arone	-11513
ennai	-11514
ensor	-11515
ering	-11516
hawks	-11517
ierce	-11518
jamin	-11519
oneal	-11520
osupp	-11521
ricks	-11522
utton	-11523
verty	-11524
▁1930	-11525
▁1934	-11526
▁1941	-11527
▁1962	-11528
▁2060	-11529
▁2123	-11530
▁2139	-11531
▁2165	-11532
▁2184	-11533
▁6170	-11534
▁AWAY	-11535
▁Alan	-11536
▁Anna	-11537
▁Cham	-11538
▁Gran	-11539
▁Have	-11540
▁Mach	-11541
▁Meta	-11542
▁Pent	-11543
▁boys	-11544
▁engl	-11545
▁enox	-11546
▁fund	-11547
▁holl	-11548
▁rose	-11549
▁soap	-11550
▁stev	-11551
▁wang	-11552
-71-70	-11553
/2101.	-11554
German	-11555
ancial	-11556
atinum	-11557
encing	-11558
ighbor	-11559
ipaldi	-11560
ipline	-11561
orials	-11562
ortico	-11563
pisode	-11564
stroke	-11565
voting	-11566
▁10624	-11567
▁1950?	-11568
▁2154?	-11569
▁73713	-11570
▁Clock	-11571
▁Egypt	-11572
▁Fosse	-11573
▁Major	-11574
▁Notre	-11575
▁Towns	-11576
▁Train	-11577
▁anast	-11578
▁banks	-11579
▁beach	-11580
▁blank	-11581
▁craig	-11582
▁crude	-11583
▁downs	-11584
▁dwell	-11585
▁inaug	-11586
▁might	-11587
akhstan	-11588
leyball	-11589
oplasty	-11590
▁031-22	-11591
▁Custom	-11592
▁Edward	-11593
▁Little	-11594
▁System	-11595
▁Trophy	-11596
▁bruins	-11597
▁buccal	-11598
▁button	-11599
▁dancer	-11600
▁deputy	-11601
▁dosage	-11602
▁impair	-11603
▁kinase	-11604
▁linked	-11605
▁metric	-11606
▁riding	-11607
▁stated	-11608
▁voided	-11609
▁yellow	-11610
utrition	-11611
▁022-187	-11612
▁COUNTRY	-11613
▁Entered	-11614
▁Victory	-11615
▁antigen	-11616
▁banking	-11617
▁coronar	-11618
▁dragons	-11619
▁reading	-11620
▁request	-11621
▁senator	-11622
▁skipper	-11623
▁stomach	-11624
▁windows	-11625
agulation	-11626
ittipaldi	-11627
uloplasty	-11628
▁alkaline	-11629
▁atlantic	-11630
▁exercise	-11631
▁jonathan	-11632
▁lyricist	-11633
▁neonatal	-11634
▁ordinary	-11635
▁platinum	-11636
▁warfarin	-11637
▁wildcats	-11638
continuous	-11639
ighborhood	-11640
▁Cardinals	-11641
▁Catalogue	-11642
▁Nashville	-11643
▁arteriogr	-11644
▁divisions	-11645
▁islanders	-11646
▁Statistics	-11647
▁attraction	-11648
▁frameworks	-11649
▁keyphrases	-11650
▁successors	-11651
▁Description	-11652
▁Elimination	-11653
▁conferences	-11654
▁corporation	-11655
▁mississippi	-11656
▁circumcision	-11657
▁Constellation	-11658
▁massachusetts	-11659
▁alphabetically	-11660
▁identification	-11661
BL	-11662
Fr	-11663
uv	-11664
-4,	-11665
.01	-11666
/17	-11667
/23	-11668
03?	-11669
04?	-11670
24?	-11671
268	-11672
362	-11673
45?	-11674
79?	-11675
:45	-11676
Age	-11677
SQL	-11678
San	-11679
cia	-11680
cro	-11681
gal	-11682
gie	-11683
gow	-11684
isl	-11685
oga	-11686
oki	-11687
rpm	-11688
uka	-11689
usa	-11690
www	-11691
▁AC	-11692
▁CF	-11693
▁Da	-11694
▁Er	-11695
▁FK	-11696
▁Ka	-11697
▁Ku	-11698
▁Ky	-11699
▁MA	-11700
▁NI	-11701
▁Tw	-11702
▁gh	-11703
▁ip	-11704
▁jr	-11705
▁kh	-11706
▁lg	-11707
▁tb	-11708
-08?	-11709
.4%?	-11710
480?	-11711
CLIS	-11712
SION	-11713
View	-11714
acle	-11715
apse	-11716
arde	-11717
aria	-11718
away	-11719
emen	-11720
ente	-11721
eppe	-11722
erek	-11723
erey	-11724
ermo	-11725
hatt	-11726
iers	-11727
illo	-11728
inyl	-11729
itic	-11730
rost	-11731
thur	-11732
vert	-11733
▁137	-11734
▁148	-11735
▁4.9	-11736
▁404	-11737
▁426	-11738
▁58,	-11739
▁73?	-11740
▁780	-11741
▁89?	-11742
▁90?	-11743
▁92?	-11744
▁Arm	-11745
▁CER	-11746
▁Cab	-11747
▁FSB	-11748
▁Gre	-11749
▁Has	-11750
▁Lib	-11751
▁MLS	-11752
▁Ric	-11753
▁Rio	-11754
▁SEC	-11755
▁Sec	-11756
▁Sep	-11757
▁URL	-11758
▁WHO	-11759
▁cav	-11760
▁chi	-11761
▁cub	-11762
▁hen	-11763
▁ile	-11764
▁kan	-11765
▁las	-11766
▁lbs	-11767
▁ost	-11768
▁rod	-11769
▁sor	-11770
▁umb	-11771
=215?	-11772
aheim	-11773
annon	-11774
aters	-11775
atrop	-11776
avasc	-11777
chool	-11778
class	-11779
front	-11780
iasis	-11781
itter	-11782
lines	-11783
olade	-11784
ppers	-11785
raska	-11786
shire	-11787
stown	-11788
ughes	-11789
ulton	-11790
venes	-11791
width	-11792
▁'200	-11793
▁(1)?	-11794
▁(2)?	-11795
▁13.5	-11796
▁1846	-11797
▁1910	-11798
▁2056	-11799
▁2148	-11800
▁3-1?	-11801
▁4-2?	-11802
▁9:30	-11803
▁Cole	-11804
▁Fest	-11805
▁Horn	-11806
▁Rail	-11807
▁Serg	-11808
▁advi	-11809
▁atri	-11810
▁audi	-11811
▁benz	-11812
▁brig	-11813
▁drum	-11814
▁glen	-11815
▁glob	-11816
▁maln	-11817
▁prep	-11818
▁stad	-11819
▁stre	-11820
▁suic	-11821
▁todd	-11822
▁umol	-11823
-69=13	-11824
/2102.	-11825
ailand	-11826
ampton	-11827
atalia	-11828
eltics	-11829
ething	-11830
idosis	-11831
ometer	-11832
ooting	-11833
▁002-1	-11834
▁004-7	-11835
▁11:00	-11836
▁Beach	-11837
▁Brand	-11838
▁Derby	-11839
▁Drama	-11840
▁Fight	-11841
▁Light	-11842
▁Pedro	-11843
▁Pilot	-11844
▁Right	-11845
▁Space	-11846
▁Spart	-11847
▁bands	-11848
▁board	-11849
▁contr	-11850
▁cores	-11851
▁defin	-11852
▁kinds	-11853
▁mario	-11854
▁milan	-11855
▁nerve	-11856
▁sixth	-11857
▁tampa	-11858
▁trial	-11859
▁truck	-11860
▁woman	-11861
-111547	-11862
lemetry	-11863
ococcal	-11864
olation	-11865
unctive	-11866
▁(2010)	-11867
▁006-47	-11868
▁Battle	-11869
▁Bolton	-11870
▁Jockey	-11871
▁Knicks	-11872
▁Mobile	-11873
▁Monaco	-11874
▁Trofeo	-11875
▁Walter	-11876
▁adults	-11877
▁antibi	-11878
▁benign	-11879
▁berlin	-11880
▁carlos	-11881
▁chiefs	-11882
▁equals	-11883
▁favour	-11884
▁franch	-11885
▁inputs	-11886
▁muzzle	-11887
▁obtain	-11888
▁owners	-11889
▁quaker	-11890
▁simply	-11891
▁spoken	-11892
▁suture	-11893
atropium	-11894
inthians	-11895
▁013-338	-11896
▁031-196	-11897
▁200,000	-11898
▁CERCLIS	-11899
▁Finance	-11900
▁HIGHEST	-11901
▁Madison	-11902
▁Pacific	-11903
▁Present	-11904
▁Stewart	-11905
▁amylase	-11906
▁cyclist	-11907
▁hungary	-11908
▁limited	-11909
▁madison	-11910
▁orbital	-11911
▁persons	-11912
▁reserve	-11913
▁respect	-11914
▁rushing	-11915
▁tissues	-11916
▁towards	-11917
americana	-11918
▁05/2105?	-11919
▁2006-200	-11920
▁Administ	-11921
▁Andretti	-11922
▁Bernhard	-11923
▁Branding	-11924
▁Building	-11925
▁Cosworth	-11926
▁Dolphins	-11927
▁Nebraska	-11928
▁Research	-11929
▁Speedway	-11930
▁anderson	-11931
▁averaged	-11932
▁bulgaria	-11933
▁churches	-11934
▁currency	-11935
▁eligible	-11936
▁guidance	-11937
▁licensed	-11938
▁migrated	-11939
▁offering	-11940
▁stenosis	-11941
▁013-28507	-11942
▁031-16123	-11943
▁Condition	-11944
▁Islanders	-11945
▁Municipal	-11946
▁Nominated	-11947
▁accession	-11948
▁argentina	-11949
▁athletics	-11950
▁automatic	-11951
▁barcelona	-11952
▁bilateral	-11953
▁favorited	-11954
▁inclusive	-11955
▁louisiana	-11956
▁oxycodone	-11957
▁preserved	-11958
▁renewable	-11959
▁requiring	-11960
▁021-111547	-11961
▁Birmingham	-11962
▁Foundation	-11963
▁Locomotive	-11964
▁Portuguese	-11965
▁aspiration	-11966
▁catagories	-11967
▁dimensions	-11968
▁filtration	-11969
▁gentamicin	-11970
▁glomerular	-11971
▁immunosupp	-11972
▁peritoneal	-11973
▁septicemia	-11974
000000000000	-11975
▁DisplayName	-11976
▁development	-11977
▁manufacture	-11978
▁submissions	-11979
▁Saskatchewan	-11980
▁participation	-11981
▁transcription	-11982
SW	-11983
VM	-11984
nm	-11985
-98	-11986
.57	-11987
.74	-11988
140	-11989
25,	-11990
295	-11991
604	-11992
763	-11993
805	-11994
847	-11995
ALI	-11996
CSF	-11997
Com	-11998
Dup	-11999
END	-12000
Non	-12001
YSI	-12002
bas	-12003
bec	-12004
bia	-12005
dis	-12006
gio	-12007
hen	-12008
iii	-12009
ixt	-12010
jan	-12011
oir	-12012
pos	-12013
rak	-12014
vir	-12015
zek	-12016
zer	-12017
▁'7	-12018
▁Ak	-12019
▁Ay	-12020
▁EA	-12021
▁HB	-12022
▁HK	-12023
▁Ni	-12024
▁OS	-12025
▁RE	-12026
▁ah	-12027
▁lq	-12028
▁lt	-12029
▁lv	-12030
▁pc	-12031
▁rb	-12032
-07?	-12033
-218	-12034
.02?	-12035
3413	-12036
80)?	-12037
adow	-12038
aret	-12039
azon	-12040
bham	-12041
dale	-12042
ento	-12043
foot	-12044
ichi	-12045
igel	-12046
ingo	-12047
isia	-12048
roph	-12049
ugby	-12050
vuls	-12051
▁(21	-12052
▁(25	-12053
▁167	-12054
▁232	-12055
▁274	-12056
▁324	-12057
▁348	-12058
▁389	-12059
▁446	-12060
▁499	-12061
▁511	-12062
▁525	-12063
▁57,	-12064
▁71,	-12065
▁75,	-12066
▁96+	-12067
▁Ali	-12068
▁Bug	-12069
▁Els	-12070
▁GSI	-12071
▁Pot	-12072
▁ROY	-12073
▁Rab	-12074
▁SCH	-12075
▁Spr	-12076
▁Vel	-12077
▁Ven	-12078
▁bis	-12079
▁bom	-12080
▁chl	-12081
▁hom	-12082
▁sle	-12083
▁tas	-12084
,000?	-12085
-211?	-12086
angul	-12087
brook	-12088
elsen	-12089
entin	-12090
ients	-12091
ombia	-12092
opril	-12093
ouise	-12094
thral	-12095
trans	-12096
uburn	-12097
▁103?	-12098
▁109?	-12099
▁150?	-12100
▁1928	-12101
▁1:01	-12102
▁2150	-12103
▁2151	-12104
▁2:00	-12105
▁60%)	-12106
▁Arab	-12107
▁Bart	-12108
▁Dest	-12109
▁Kent	-12110
▁Mong	-12111
▁Ober	-12112
▁Pers	-12113
▁Shin	-12114
▁conc	-12115
▁csru	-12116
▁fiji	-12117
▁gest	-12118
▁gone	-12119
▁hart	-12120
▁java	-12121
▁lumb	-12122
▁pure	-12123
▁roma	-12124
▁task	-12125
▁unil	-12126
▁unst	-12127
-72-70	-12128
Duplex	-12129
Script	-12130
eremia	-12131
ettlem	-12132
istent	-12133
ogenic	-12134
urdles	-12135
▁033-3	-12136
▁15447	-12137
▁1952?	-12138
▁2019.	-12139
▁Blues	-12140
▁Break	-12141
▁Bulls	-12142
▁Check	-12143
▁Irish	-12144
▁Moore	-12145
▁Value	-12146
▁basis	-12147
▁bobby	-12148
▁casts	-12149
▁chile	-12150
▁confl	-12151
▁damon	-12152
▁derby	-12153
▁effic	-12154
▁feeds	-12155
▁gauge	-12156
▁immig	-12157
▁larry	-12158
▁moves	-12159
▁playl	-12160
▁roger	-12161
▁romeo	-12162
▁tally	-12163
▁think	-12164
▁watts	-12165
-203413	-12166
ixtures	-12167
jection	-12168
righton	-12169
rolimus	-12170
stadion	-12171
▁030-10	-12172
▁74032?	-12173
▁Commer	-12174
▁Duncan	-12175
▁Elimin	-12176
▁Gordon	-12177
▁Reason	-12178
▁Samuel	-12179
▁Titles	-12180
▁advice	-12181
▁approx	-12182
▁bottom	-12183
▁cannot	-12184
▁cardio	-12185
▁carter	-12186
▁explor	-12187
▁flyers	-12188
▁future	-12189
▁glucoc	-12190
▁marked	-12191
▁medium	-12192
▁moscow	-12193
▁python	-12194
iconvuls	-12195
ironment	-12196
▁004-640	-12197
▁2105-12	-12198
▁Canucks	-12199
▁Deleted	-12200
▁Project	-12201
▁Winners	-12202
▁beijing	-12203
▁brabham	-12204
▁coaches	-12205
▁defence	-12206
▁expired	-12207
▁express	-12208
▁falcons	-12209
▁packers	-12210
▁penalty	-12211
▁perfect	-12212
▁poverty	-12213
▁removed	-12214
▁session	-12215
▁summary	-12216
▁wounded	-12217
adventure	-12218
▁Coliseum	-12219
▁absolute	-12220
▁cardiomy	-12221
▁creatine	-12222
▁external	-12223
▁modified	-12224
▁musician	-12225
▁sedative	-12226
▁thompson	-12227
ettlemoyer	-12228
▁013-33898	-12229
▁030-52327	-12230
▁031-22988	-12231
▁031-24513	-12232
▁Enterpris	-12233
▁alexander	-12234
▁alzheimer	-12235
▁answering	-12236
▁canadiens	-12237
▁computing	-12238
▁conscious	-12239
▁defending	-12240
▁distances	-12241
▁incidents	-12242
▁lymphatic	-12243
▁midazolam	-12244
▁milwaukee	-12245
▁semesters	-12246
▁territory	-12247
▁027-203413	-12248
▁Eliminated	-12249
▁Wednesdays	-12250
▁cellulitis	-12251
▁controlled	-12252
▁impairment	-12253
▁anticonvuls	-12254
▁electrolyte	-12255
▁inhabitants	-12256
▁CreationDate	-12257
▁glucocortico	-12258
▁metropolitan	-12259
▁unemployment	-12260
▁accreditation	-12261
/6	-12262
DB	-12263
UP	-12264
kk	-12265
nc	-12266
zy	-12267
-1)	-12268
-7,	-12269
-78	-12270
.89	-12271
15'	-12272
172	-12273
182	-12274
198	-12275
202	-12276
204	-12277
26'	-12278
350	-12279
601	-12280
SIP	-12281
aru	-12282
dez	-12283
gor	-12284
iah	-12285
ihy	-12286
kje	-12287
lox	-12288
olk	-12289
tha	-12290
yll	-12291
▁AL	-12292
▁Az	-12293
▁DO	-12294
▁Dj	-12295
▁Ox	-12296
▁RI	-12297
▁WE	-12298
▁au	-12299
▁bc	-12300
▁hi	-12301
▁mf	-12302
▁rr	-12303
▁wi	-12304
-160	-12305
.6%?	-12306
7227	-12307
=211	-12308
LANG	-12309
Post	-12310
agan	-12311
body	-12312
eros	-12313
inet	-12314
ioni	-12315
keet	-12316
oker	-12317
rine	-12318
rscl	-12319
vess	-12320
▁(26	-12321
▁(4)	-12322
▁139	-12323
▁20'	-12324
▁226	-12325
▁248	-12326
▁260	-12327
▁276	-12328
▁311	-12329
▁4-3	-12330
▁420	-12331
▁430	-12332
▁5.6	-12333
▁530	-12334
▁58?	-12335
▁599	-12336
▁78?	-12337
▁978	-12338
▁Arg	-12339
▁BRM	-12340
▁Buc	-12341
▁Dep	-12342
▁Div	-12343
▁Gro	-12344
▁Jar	-12345
▁LMS	-12346
▁Nak	-12347
▁PRO	-12348
▁Str	-12349
▁TDP	-12350
▁Tex	-12351
▁Tru	-12352
▁Vac	-12353
▁WHo	-12354
▁Why	-12355
▁bon	-12356
▁bos	-12357
▁dir	-12358
▁gor	-12359
▁hal	-12360
▁ian	-12361
▁ide	-12362
▁mut	-12363
▁nak	-12364
▁nfl	-12365
▁pel	-12366
▁rez	-12367
▁syr	-12368
▁tot	-12369
-1337	-12370
-8869	-12371
0,000	-12372
65214	-12373
=210?	-12374
ENTAL	-12375
ESTER	-12376
arynx	-12377
emble	-12378
olver	-12379
oring	-12380
owski	-12381
riter	-12382
rosis	-12383
umped	-12384
uxemb	-12385
▁1880	-12386
▁1920	-12387
▁1944	-12388
▁2144	-12389
▁2500	-12390
▁3125	-12391
▁4000	-12392
▁6-2?	-12393
▁Brab	-12394
▁DCSF	-12395
▁Fuel	-12396
▁Gene	-12397
▁Marc	-12398
▁Marg	-12399
▁Neil	-12400
▁PSIP	-12401
▁Poll	-12402
▁Rece	-12403
▁Thai	-12404
▁Tyre	-12405
▁alca	-12406
▁ansi	-12407
▁bass	-12408
▁bits	-12409
▁burg	-12410
▁coma	-12411
▁gets	-12412
▁hits	-12413
▁jazz	-12414
▁jean	-12415
▁mans	-12416
▁meta	-12417
▁prox	-12418
▁risk	-12419
▁trib	-12420
▁troy	-12421
▁turb	-12422
▁unab	-12423
-67=27	-12424
-70=14	-12425
aratus	-12426
cluded	-12427
edback	-12428
eneuve	-12429
iseach	-12430
kinson	-12431
onesia	-12432
ousand	-12433
season	-12434
wegian	-12435
▁022-6	-12436
▁1000?	-12437
▁1993,	-12438
▁1998,	-12439
▁2013,	-12440
▁2164?	-12441
▁27703	-12442
▁5000?	-12443
▁65582	-12444
▁Brett	-12445
▁Cache	-12446
▁Guard	-12447
▁Liter	-12448
▁Mason	-12449
▁ORDER	-12450
▁Style	-12451
▁Tommy	-12452
▁Tower	-12453
▁Upper	-12454
▁arden	-12455
▁corio	-12456
▁ellis	-12457
▁forms	-12458
▁genes	-12459
▁grams	-12460
▁haven	-12461
▁lives	-12462
▁monte	-12463
▁natve	-12464
▁numer	-12465
▁parks	-12466
▁stemi	-12467
:00:00?	-12468
ailable	-12469
iuseppe	-12470
vericks	-12471
▁004-86	-12472
▁013-38	-12473
▁5,008?	-12474
▁Astrid	-12475
▁BIGGER	-12476
▁Editor	-12477
▁Forest	-12478
▁Fourth	-12479
▁Greece	-12480
▁Gruber	-12481
▁LOWEST	-12482
▁Manuel	-12483
▁Moving	-12484
▁RESULT	-12485
▁Single	-12486
▁Suzuki	-12487
▁UserId	-12488
▁adjust	-12489
▁analog	-12490
▁antihy	-12491
▁become	-12492
▁broken	-12493
▁colour	-12494
▁entral	-12495
▁grades	-12496
▁hypoth	-12497
▁issues	-12498
▁johnny	-12499
▁labour	-12500
▁livery	-12501
▁loaned	-12502
▁mobile	-12503
▁nelson	-12504
enditure	-12505
essandro	-12506
▁031-237	-12507
▁035-240	-12508
▁Appoint	-12509
▁Musical	-12510
▁Seasons	-12511
▁TUESDAY	-12512
▁academy	-12513
▁aprilia	-12514
▁athrscl	-12515
▁chordae	-12516
▁closing	-12517
▁defense	-12518
▁excerpt	-12519
▁highway	-12520
▁knights	-12521
▁peptide	-12522
▁raiders	-12523
▁receipt	-12524
▁sources	-12525
▁theatre	-12526
▁virtual	-12527
avascript	-12528
junostomy	-12529
uxembourg	-12530
▁006-2586	-12531
▁017-8869	-12532
▁Advanced	-12533
▁Derricks	-12534
▁Monterey	-12535
▁Scottish	-12536
▁Syracuse	-12537
▁apparent	-12538
▁arkansas	-12539
▁campuses	-12540
▁chargers	-12541
▁cultural	-12542
▁deputies	-12543
▁executed	-12544
▁explorer	-12545
▁independ	-12546
▁listings	-12547
▁magazine	-12548
▁marlboro	-12549
▁maryland	-12550
▁portugal	-12551
▁singular	-12552
▁swimming	-12553
▁004-64091	-12554
▁Cavaliers	-12555
▁Frankfurt	-12556
▁Newcastle	-12557
▁collision	-12558
▁competing	-12559
▁elizabeth	-12560
▁endoscopy	-12561
▁inhibitor	-12562
▁institute	-12563
▁pacemaker	-12564
▁parameter	-12565
▁reviewers	-12566
rednisolone	-12567
▁027-136480	-12568
▁027-165214	-12569
▁Binibining	-12570
▁JavaScript	-12571
▁Partnering	-12572
▁Yugoslavia	-12573
▁admissions	-12574
▁alphabetic	-12575
▁attributes	-12576
▁components	-12577
▁convention	-12578
▁decreasing	-12579
▁discipline	-12580
▁industrial	-12581
▁motorsport	-12582
▁parenteral	-12583
▁peripheral	-12584
▁Corporation	-12585
▁Termination	-12586
▁consumption	-12587
▁cosponsored	-12588
▁credentials	-12589
▁psychiatric	-12590
▁vasopressor	-12591
▁comptrollers	-12592
▁headquartered	-12593
▁hemicolectomy	-12594
▁cardiomyopathy	-12595
MM	-12596
RC	-12597
TR	-12598
ku	-12599
lv	-12600
ql	-12601
zi	-12602
%)?	-12603
-48	-12604
-84	-12605
-92	-12606
.26	-12607
.76	-12608
107	-12609
134	-12610
28?	-12611
67,	-12612
711	-12613
And	-12614
Mar	-12615
ahl	-12616
bek	-12617
bis	-12618
ghz	-12619
hin	-12620
kok	-12621
lim	-12622
mal	-12623
ppa	-12624
spe	-12625
unk	-12626
▁('	-12627
▁1-	-12628
▁DX	-12629
▁Ji	-12630
▁Pi	-12631
▁SH	-12632
▁Wo	-12633
▁oh	-12634
▁va	-12635
-28?	-12636
-34?	-12637
.22?	-12638
/30?	-12639
220?	-12640
3047	-12641
Bill	-12642
Boot	-12643
Loss	-12644
Year	-12645
acco	-12646
azar	-12647
bass	-12648
eler	-12649
ereo	-12650
flux	-12651
holm	-12652
icia	-12653
ilia	-12654
imer	-12655
iton	-12656
obil	-12657
oble	-12658
ogly	-12659
oles	-12660
quet	-12661
rand	-12662
ules	-12663
untu	-12664
▁155	-12665
▁177	-12666
▁179	-12667
▁225	-12668
▁3-1	-12669
▁3.4	-12670
▁4-4	-12671
▁508	-12672
▁6.3	-12673
▁65?	-12674
▁695	-12675
▁716	-12676
▁74,	-12677
▁77,	-12678
▁8.3	-12679
▁832	-12680
▁Bog	-12681
▁CHE	-12682
▁Dom	-12683
▁Fab	-12684
▁GPU	-12685
▁Gab	-12686
▁Ign	-12687
▁MED	-12688
▁MKE	-12689
▁Mak	-12690
▁Vot	-12691
▁Wen	-12692
▁cmp	-12693
▁dub	-12694
▁erp	-12695
▁hat	-12696
▁kwh	-12697
▁lay	-12698
▁leb	-12699
▁mph	-12700
▁oph	-12701
▁sak	-12702
▁sdh	-12703
▁vil	-12704
-2000	-12705
/2102	-12706
Issue	-12707
Simon	-12708
ancel	-12709
backs	-12710
berts	-12711
carlo	-12712
dates	-12713
hovah	-12714
igner	-12715
iling	-12716
irmed	-12717
itoba	-12718
iving	-12719
izing	-12720
orian	-12721
ounge	-12722
speed	-12723
union	-12724
▁(7)?	-12725
▁1114	-12726
▁1935	-12727
▁2017	-12728
▁2089	-12729
▁2187	-12730
▁2190	-12731
▁2194	-12732
▁4:00	-12733
▁Anne	-12734
▁Cook	-12735
▁HOME	-12736
▁Hans	-12737
▁Ivan	-12738
▁Jane	-12739
▁Liga	-12740
▁Phys	-12741
▁Ring	-12742
▁Sept	-12743
▁WEST	-12744
▁airs	-12745
▁bris	-12746
▁dill	-12747
▁fals	-12748
▁ferr	-12749
▁horm	-12750
▁jump	-12751
▁moon	-12752
▁narc	-12753
▁rams	-12754
▁sang	-12755
▁unde	-12756
▁vssl	-12757
▁wkts	-12758
-69-70	-12759
Female	-12760
allara	-12761
aparin	-12762
arsing	-12763
atelet	-12764
atures	-12765
bishop	-12766
brough	-12767
coming	-12768
cortis	-12769
earson	-12770
ramine	-12771
rexham	-12772
▁10-11	-12773
▁12/30	-12774
▁14671	-12775
▁1981,	-12776
▁1983,	-12777
▁1991,	-12778
▁2000.	-12779
▁2107?	-12780
▁2155?	-12781
▁2168?	-12782
▁52898	-12783
▁92788	-12784
▁About	-12785
▁Bring	-12786
▁Finds	-12787
▁Human	-12788
▁Judge	-12789
▁Santa	-12790
▁Singh	-12791
▁marco	-12792
▁plane	-12793
▁sloan	-12794
▁spart	-12795
▁tsicu	-12796
▁tweet	-12797
▁wings	-12798
▁youth	-12799
current	-12800
hampton	-12801
iciency	-12802
osporin	-12803
reation	-12804
utenant	-12805
▁Amount	-12806
▁Assemb	-12807
▁Capita	-12808
▁Libert	-12809
▁Lounge	-12810
▁Murphy	-12811
▁Opened	-12812
▁Palace	-12813
▁RENTAL	-12814
▁Rogers	-12815
▁athens	-12816
▁bullet	-12817
▁combin	-12818
▁demand	-12819
▁hernia	-12820
▁lavage	-12821
▁madrid	-12822
▁oppose	-12823
▁panama	-12824
▁pounds	-12825
▁ration	-12826
▁reflux	-12827
▁rookie	-12828
▁stefan	-12829
▁travis	-12830
▁006-157	-12831
▁007-165	-12832
▁007-849	-12833
▁Account	-12834
▁Credits	-12835
▁Express	-12836
▁Francis	-12837
▁Gregory	-12838
▁Lincoln	-12839
▁Russell	-12840
▁Ukraine	-12841
▁Website	-12842
▁Without	-12843
▁austria	-12844
▁balloon	-12845
▁belgium	-12846
▁decimal	-12847
▁default	-12848
▁involve	-12849
▁lincoln	-12850
▁methylp	-12851
▁plastic	-12852
▁reverse	-12853
▁skating	-12854
▁starred	-12855
▁storage	-12856
▁weightl	-12857
cortisone	-12858
quisition	-12859
▁Activity	-12860
▁Hartford	-12861
▁Standard	-12862
▁certific	-12863
▁delirium	-12864
▁directly	-12865
▁entering	-12866
▁identity	-12867
▁medalist	-12868
▁northern	-12869
▁physical	-12870
▁playlist	-12871
▁santiago	-12872
▁stopping	-12873
▁thousand	-12874
▁tropical	-12875
▁troponin	-12876
▁ureteral	-12877
▁valvular	-12878
▁vertical	-12879
▁winnipeg	-12880
dlesbrough	-12881
ensitivity	-12882
▁015-23047	-12883
▁016-18575	-12884
▁Moorabbin	-12885
▁Southeast	-12886
▁baseprice	-12887
▁commander	-12888
▁commenced	-12889
▁developed	-12890
▁gestation	-12891
▁occlusion	-12892
▁penalties	-12893
▁recording	-12894
▁reduction	-12895
▁residence	-12896
▁something	-12897
▁technical	-12898
▁traumatic	-12899
▁022-187132	-12900
▁Instructor	-12901
▁acceptance	-12902
▁birthplace	-12903
▁difficulty	-12904
▁enoxaparin	-12905
▁monitoring	-12906
▁Established	-12907
▁broadcasted	-12908
▁cardiogenic	-12909
▁gastroenter	-12910
▁individuals	-12911
▁interaction	-12912
▁malnutrition	-12913
▁misadventure	-12914
▁pancreatitis	-12915
▁consciousness	-12916
▁thoracentesis	-12917
LM	-12918
LP	-12919
mc	-12920
wy	-12921
-63	-12922
.86	-12923
05?	-12924
119	-12925
122	-12926
159	-12927
176	-12928
3'?	-12929
38?	-12930
51?	-12931
62?	-12932
800	-12933
:15	-12934
Can	-12935
NAM	-12936
OSS	-12937
afe	-12938
aii	-12939
ede	-12940
igo	-12941
iya	-12942
jhl	-12943
kar	-12944
khz	-12945
mas	-12946
oko	-12947
ono	-12948
orb	-12949
oux	-12950
rip	-12951
tor	-12952
war	-12953
xon	-12954
▁'+	-12955
▁+0	-12956
▁AM	-12957
▁BK	-12958
▁BW	-12959
▁Ko	-12960
▁ib	-12961
▁il	-12962
▁kb	-12963
▁pp	-12964
▁tt	-12965
▁ye	-12966
1182	-12967
5328	-12968
7098	-12969
SPAR	-12970
Span	-12971
amas	-12972
atta	-12973
avia	-12974
dest	-12975
fare	-12976
ilar	-12977
mans	-12978
mund	-12979
ocus	-12980
ohan	-12981
oned	-12982
redo	-12983
that	-12984
ugen	-12985
vell	-12986
ylen	-12987
▁(32	-12988
▁)'?	-12989
▁1'?	-12990
▁131	-12991
▁156	-12992
▁162	-12993
▁19'	-12994
▁2%?	-12995
▁24:	-12996
▁457	-12997
▁5.4	-12998
▁533	-12999
▁6.6	-13000
▁67,	-13001
▁7.7	-13002
▁72,	-13003
▁747	-13004
▁93,	-13005
▁93?	-13006
▁AFC	-13007
▁BIO	-13008
▁BMW	-13009
▁Ban	-13010
▁DES	-13011
▁Din	-13012
▁Doc	-13013
▁ESP	-13014
▁Emm	-13015
▁Fed	-13016
▁Han	-13017
▁Leb	-13018
▁McD	-13019
▁McM	-13020
▁Mcc	-13021
▁Nam	-13022
▁ONT	-13023
▁Rud	-13024
▁TKO	-13025
▁Tab	-13026
▁Tao	-13027
▁bac	-13028
▁eps	-13029
▁etc	-13030
▁fum	-13031
▁hgb	-13032
▁hit	-13033
▁pga	-13034
▁ufc	-13035
▁wta	-13036
Score	-13037
Total	-13038
agner	-13039
aming	-13040
aorto	-13041
ateur	-13042
chair	-13043
conds	-13044
cript	-13045
eders	-13046
heart	-13047
inity	-13048
irect	-13049
ommel	-13050
optic	-13051
ourse	-13052
pathy	-13053
romor	-13054
stick	-13055
unist	-13056
▁(8)?	-13057
▁108?	-13058
▁2164	-13059
▁2195	-13060
▁2628	-13061
▁31?,	-13062
▁3:00	-13063
▁5-1?	-13064
▁Crew	-13065
▁Dale	-13066
▁Jury	-13067
▁Kirk	-13068
▁Larg	-13069
▁Mans	-13070
▁Nich	-13071
▁OVER	-13072
▁Pand	-13073
▁Past	-13074
▁Pete	-13075
▁Reid	-13076
▁SEDE	-13077
▁Size	-13078
▁Ties	-13079
▁Todd	-13080
▁VIII	-13081
▁WEEK	-13082
▁balt	-13083
▁barb	-13084
▁bids	-13085
▁celo	-13086
▁derm	-13087
▁dong	-13088
▁doug	-13089
▁firm	-13090
▁iata	-13091
▁iowa	-13092
▁knee	-13093
▁kurt	-13094
▁medi	-13095
▁subj	-13096
-68=13	-13097
-68=14	-13098
-68=27	-13099
-70-72	-13100
-73=14	-13101
Bootup	-13102
URSDAY	-13103
africa	-13104
aptors	-13105
athlon	-13106
ayette	-13107
endale	-13108
engine	-13109
enshaw	-13110
eroids	-13111
istory	-13112
mitral	-13113
opkins	-13114
ovelty	-13115
ranked	-13116
▁17667	-13117
▁1926?	-13118
▁1941?	-13119
▁1966,	-13120
▁2148?	-13121
▁3000,	-13122
▁Balls	-13123
▁Bryan	-13124
▁Damon	-13125
▁Graph	-13126
▁Hindi	-13127
▁Laura	-13128
▁Premi	-13129
▁Prime	-13130
▁Ralph	-13131
▁Robin	-13132
▁Romeo	-13133
▁Scala	-13134
▁Vegas	-13135
▁Villa	-13136
▁casey	-13137
▁crnry	-13138
▁czech	-13139
▁danny	-13140
▁detox	-13141
▁false	-13142
▁fired	-13143
▁happy	-13144
▁penic	-13145
▁phill	-13146
▁shutt	-13147
▁takes	-13148
▁tight	-13149
▁wells	-13150
Spanish	-13151
acillin	-13152
anetics	-13153
arrison	-13154
assemia	-13155
ecticut	-13156
icester	-13157
ickness	-13158
loxacin	-13159
nerback	-13160
punches	-13161
▁006-14	-13162
▁017-20	-13163
▁021-80	-13164
▁031-23	-13165
▁94107,	-13166
▁COSPAR	-13167
▁Compar	-13168
▁Family	-13169
▁Gender	-13170
▁Indoor	-13171
▁Latest	-13172
▁Marcus	-13173
▁Middle	-13174
▁Nordic	-13175
▁Temple	-13176
▁agents	-13177
▁emails	-13178
▁forest	-13179
▁formed	-13180
▁galaxy	-13181
▁handle	-13182
▁ingest	-13183
▁metals	-13184
▁option	-13185
▁patent	-13186
▁prison	-13187
▁saints	-13188
▁timest	-13189
asmussen	-13190
bassador	-13191
nderland	-13192
question	-13193
romancer	-13194
vastatin	-13195
▁030-534	-13196
▁Alianza	-13197
▁Belgian	-13198
▁Blazers	-13199
▁Brabham	-13200
▁Chelsea	-13201
▁Chennai	-13202
▁Collins	-13203
▁Firefox	-13204
▁Ontario	-13205
▁Renault	-13206
▁Shooter	-13207
▁Special	-13208
▁Swedish	-13209
▁advance	-13210
▁belarus	-13211
▁consort	-13212
▁counted	-13213
▁induced	-13214
▁jacques	-13215
▁opinion	-13216
▁orlando	-13217
▁polyuns	-13218
▁porsche	-13219
▁reflect	-13220
▁roberts	-13221
▁shorter	-13222
▁wedding	-13223
clination	-13224
hydramine	-13225
unanimous	-13226
▁02/2105?	-13227
▁2004-05?	-13228
▁Ceremony	-13229
▁Elevated	-13230
▁Fernando	-13231
▁Festival	-13232
▁Lawrence	-13233
▁Robinson	-13234
▁THURSDAY	-13235
▁Visiting	-13236
▁Winnipeg	-13237
▁assembly	-13238
▁auckland	-13239
▁departed	-13240
▁distress	-13241
▁graduate	-13242
▁hydromor	-13243
▁intermed	-13244
▁malaysia	-13245
▁ointment	-13246
▁parallel	-13247
▁promoted	-13248
▁rejected	-13249
▁relative	-13250
▁romanian	-13251
▁sanskrit	-13252
▁senators	-13253
▁sideline	-13254
▁sponsors	-13255
▁urgently	-13256
allesteros	-13257
attendance	-13258
▁004-86136	-13259
▁016-18150	-13260
▁027-85328	-13261
▁Taoiseach	-13262
▁followers	-13263
▁headphone	-13264
▁immediate	-13265
▁kilometer	-13266
▁ventricle	-13267
▁Birthplace	-13268
▁cincinnati	-13269
▁prefecture	-13270
▁substances	-13271
▁tacrolimus	-13272
▁treatments	-13273
▁Connecticut	-13274
▁Independent	-13275
▁Inhabitants	-13276
▁Philippines	-13277
▁antibiotics	-13278
▁approximate	-13279
▁communities	-13280
▁differences	-13281
▁educational	-13282
▁frequencies	-13283
▁insensitive	-13284
▁subjunctive	-13285
▁termination	-13286
▁transmitter	-13287
▁affiliations	-13288
▁availability	-13289
▁hyponatremia	-13290
▁indianapolis	-13291
▁presentation	-13292
▁quarterfinal	-13293
▁hydromorphone	-13294
▁detoxification	-13295
▁hydrocortisone	-13296
▁polyunsaturated	-13297
3%	-13298
AB	-13299
An	-13300
KA	-13301
SR	-13302
Se	-13303
rr	-13304
zh	-13305
-93	-13306
-94	-13307
/14	-13308
/15	-13309
001	-13310
005	-13311
338	-13312
39?	-13313
676	-13314
709	-13315
986	-13316
99,	-13317
99?	-13318
Cle	-13319
Jer	-13320
NYY	-13321
TML	-13322
TRE	-13323
esa	-13324
gur	-13325
imm	-13326
nar	-13327
ouc	-13328
pol	-13329
rec	-13330
rhg	-13331
sub	-13332
uty	-13333
vit	-13334
▁+4	-13335
▁Ca	-13336
▁DB	-13337
▁GN	-13338
▁Il	-13339
▁MK	-13340
▁Na	-13341
▁PS	-13342
▁PU	-13343
▁RB	-13344
▁SI	-13345
▁ax	-13346
▁eu	-13347
▁ti	-13348
-31?	-13349
4744	-13350
FORM	-13351
GAIN	-13352
Good	-13353
MBER	-13354
OSCI	-13355
aldo	-13356
alog	-13357
aman	-13358
aves	-13359
cell	-13360
elli	-13361
este	-13362
hosp	-13363
iler	-13364
inte	-13365
irit	-13366
itsu	-13367
ivia	-13368
jana	-13369
most	-13370
only	-13371
onte	-13372
ophe	-13373
uilt	-13374
user	-13375
ylan	-13376
zhou	-13377
zone	-13378
▁(71	-13379
▁(99	-13380
▁...	-13381
▁154	-13382
▁236	-13383
▁238	-13384
▁308	-13385
▁316	-13386
▁320	-13387
▁515	-13388
▁516	-13389
▁727	-13390
▁736	-13391
▁750	-13392
▁Apr	-13393
▁Ask	-13394
▁BRE	-13395
▁Cam	-13396
▁Cas	-13397
▁Cob	-13398
▁Ing	-13399
▁Job	-13400
▁MON	-13401
▁Tal	-13402
▁dor	-13403
▁fit	-13404
▁lyn	-13405
▁rus	-13406
▁sdv	-13407
▁sin	-13408
▁thy	-13409
▁uns	-13410
▁voc	-13411
▁von	-13412
-01-0	-13413
Peter	-13414
TMENT	-13415
actam	-13416
ammat	-13417
illes	-13418
iopul	-13419
ively	-13420
names	-13421
olski	-13422
otrop	-13423
there	-13424
years	-13425
▁(4)?	-13426
▁0.00	-13427
▁1926	-13428
▁1:30	-13429
▁2-4?	-13430
▁2137	-13431
▁2162	-13432
▁2518	-13433
▁300?	-13434
▁5-0?	-13435
▁Drew	-13436
▁LNER	-13437
▁Lanc	-13438
▁Mort	-13439
▁NAME	-13440
▁Self	-13441
▁bact	-13442
▁bats	-13443
▁cham	-13444
▁dean	-13445
▁exit	-13446
▁fair	-13447
▁infr	-13448
▁marc	-13449
▁navy	-13450
▁node	-13451
▁norm	-13452
▁pair	-13453
▁pump	-13454
▁repe	-13455
▁sell	-13456
▁sher	-13457
▁tari	-13458
▁true	-13459
▁twin	-13460
-16041	-13461
Canada	-13462
GAINST	-13463
aysian	-13464
essica	-13465
esting	-13466
hattan	-13467
hausen	-13468
ielder	-13469
incent	-13470
ittler	-13471
onitis	-13472
otspur	-13473
oulder	-13474
ounded	-13475
wealth	-13476
▁010-2	-13477
▁022-8	-13478
▁12927	-13479
▁1982,	-13480
▁1984,	-13481
▁2018.	-13482
▁2100.	-13483
▁25733	-13484
▁Blank	-13485
▁Chart	-13486
▁Colin	-13487
▁Crude	-13488
▁Dixon	-13489
▁Grant	-13490
▁Greek	-13491
▁Lucas	-13492
▁Skeet	-13493
▁aaron	-13494
▁allen	-13495
▁amiod	-13496
▁aorta	-13497
▁balls	-13498
▁betty	-13499
▁blues	-13500
▁eagle	-13501
▁endow	-13502
▁heats	-13503
▁infra	-13504
▁ophth	-13505
▁quick	-13506
▁rapid	-13507
▁rosen	-13508
▁senna	-13509
▁singh	-13510
▁thank	-13511
▁tommy	-13512
▁yield	-13513
drivers	-13514
eluting	-13515
inburgh	-13516
letions	-13517
nominal	-13518
ocation	-13519
onazole	-13520
▁(2011)	-13521
▁Anders	-13522
▁Brooks	-13523
▁Hangul	-13524
▁Murray	-13525
▁Others	-13526
▁Polish	-13527
▁Sabres	-13528
▁Trends	-13529
▁Turner	-13530
▁Vander	-13531
▁asking	-13532
▁avenue	-13533
▁battle	-13534
▁coagul	-13535
▁config	-13536
▁doctor	-13537
▁harris	-13538
▁histor	-13539
▁mccain	-13540
▁oregon	-13541
▁perman	-13542
▁rental	-13543
▁saving	-13544
▁staffs	-13545
▁vacant	-13546
ammatory	-13547
atabases	-13548
reasurer	-13549
vessicle	-13550
▁015-595	-13551
▁025-286	-13552
▁027-823	-13553
▁2006-07	-13554
▁AGAINST	-13555
▁Chester	-13556
▁Mintage	-13557
▁Nominee	-13558
▁Profess	-13559
▁Romania	-13560
▁Senator	-13561
▁Trevino	-13562
▁Upvotes	-13563
▁Wallace	-13564
▁gravity	-13565
▁hypogly	-13566
▁jehovah	-13567
▁lessons	-13568
▁lorenzo	-13569
▁matchup	-13570
▁posting	-13571
▁samples	-13572
▁science	-13573
▁staphyl	-13574
▁usually	-13575
cromancer	-13576
operative	-13577
umulative	-13578
▁005-4471	-13579
▁006-4757	-13580
▁031-1337	-13581
▁Airlines	-13582
▁Ballarat	-13583
▁Columbus	-13584
▁Combined	-13585
▁Feedback	-13586
▁Governor	-13587
▁Panthers	-13588
▁brisbane	-13589
▁finisher	-13590
▁kardinia	-13591
▁lifespan	-13592
▁michelle	-13593
▁parishes	-13594
▁robinson	-13595
▁speedway	-13596
▁spelling	-13597
▁steelers	-13598
▁workload	-13599
amethasone	-13600
▁006-17227	-13601
▁007-16517	-13602
▁017-16041	-13603
▁017-20711	-13604
▁017-88691	-13605
▁Billboard	-13606
▁Blackpool	-13607
▁Developer	-13608
▁cardiopul	-13609
▁complaint	-13610
▁playlists	-13611
▁rheumatic	-13612
oreographer	-13613
▁amiodarone	-13614
▁expectancy	-13615
▁immigrants	-13616
▁persistent	-13617
▁Institution	-13618
▁hypothyroid	-13619
▁immediately	-13620
▁Conservative	-13621
▁concentrated	-13622
▁neurological	-13623
▁representing	-13624
▁resuscitation	-13625
▁municipalities	-13626
0.	-13627
HC	-13628
JS	-13629
ML	-13630
dh	-13631
dt	-13632
lu	-13633
pb	-13634
ti	-13635
wr	-13636
-39	-13637
.08	-13638
.50	-13639
1'?	-13640
116	-13641
245	-13642
299	-13643
454	-13644
462	-13645
8'?	-13646
801	-13647
9'?	-13648
961	-13649
Col	-13650
Day	-13651
EDN	-13652
New	-13653
bus	-13654
fib	-13655
icc	-13656
imp	-13657
new	-13658
nia	-13659
oka	-13660
orp	-13661
pei	-13662
pop	-13663
reb	-13664
ulu	-13665
vol	-13666
yne	-13667
▁#,	-13668
▁+8	-13669
▁-2	-13670
▁7(	-13671
▁Bh	-13672
▁DC	-13673
▁DE	-13674
▁DW	-13675
▁Ek	-13676
▁Fa	-13677
▁Ja	-13678
▁MF	-13679
▁MU	-13680
▁NT	-13681
▁OT	-13682
▁Ru	-13683
▁WN	-13684
▁ck	-13685
▁db	-13686
▁kW	-13687
▁mn	-13688
▁nb	-13689
▁yr	-13690
-7)?	-13691
.0%?	-13692
.00?	-13693
.16?	-13694
.25?	-13695
/01?	-13696
400?	-13697
ARCH	-13698
ARIO	-13699
ATUR	-13700
Aust	-13701
Died	-13702
Laps	-13703
Open	-13704
adol	-13705
agin	-13706
ahal	-13707
alez	-13708
aran	-13709
cial	-13710
dart	-13711
dell	-13712
hart	-13713
iary	-13714
inch	-13715
ioid	-13716
ishi	-13717
izer	-13718
leen	-13719
math	-13720
olle	-13721
onna	-13722
onne	-13723
ouns	-13724
oved	-13725
rese	-13726
riel	-13727
unga	-13728
▁0-2	-13729
▁165	-13730
▁169	-13731
▁172	-13732
▁2-3	-13733
▁249	-13734
▁301	-13735
▁328	-13736
▁414	-13737
▁450	-13738
▁4:0	-13739
▁54.	-13740
▁619	-13741
▁734	-13742
▁928	-13743
▁94.	-13744
▁968	-13745
▁99?	-13746
▁Ayr	-13747
▁Bun	-13748
▁CPU	-13749
▁Hur	-13750
▁ITV	-13751
▁Kas	-13752
▁Kle	-13753
▁LGA	-13754
▁Lav	-13755
▁MAT	-13756
▁MLB	-13757
▁NOT	-13758
▁POL	-13759
▁Raj	-13760
▁Sox	-13761
▁Ton	-13762
▁Toy	-13763
▁atp	-13764
▁bah	-13765
▁ccu	-13766
▁chf	-13767
▁dip	-13768
▁fis	-13769
▁fle	-13770
▁fus	-13771
▁god	-13772
▁hey	-13773
▁ipr	-13774
▁ivf	-13775
▁jur	-13776
▁kal	-13777
▁kot	-13778
▁mol	-13779
▁mom	-13780
▁mun	-13781
▁ned	-13782
▁ngc	-13783
▁nss	-13784
▁ops	-13785
▁vte	-13786
-1927	-13787
=212?	-13788
April	-13789
acram	-13790
agnes	-13791
alers	-13792
alore	-13793
arest	-13794
combe	-13795
eston	-13796
grams	-13797
inger	-13798
inner	-13799
legia	-13800
ricia	-13801
uania	-13802
untas	-13803
venth	-13804
where	-13805
yrkje	-13806
▁(3)?	-13807
▁+1:0	-13808
▁2173	-13809
▁2198	-13810
▁2554	-13811
▁2954	-13812
▁3216	-13813
▁500?	-13814
▁6:00	-13815
▁ANTH	-13816
▁Asia	-13817
▁Bats	-13818
▁COMP	-13819
▁Chil	-13820
▁GAME	-13821
▁Hend	-13822
▁Hero	-13823
▁LIKE	-13824
▁Lind	-13825
▁Mack	-13826
▁Pist	-13827
▁Prob	-13828
▁Save	-13829
▁Shah	-13830
▁Sher	-13831
▁Text	-13832
▁Virt	-13833
▁WEDN	-13834
▁Wars	-13835
▁cord	-13836
▁demo	-13837
▁eric	-13838
▁hull	-13839
▁josh	-13840
▁keto	-13841
▁mick	-13842
▁paco	-13843
▁succ	-13844
▁tric	-13845
▁vice	-13846
-68=20	-13847
-70=13	-13848
-74=28	-13849
/2009?	-13850
anghai	-13851
artney	-13852
center	-13853
chanan	-13854
ective	-13855
indsay	-13856
inners	-13857
isting	-13858
izards	-13859
repair	-13860
riders	-13861
terior	-13862
thorac	-13863
uation	-13864
▁(11)?	-13865
▁(18-4	-13866
▁(77)?	-13867
▁0-6-0	-13868
▁012-4	-13869
▁1000,	-13870
▁1932?	-13871
▁1935?	-13872
▁1972,	-13873
▁2158?	-13874
▁2197?	-13875
▁2200?	-13876
▁27-29	-13877
▁55360	-13878
▁5:00?	-13879
▁Casey	-13880
▁Corio	-13881
▁Hanja	-13882
▁Horse	-13883
▁Jiang	-13884
▁Karen	-13885
▁Links	-13886
▁Marco	-13887
▁Opera	-13888
▁Paper	-13889
▁Pitch	-13890
▁Spike	-13891
▁Storm	-13892
▁Tally	-13893
▁There	-13894
▁amend	-13895
▁apert	-13896
▁assum	-13897
▁bring	-13898
▁eight	-13899
▁gives	-13900
▁harry	-13901
▁irwin	-13902
▁jamie	-13903
▁lisin	-13904
▁marsh	-13905
▁nasog	-13906
▁parox	-13907
▁pratt	-13908
▁quant	-13909
▁releg	-13910
▁rhyth	-13911
▁sleep	-13912
▁spell	-13913
▁swing	-13914
▁toxic	-13915
▁umbil	-13916
aminase	-13917
ibility	-13918
ireless	-13919
ladimir	-13920
missals	-13921
ossible	-13922
partial	-13923
ricanes	-13924
▁004-13	-13925
▁005-48	-13926
▁Assist	-13927
▁Bangla	-13928
▁Curtis	-13929
▁Hughes	-13930
▁Madrid	-13931
▁Puerto	-13932
▁Ravens	-13933
▁Starts	-13934
▁Throws	-13935
▁Titans	-13936
▁Travis	-13937
▁Warren	-13938
▁Weekly	-13939
▁Willis	-13940
▁agency	-13941
▁barony	-13942
▁brooks	-13943
▁bucket	-13944
▁exited	-13945
▁morgan	-13946
▁opioid	-13947
▁papill	-13948
▁pieces	-13949
▁pixels	-13950
▁plants	-13951
▁skills	-13952
▁slalom	-13953
▁trends	-13954
▁usable	-13955
▁walker	-13956
ambridge	-13957
isations	-13958
issioned	-13959
neonatal	-13960
ungarian	-13961
▁031-154	-13962
▁2011-12	-13963
▁Academy	-13964
▁Aprilia	-13965
▁Brewers	-13966
▁Emerson	-13967
▁Example	-13968
▁Feature	-13969
▁Getting	-13970
▁Mclaren	-13971
▁Minardi	-13972
▁ONTARIO	-13973
▁OVERALL	-13974
▁Parsing	-13975
▁Partial	-13976
▁Phillip	-13977
▁Revival	-13978
▁catches	-13979
▁duchess	-13980
▁husband	-13981
▁illness	-13982
▁infants	-13983
▁outside	-13984
▁stanley	-13985
▁strongs	-13986
▁tobacco	-13987
▁wallace	-13988
▁weighed	-13989
ancelable	-13990
breviated	-13991
ortsmouth	-13992
▁002-4115	-13993
▁025-1927	-13994
▁06/2105?	-13995
▁Apparent	-13996
▁Elevator	-13997
▁Favorite	-13998
▁Launched	-13999
▁Michelle	-14000
▁Pictures	-14001
▁Producer	-14002
▁argument	-14003
▁buchanan	-14004
▁citation	-14005
▁collapse	-14006
▁datasets	-14007
▁feedback	-14008
▁inducted	-14009
▁prostate	-14010
▁proteins	-14011
▁railroad	-14012
▁weekdays	-14013
andlestick	-14014
oughriders	-14015
▁002-34744	-14016
▁013-38992	-14017
▁015-59552	-14018
▁030-53416	-14019
▁031-19622	-14020
▁Answerers	-14021
▁Bulgarian	-14022
▁Hampshire	-14023
▁Mavericks	-14024
▁Robertson	-14025
▁WEDNESDAY	-14026
▁analgesic	-14027
▁baltimore	-14028
▁colostomy	-14029
▁contained	-14030
▁financial	-14031
▁formation	-14032
▁increased	-14033
▁interface	-14034
▁mandatory	-14035
▁sheffield	-14036
▁substance	-14037
▁thyroxine	-14038
▁undecided	-14039
▁Identifier	-14040
▁Industrial	-14041
▁Passengers	-14042
▁Qualifying	-14043
▁Queensland	-14044
▁clinically	-14045
▁cornerback	-14046
▁developers	-14047
▁dismissals	-14048
▁foundation	-14049
▁lisinopril	-14050
▁popularity	-14051
▁propulsion	-14052
▁unilateral	-14053
▁Appearances	-14054
▁Translation	-14055
▁allergytype	-14056
▁angiography	-14057
▁broadcaster	-14058
▁callanetics	-14059
▁ipratropium	-14060
▁motorsports	-14061
▁nasogastric	-14062
▁neutrophils	-14063
thoracoscopic	-14064
▁inauguration	-14065
▁neighborhood	-14066
▁regionalliga	-14067
▁temperatures	-14068
▁tracheostomy	-14069
▁Cardinalatial	-14070
▁Semifinalists	-14071
▁organisations	-14072
▁unabbreviated	-14073
▁bronchodilator	-14074
▁hypothyroidism	-14075
▁staphylococcus	-14076
##	-14077
)(	-14078
2%	-14079
DR	-14080
FR	-14081
In	-14082
UM	-14083
fs	-14084
rl	-14085
yt	-14086
-0,	-14087
.29	-14088
.36	-14089
/13	-14090
121	-14091
13,	-14092
149	-14093
21.	-14094
210	-14095
216	-14096
248	-14097
307	-14098
365	-14099
368	-14100
37?	-14101
70?	-14102
750	-14103
809	-14104
AKF	-14105
For	-14106
IME	-14107
IMO	-14108
INA	-14109
NIA	-14110
Pro	-14111
Teq	-14112
aba	-14113
bel	-14114
cap	-14115
cca	-14116
cho	-14117
edu	-14118
ifa	-14119
iko	-14120
jin	-14121
kyo	-14122
num	-14123
opy	-14124
sec	-14125
uko	-14126
yon	-14127
▁3.	-14128
▁6.	-14129
▁DR	-14130
▁EC	-14131
▁Et	-14132
▁PP	-14133
▁Ta	-14134
▁Vi	-14135
▁ay	-14136
▁bb	-14137
▁cb	-14138
▁ek	-14139
▁jp	-14140
▁ll	-14141
▁nm	-14142
▁rk	-14143
▁vi	-14144
-912	-14145
.14?	-14146
.200	-14147
.5%?	-14148
.9%?	-14149
000.	-14150
6456	-14151
7397	-14152
Jask	-14153
Lang	-14154
User	-14155
Viol	-14156
aden	-14157
agic	-14158
aken	-14159
alla	-14160
amet	-14161
asis	-14162
enko	-14163
erus	-14164
eyer	-14165
ging	-14166
idin	-14167
ieve	-14168
ilyn	-14169
into	-14170
itle	-14171
leng	-14172
mics	-14173
okia	-14174
orax	-14175
otia	-14176
ovan	-14177
pons	-14178
quid	-14179
radu	-14180
rike	-14181
rupt	-14182
umat	-14183
uras	-14184
▁(22	-14185
▁(55	-14186
▁(67	-14187
▁12:	-14188
▁134	-14189
▁181	-14190
▁229	-14191
▁281	-14192
▁331	-14193
▁353	-14194
▁370	-14195
▁4-6	-14196
▁416	-14197
▁425	-14198
▁490	-14199
▁501	-14200
▁555	-14201
▁588	-14202
▁59,	-14203
▁6.9	-14204
▁656	-14205
▁84?	-14206
▁915	-14207
▁947	-14208
▁Asc	-14209
▁DID	-14210
▁Fem	-14211
▁Fer	-14212
▁Kal	-14213
▁Led	-14214
▁Lok	-14215
▁Ott	-14216
▁Por	-14217
▁Tol	-14218
▁Tot	-14219
▁USC	-14220
▁XII	-14221
▁ade	-14222
▁bod	-14223
▁cbs	-14224
▁cmi	-14225
▁dun	-14226
▁fab	-14227
▁gel	-14228
▁hew	-14229
▁him	-14230
▁ing	-14231
▁itv	-14232
▁nav	-14233
▁sri	-14234
▁sug	-14235
▁tam	-14236
▁tar	-14237
Heilo	-14238
Sigma	-14239
aired	-14240
angio	-14241
atase	-14242
eland	-14243
endan	-14244
erala	-14245
icker	-14246
iders	-14247
issue	-14248
maker	-14249
oglob	-14250
onian	-14251
osaur	-14252
ovole	-14253
renal	-14254
rosse	-14255
urdue	-14256
ussia	-14257
ustin	-14258
ylate	-14259
▁(5)?	-14260
▁0-0?	-14261
▁101?	-14262
▁105?	-14263
▁1759	-14264
▁1882	-14265
▁1929	-14266
▁1937	-14267
▁2-3?	-14268
▁2124	-14269
▁3-3?	-14270
▁4-3?	-14271
▁Ages	-14272
▁CALI	-14273
▁Cass	-14274
▁Cups	-14275
▁Educ	-14276
▁Laid	-14277
▁Luca	-14278
▁Luis	-14279
▁Merc	-14280
▁Mids	-14281
▁Prop	-14282
▁Stev	-14283
▁Tack	-14284
▁Wolf	-14285
▁anom	-14286
▁carr	-14287
▁cort	-14288
▁dame	-14289
▁desp	-14290
▁fumb	-14291
▁kent	-14292
▁kill	-14293
▁merg	-14294
▁mind	-14295
▁myst	-14296
▁narr	-14297
▁oddi	-14298
▁pist	-14299
▁pool	-14300
▁rent	-14301
▁shar	-14302
▁shin	-14303
▁situ	-14304
▁ster	-14305
▁talk	-14306
▁tamp	-14307
▁tott	-14308
▁wear	-14309
/02/19	-14310
AKFAST	-14311
FORNIA	-14312
Option	-14313
Spring	-14314
athina	-14315
ayalam	-14316
hipman	-14317
illiam	-14318
inidad	-14319
itical	-14320
osters	-14321
points	-14322
ricity	-14323
uggets	-14324
ulties	-14325
ulture	-14326
usions	-14327
▁005-1	-14328
▁011-3	-14329
▁028-2	-14330
▁19412	-14331
▁1990,	-14332
▁1995,	-14333
▁1996,	-14334
▁1997,	-14335
▁2017?	-14336
▁2076?	-14337
▁2173?	-14338
▁2182?	-14339
▁57050	-14340
▁Armen	-14341
▁Britt	-14342
▁Chand	-14343
▁Child	-14344
▁Derek	-14345
▁Harry	-14346
▁Lanka	-14347
▁Stone	-14348
▁Vijay	-14349
▁apnea	-14350
▁brook	-14351
▁chair	-14352
▁cream	-14353
▁fresh	-14354
▁glass	-14355
▁holes	-14356
▁linda	-14357
▁lists	-14358
▁logon	-14359
▁maple	-14360
▁mayor	-14361
▁meals	-14362
▁notre	-14363
▁patch	-14364
▁prost	-14365
▁verte	-14366
▁veter	-14367
CHESTER	-14368
Langosh	-14369
Meaghan	-14370
bastian	-14371
deleted	-14372
episode	-14373
igation	-14374
lington	-14375
olished	-14376
reshold	-14377
ributed	-14378
▁(2012)	-14379
▁032-24	-14380
▁Associ	-14381
▁Bounty	-14382
▁COUNTY	-14383
▁Common	-14384
▁Jeremy	-14385
▁Miguel	-14386
▁Newton	-14387
▁Papers	-14388
▁Toyota	-14389
▁action	-14390
▁announ	-14391
▁anyone	-14392
▁arthur	-14393
▁cephal	-14394
▁clarke	-14395
▁enzyme	-14396
▁farmer	-14397
▁faster	-14398
▁fusion	-14399
▁impact	-14400
▁tariff	-14401
▁wonder	-14402
▁027-120	-14403
▁032-218	-14404
▁African	-14405
▁Alberta	-14406
▁Crystal	-14407
▁PERFORM	-14408
▁Package	-14409
▁Packers	-14410
▁Related	-14411
▁Student	-14412
▁archive	-14413
▁carried	-14414
▁carroll	-14415
▁command	-14416
▁crystal	-14417
▁formats	-14418
▁granted	-14419
▁grossed	-14420
▁hurdles	-14421
▁millise	-14422
▁olivier	-14423
▁premise	-14424
▁resting	-14425
▁russell	-14426
▁stevens	-14427
▁surname	-14428
▁tweeted	-14429
Jaskolski	-14430
Teqnology	-14431
acramento	-14432
▁002-4486	-14433
▁07/2105?	-14434
▁08/2104?	-14435
▁09/2105?	-14436
▁2002-200	-14437
▁Barangay	-14438
▁Mitchell	-14439
▁Particip	-14440
▁capitals	-14441
▁checkout	-14442
▁counting	-14443
▁equation	-14444
▁hypovole	-14445
▁syracuse	-14446
▁tracking	-14447
▁unstable	-14448
▁upstream	-14449
athinaikos	-14450
ertainment	-14451
▁005-46456	-14452
▁016-27397	-14453
▁BREAKFAST	-14454
▁Duplicate	-14455
▁Elizabeth	-14456
▁Political	-14457
▁accidents	-14458
▁alkalosis	-14459
▁cardinals	-14460
▁commented	-14461
▁decreased	-14462
▁endowment	-14463
▁entertain	-14464
▁extension	-14465
▁faculties	-14466
▁frederick	-14467
▁nicknames	-14468
▁potential	-14469
▁producing	-14470
▁qualifier	-14471
▁radiother	-14472
▁timestamp	-14473
▁townships	-14474
▁umbilical	-14475
▁wanderers	-14476
▁006-157753	-14477
▁006-195316	-14478
▁CALIFORNIA	-14479
▁Commercial	-14480
▁Midshipman	-14481
▁additional	-14482
▁connecting	-14483
▁connection	-14484
▁investment	-14485
▁successful	-14486
▁Enterprises	-14487
▁WESTCHESTER	-14488
▁citizenship	-14489
▁colonoscopy	-14490
▁dbeingtrict	-14491
▁environment	-14492
▁extremities	-14493
▁quarterback	-14494
▁responsible	-14495
▁vaccination	-14496
▁Presentation	-14497
▁complicating	-14498
▁transaminase	-14499
▁Entertainment	-14500
▁cephalosporin	-14501
▁identifications	-14502
-?	-14503
7)	-14504
7/	-14505
:?	-14506
Bu	-14507
FF	-14508
MI	-14509
NC	-14510
VI	-14511
iw	-14512
qm	-14513
sg	-14514
xa	-14515
-59	-14516
.77	-14517
.81	-14518
.84	-14519
195	-14520
26,	-14521
262	-14522
423	-14523
965	-14524
Car	-14525
ISE	-14526
Ind	-14527
STD	-14528
STH	-14529
Tag	-14530
blo	-14531
ffy	-14532
gos	-14533
iab	-14534
ieu	-14535
ija	-14536
iva	-14537
lod	-14538
olm	-14539
oof	-14540
ook	-14541
sim	-14542
sor	-14543
uca	-14544
uum	-14545
▁%?	-14546
▁8:	-14547
▁Hu	-14548
▁Km	-14549
▁MJ	-14550
▁MV	-14551
▁NJ	-14552
▁NV	-14553
▁aj	-14554
▁ds	-14555
▁ff	-14556
▁mw	-14557
-02?	-14558
-25,	-14559
-29?	-14560
-4)?	-14561
-5)?	-14562
-6)?	-14563
-95?	-14564
-96?	-14565
.13?	-14566
.197	-14567
.40?	-14568
/02?	-14569
12.5	-14570
176?	-14571
4842	-14572
8060	-14573
9017	-14574
961?	-14575
Jerk	-14576
NDAY	-14577
OISE	-14578
TEND	-14579
acaf	-14580
alli	-14581
ambo	-14582
anco	-14583
andr	-14584
arrn	-14585
arts	-14586
arty	-14587
atty	-14588
borg	-14589
eara	-14590
etta	-14591
ieri	-14592
issa	-14593
oses	-14594
otte	-14595
oute	-14596
oxin	-14597
pres	-14598
ufus	-14599
uler	-14600
wait	-14601
zbek	-14602
▁-10	-14603
▁1,0	-14604
▁15:	-14605
▁164	-14606
▁20%	-14607
▁237	-14608
▁259	-14609
▁296	-14610
▁315	-14611
▁345	-14612
▁4-0	-14613
▁4-1	-14614
▁4-2	-14615
▁413	-14616
▁5)?	-14617
▁5.0	-14618
▁812	-14619
▁814	-14620
▁AAM	-14621
▁ATM	-14622
▁BOS	-14623
▁Bah	-14624
▁Cho	-14625
▁Cip	-14626
▁DAL	-14627
▁Dri	-14628
▁Fig	-14629
▁Gib	-14630
▁Ill	-14631
▁Joy	-14632
▁Ker	-14633
▁MUS	-14634
▁Mik	-14635
▁Mod	-14636
▁Nik	-14637
▁Occ	-14638
▁PHP	-14639
▁Pav	-14640
▁Pen	-14641
▁RAM	-14642
▁Sak	-14643
▁Sea	-14644
▁TDs	-14645
▁Tam	-14646
▁UCI	-14647
▁ali	-14648
▁bup	-14649
▁cry	-14650
▁eli	-14651
▁fog	-14652
▁gre	-14653
▁joh	-14654
▁lez	-14655
▁nar	-14656
▁nez	-14657
▁pad	-14658
▁ped	-14659
▁pig	-14660
▁ras	-14661
▁ves	-14662
▁wan	-14663
▁yet	-14664
▁zol	-14665
-2012	-14666
ameda	-14667
amide	-14668
anced	-14669
creat	-14670
ctory	-14671
erves	-14672
essen	-14673
excel	-14674
fiber	-14675
frame	-14676
ganda	-14677
ilion	-14678
indon	-14679
inski	-14680
iques	-14681
issan	-14682
liani	-14683
mania	-14684
nthia	-14685
ollen	-14686
oofed	-14687
ority	-14688
ovasc	-14689
range	-14690
uelta	-14691
vador	-14692
▁'1',	-14693
▁(13)	-14694
▁(24)	-14695
▁(6)?	-14696
▁100%	-14697
▁120?	-14698
▁1400	-14699
▁149?	-14700
▁15.9	-14701
▁155?	-14702
▁1867	-14703
▁1949	-14704
▁200.	-14705
▁2098	-14706
▁2166	-14707
▁2175	-14708
▁7-1?	-14709
▁7644	-14710
▁7698	-14711
▁8116	-14712
▁9566	-14713
▁Bran	-14714
▁Brig	-14715
▁Bucc	-14716
▁Chen	-14717
▁Cuba	-14718
▁Dean	-14719
▁Elli	-14720
▁Epic	-14721
▁Girl	-14722
▁Glen	-14723
▁Gray	-14724
▁HIST	-14725
▁Hold	-14726
▁Jump	-14727
▁Karl	-14728
▁Kati	-14729
▁Kite	-14730
▁Magn	-14731
▁Mall	-14732
▁Meet	-14733
▁More	-14734
▁Muse	-14735
▁Navy	-14736
▁ORAL	-14737
▁Pada	-14738
▁Pens	-14739
▁Reed	-14740
▁Sara	-14741
▁Sony	-14742
▁Tier	-14743
▁Vice	-14744
▁bird	-14745
▁bore	-14746
▁cant	-14747
▁dors	-14748
▁duke	-14749
▁guns	-14750
▁masc	-14751
▁mbit	-14752
▁mech	-14753
▁mono	-14754
▁ndez	-14755
▁neil	-14756
▁oren	-14757
▁para	-14758
▁purs	-14759
▁rosa	-14760
▁sean	-14761
▁step	-14762
▁suns	-14763
▁tone	-14764
▁viol	-14765
▁wars	-14766
-67=13	-14767
Parish	-14768
ambool	-14769
andria	-14770
arsity	-14771
azolin	-14772
enital	-14773
esliga	-14774
ikhail	-14775
irchen	-14776
ornado	-14777
pencer	-14778
ressed	-14779
▁(74)?	-14780
▁006-9	-14781
▁027-6	-14782
▁028-4	-14783
▁08-09	-14784
▁1938?	-14785
▁19428	-14786
▁1974,	-14787
▁1985,	-14788
▁1988,	-14789
▁2013.	-14790
▁21-22	-14791
▁2133?	-14792
▁2184?	-14793
▁28447	-14794
▁96833	-14795
▁Aston	-14796
▁BUSIN	-14797
▁Cargo	-14798
▁Danny	-14799
▁Ernie	-14800
▁GREEK	-14801
▁Hanzi	-14802
▁Jonas	-14803
▁Kenny	-14804
▁Queen	-14805
▁SATUR	-14806
▁Stade	-14807
▁Table	-14808
▁Taper	-14809
▁Unser	-14810
▁Voted	-14811
▁Whats	-14812
▁allow	-14813
▁beats	-14814
▁carlo	-14815
▁creek	-14816
▁expos	-14817
▁famil	-14818
▁flash	-14819
▁hepat	-14820
▁hmrhg	-14821
▁incor	-14822
▁keith	-14823
▁krist	-14824
▁obama	-14825
▁oxide	-14826
▁proto	-14827
▁recap	-14828
▁schiz	-14829
▁seven	-14830
▁subsc	-14831
▁terry	-14832
▁vault	-14833
▁zhang	-14834
Builder	-14835
agonist	-14836
arabine	-14837
erebral	-14838
ersburg	-14839
kalemia	-14840
obactam	-14841
rations	-14842
rescent	-14843
riedman	-14844
▁(1000)	-14845
▁006-12	-14846
▁016-38	-14847
▁018-20	-14848
▁025-50	-14849
▁18480?	-14850
▁ATTEND	-14851
▁Arthur	-14852
▁Athens	-14853
▁Bullet	-14854
▁Clarke	-14855
▁Depart	-14856
▁Double	-14857
▁Filter	-14858
▁Hockey	-14859
▁Inform	-14860
▁Louise	-14861
▁Market	-14862
▁Origin	-14863
▁Purdue	-14864
▁Review	-14865
▁Rowers	-14866
▁SUNDAY	-14867
▁Safari	-14868
▁Thanks	-14869
▁Wright	-14870
▁awarde	-14871
▁climax	-14872
▁commod	-14873
▁contin	-14874
▁deport	-14875
▁diphen	-14876
▁entire	-14877
▁formal	-14878
▁hypern	-14879
▁italia	-14880
▁jeremy	-14881
▁justin	-14882
▁kicker	-14883
▁ladies	-14884
▁murphy	-14885
▁murray	-14886
▁sector	-14887
▁seroma	-14888
▁skater	-14889
▁tweets	-14890
▁vocals	-14891
▁weapon	-14892
arterial	-14893
atherine	-14894
elocytes	-14895
ocytosis	-14896
osurgery	-14897
position	-14898
urethral	-14899
vascular	-14900
▁006-158	-14901
▁006-769	-14902
▁2004-05	-14903
▁Actress	-14904
▁Fridays	-14905
▁Hamburg	-14906
▁Kennedy	-14907
▁Lorenzo	-14908
▁Machine	-14909
▁Morocco	-14910
▁Officer	-14911
▁Product	-14912
▁Quarter	-14913
▁Raptors	-14914
▁Ratings	-14915
▁Systems	-14916
▁affairs	-14917
▁attempt	-14918
▁consume	-14919
▁denmark	-14920
▁kenneth	-14921
▁leaders	-14922
▁netflix	-14923
▁ontario	-14924
▁pacific	-14925
▁pending	-14926
▁reunion	-14927
acedonian	-14928
zbekistan	-14929
▁006-1614	-14930
▁Altitude	-14931
▁BUSINESS	-14932
▁Belgrade	-14933
▁Customer	-14934
▁Defender	-14935
▁Document	-14936
▁Franklin	-14937
▁Receiver	-14938
▁Replaced	-14939
▁SATURDAY	-14940
▁Straight	-14941
▁Valencia	-14942
▁callback	-14943
▁diabetic	-14944
▁economic	-14945
▁elevator	-14946
▁exchange	-14947
▁exterior	-14948
▁fighting	-14949
▁fullback	-14950
▁impaired	-14951
▁inactive	-14952
▁mercedes	-14953
▁mitchell	-14954
▁obtained	-14955
▁ordained	-14956
▁password	-14957
▁penicill	-14958
▁provider	-14959
▁rainfall	-14960
▁redskins	-14961
▁shooting	-14962
▁televote	-14963
▁terminus	-14964
▁vertebra	-14965
arrnambool	-14966
contestant	-14967
▁004-79017	-14968
▁005-48105	-14969
▁021-80293	-14970
▁025-28600	-14971
▁027-82318	-14972
▁030-47098	-14973
▁032-21820	-14974
▁035-24054	-14975
▁Coulthard	-14976
▁Democrats	-14977
▁McCartney	-14978
▁Mickelson	-14979
▁Microsoft	-14980
▁assembled	-14981
▁brunswick	-14982
▁cartridge	-14983
▁durations	-14984
▁enginners	-14985
▁grizzlies	-14986
▁ingesting	-14987
▁molecular	-14988
▁originate	-14989
▁pregnancy	-14990
▁qualified	-14991
▁resection	-14992
▁viewcount	-14993
▁wisconsin	-14994
▁006-172277	-14995
▁Buccaneers	-14996
▁Fittipaldi	-14997
▁PostTypeId	-14998
▁bacteremia	-14999
▁businesses	-15000
▁congenital	-15001
▁dissection	-15002
▁estimation	-15003
▁industries	-15004
▁moderators	-15005
▁spacecraft	-15006
▁undergradu	-15007
▁Credentials	-15008
▁Designation	-15009
▁Prothrombin	-15010
▁corinthians	-15011
▁instruments	-15012
▁restriction	-15013
▁subdivision	-15014
▁Agricultural	-15015
▁hyperkalemia	-15016
▁leukocytosis	-15017
▁libertadores	-15018
▁neurosurgery	-15019
▁pneumococcal	-15020
▁configuration	-15021
▁hypernatremia	-15022
▁diphenhydramine	-15023
▁exteriorization	-15024
./	-15025
4/	-15026
5/	-15027
Be	-15028
CK	-15029
IP	-15030
LO	-15031
OE	-15032
Or	-15033
RI	-15034
Su	-15035
Tr	-15036
__	-15037
lf	-15038
ws	-15039
-85	-15040
-90	-15041
-99	-15042
.28	-15043
.78	-15044
/30	-15045
1',	-15046
127	-15047
232	-15048
236	-15049
241	-15050
321	-15051
33,	-15052
5',	-15053
80'	-15054
AND	-15055
Bad	-15056
IEW	-15057
ORD	-15058
Orb	-15059
ahn	-15060
aho	-15061
alp	-15062
apa	-15063
cht	-15064
gil	-15065
hex	-15066
hyp	-15067
jev	-15068
mes	-15069
pac	-15070
roc	-15071
san	-15072
tes	-15073
tri	-15074
zon	-15075
▁2-	-15076
▁IC	-15077
▁LQ	-15078
▁QU	-15079
▁bs	-15080
▁ef	-15081
▁ji	-15082
▁ub	-15083
▁vc	-15084
-23?	-15085
-99?	-15086
.07?	-15087
.3%?	-15088
.80?	-15089
/27?	-15090
250?	-15091
CHEM	-15092
Vote	-15093
abil	-15094
alon	-15095
amal	-15096
anto	-15097
ayan	-15098
bean	-15099
bian	-15100
cine	-15101
clay	-15102
enda	-15103
etan	-15104
etil	-15105
fred	-15106
iden	-15107
iety	-15108
inez	-15109
inos	-15110
iras	-15111
isse	-15112
ivas	-15113
izes	-15114
jack	-15115
need	-15116
ofia	-15117
ride	-15118
scar	-15119
uchi	-15120
ulsa	-15121
urai	-15122
vant	-15123
vist	-15124
yana	-15125
zero	-15126
▁(50	-15127
▁+10	-15128
▁14:	-15129
▁21:	-15130
▁257	-15131
▁289	-15132
▁332	-15133
▁377	-15134
▁397	-15135
▁4.4	-15136
▁424	-15137
▁489	-15138
▁536	-15139
▁545	-15140
▁546	-15141
▁567	-15142
▁6.0	-15143
▁6.8	-15144
▁654	-15145
▁7.3	-15146
▁84,	-15147
▁858	-15148
▁888	-15149
▁AER	-15150
▁Any	-15151
▁Atl	-15152
▁DFW	-15153
▁DRE	-15154
▁Gat	-15155
▁Ira	-15156
▁Kan	-15157
▁Kor	-15158
▁Leo	-15159
▁Meg	-15160
▁REL	-15161
▁ROM	-15162
▁Row	-15163
▁Sav	-15164
▁Sir	-15165
▁THI	-15166
▁Tar	-15167
▁Tre	-15168
▁Two	-15169
▁ave	-15170
▁bog	-15171
▁bug	-15172
▁dod	-15173
▁dvt	-15174
▁ens	-15175
▁gib	-15176
▁hof	-15177
▁iOS	-15178
▁jar	-15179
▁kat	-15180
▁liq	-15181
▁lvp	-15182
▁mul	-15183
▁nik	-15184
▁org	-15185
▁ris	-15186
▁sir	-15187
▁son	-15188
▁ups	-15189
▁wer	-15190
/2101	-15191
81433	-15192
NOISE	-15193
Olymp	-15194
Orbit	-15195
annes	-15196
arius	-15197
arted	-15198
elena	-15199
eltic	-15200
empty	-15201
enroe	-15202
ethyl	-15203
etine	-15204
icted	-15205
ierry	-15206
inder	-15207
omens	-15208
psych	-15209
pture	-15210
rones	-15211
topic	-15212
uenza	-15213
under	-15214
urban	-15215
xiety	-15216
▁'1'?	-15217
▁(14)	-15218
▁(16)	-15219
▁(27)	-15220
▁0.5%	-15221
▁11.5	-15222
▁114?	-15223
▁1372	-15224
▁160?	-15225
▁1912	-15226
▁1914	-15227
▁1931	-15228
▁1:24	-15229
▁2-2?	-15230
▁2019	-15231
▁2087	-15232
▁2157	-15233
▁2186	-15234
▁3:30	-15235
▁5100	-15236
▁Bett	-15237
▁Buck	-15238
▁Clos	-15239
▁Corn	-15240
▁Debt	-15241
▁Desk	-15242
▁Even	-15243
▁Fate	-15244
▁Fury	-15245
▁Lang	-15246
▁NCAA	-15247
▁Plat	-15248
▁Sets	-15249
▁TIME	-15250
▁That	-15251
▁Wing	-15252
▁barr	-15253
▁bath	-15254
▁cage	-15255
▁dani	-15256
▁defe	-15257
▁hale	-15258
▁hong	-15259
▁kbit	-15260
▁lind	-15261
▁load	-15262
▁mack	-15263
▁mate	-15264
▁pont	-15265
▁quin	-15266
▁reco	-15267
▁rgen	-15268
▁rode	-15269
▁sicu	-15270
▁slot	-15271
▁solr	-15272
▁subt	-15273
▁surf	-15274
▁tips	-15275
-70-71	-15276
/2104,	-15277
Violin	-15278
ancock	-15279
caster	-15280
donald	-15281
entino	-15282
irling	-15283
ologic	-15284
themat	-15285
▁(84)?	-15286
▁022-4	-15287
▁022-7	-15288
▁029-1	-15289
▁14054	-15290
▁1821?	-15291
▁1936?	-15292
▁2101,	-15293
▁2177?	-15294
▁2183?	-15295
▁22648	-15296
▁25696	-15297
▁27172	-15298
▁50000	-15299
▁97330	-15300
▁Claud	-15301
▁DEPAR	-15302
▁Feder	-15303
▁Guest	-15304
▁Hindu	-15305
▁Irwin	-15306
▁Logan	-15307
▁Luigi	-15308
▁Mayor	-15309
▁Monte	-15310
▁Nancy	-15311
▁Occup	-15312
▁PHYSI	-15313
▁Purse	-15314
▁Youth	-15315
▁acted	-15316
▁adams	-15317
▁antip	-15318
▁asker	-15319
▁baker	-15320
▁calls	-15321
▁coord	-15322
▁doing	-15323
▁earns	-15324
▁egypt	-15325
▁infer	-15326
▁intro	-15327
▁jacob	-15328
▁jaund	-15329
▁lakes	-15330
▁rugby	-15331
▁rural	-15332
▁stade	-15333
▁tamil	-15334
Jeramie	-15335
Olympus	-15336
fielder	-15337
hemorrh	-15338
ificial	-15339
ortisol	-15340
osmotic	-15341
umatoid	-15342
▁Asians	-15343
▁Cooper	-15344
▁DINNER	-15345
▁Doctor	-15346
▁Female	-15347
▁Jackie	-15348
▁PLAYED	-15349
▁Spirit	-15350
▁Strike	-15351
▁Target	-15352
▁Triple	-15353
▁angiop	-15354
▁billed	-15355
▁bought	-15356
▁bryant	-15357
▁concer	-15358
▁darren	-15359
▁drives	-15360
▁hypers	-15361
▁making	-15362
▁manuel	-15363
▁miguel	-15364
▁monaco	-15365
▁morris	-15366
▁pierre	-15367
▁promot	-15368
▁raised	-15369
▁rhythm	-15370
▁roster	-15371
▁stored	-15372
▁throws	-15373
Cleavant	-15374
versions	-15375
▁027-154	-15376
▁2008/09	-15377
▁2009-20	-15378
▁2012-13	-15379
▁Airdate	-15380
▁Bengals	-15381
▁Borough	-15382
▁Deberry	-15383
▁Kickoff	-15384
▁Respons	-15385
▁Theatre	-15386
▁Village	-15387
▁ascitic	-15388
▁bradley	-15389
▁chamber	-15390
▁cholecy	-15391
▁dillard	-15392
▁hormone	-15393
▁jamaica	-15394
▁lateral	-15395
▁littler	-15396
▁marilyn	-15397
▁matthew	-15398
▁mclaren	-15399
▁remixed	-15400
▁returns	-15401
▁shuttle	-15402
▁vaccine	-15403
structure	-15404
telemetry	-15405
▁006-2029	-15406
▁009-5001	-15407
▁Delaware	-15408
▁Industry	-15409
▁Regional	-15410
▁Spartans	-15411
▁adjusted	-15412
▁catalogs	-15413
▁conflict	-15414
▁constitu	-15415
▁cortisol	-15416
▁designed	-15417
▁designer	-15418
▁disaster	-15419
▁ejection	-15420
▁identify	-15421
▁kawasaki	-15422
▁kitmaker	-15423
▁meninges	-15424
▁missouri	-15425
▁placings	-15426
▁possibly	-15427
▁probably	-15428
▁registed	-15429
▁relation	-15430
▁residual	-15431
▁sessions	-15432
▁synonyms	-15433
▁025-50213	-15434
▁031-15417	-15435
▁032-24135	-15436
▁Anonymous	-15437
▁Armstrong	-15438
▁Character	-15439
▁Leicester	-15440
▁Lightning	-15441
▁Worldwide	-15442
▁arthritis	-15443
▁cefazolin	-15444
▁complains	-15445
▁dependent	-15446
▁depending	-15447
▁favourite	-15448
▁liverpool	-15449
▁malaysian	-15450
▁movements	-15451
▁poisoning	-15452
▁pseudomon	-15453
▁relegated	-15454
▁socialist	-15455
▁006-181433	-15456
▁DEPARTMENT	-15457
▁Louisville	-15458
▁Technology	-15459
▁amendments	-15460
▁antihypert	-15461
▁dermatitis	-15462
▁researcher	-15463
▁rheumatoid	-15464
olverhampton	-15465
▁Necromancer	-15466
▁coagulation	-15467
▁definitions	-15468
▁headquarted	-15469
▁penicillins	-15470
▁phosphatase	-15471
▁posthemorrh	-15472
▁acceleration	-15473
▁hypoglycemia	-15474
▁inflammatory	-15475
▁Middlesbrough	-15476
▁dexamethasone	-15477
▁entertainment	-15478
▁glucocorticoid	-15479
▁infrastructure	-15480
:1	-15481
Af	-15482
Al	-15483
DC	-15484
EE	-15485
FK	-15486
GP	-15487
IV	-15488
PH	-15489
Ph	-15490
UE	-15491
cz	-15492
ea	-15493
hc	-15494
mu	-15495
-33	-15496
.)?	-15497
.0,	-15498
.79	-15499
01?	-15500
110	-15501
137	-15502
170	-15503
189	-15504
193	-15505
20,	-15506
201	-15507
305	-15508
308	-15509
32,	-15510
330	-15511
332	-15512
348	-15513
407	-15514
441	-15515
509	-15516
562	-15517
568	-15518
67?	-15519
68?	-15520
94?	-15521
966	-15522
ADA	-15523
OND	-15524
PON	-15525
Per	-15526
ROY	-15527
aca	-15528
agi	-15529
aht	-15530
atz	-15531
cli	-15532
ido	-15533
meb	-15534
nat	-15535
ndl	-15536
nor	-15537
ohl	-15538
omi	-15539
orc	-15540
vio	-15541
▁%)	-15542
▁3'	-15543
▁6'	-15544
▁Bi	-15545
▁Ce	-15546
▁ES	-15547
▁FB	-15548
▁GO	-15549
▁HO	-15550
▁KK	-15551
▁KM	-15552
▁MH	-15553
▁OL	-15554
▁Om	-15555
▁PF	-15556
▁QB	-15557
▁RA	-15558
▁Ri	-15559
▁Ul	-15560
▁Wa	-15561
[...]
